{"<s>":0,"<pad>":1,"</s>":2,"<unk>":3,"<mask>":4,"!":5,"\"":6,"#":7,"$":8,"%":9,"&":10,"'":11,"(":12,")":13,"*":14,"+":15,",":16,"-":17,".":18,"/":19,"0":20,"1":21,"2":22,"3":23,"4":24,"5":25,"6":26,"7":27,"8":28,"9":29,":":30,";":31,"<":32,"=":33,">":34,"?":35,"@":36,"A":37,"B":38,"C":39,"D":40,"E":41,"F":42,"G":43,"H":44,"I":45,"J":46,"K":47,"L":48,"M":49,"N":50,"O":51,"P":52,"Q":53,"R":54,"S":55,"T":56,"U":57,"V":58,"W":59,"X":60,"Y":61,"Z":62,"[":63,"\\":64,"]":65,"^":66,"_":67,"`":68,"a":69,"b":70,"c":71,"d":72,"e":73,"f":74,"g":75,"h":76,"i":77,"j":78,"k":79,"l":80,"m":81,"n":82,"o":83,"p":84,"q":85,"r":86,"s":87,"t":88,"u":89,"v":90,"w":91,"x":92,"y":93,"z":94,"{":95,"|":96,"}":97,"~":98,"¡":99,"¢":100,"£":101,"¤":102,"¥":103,"¦":104,"§":105,"¨":106,"©":107,"ª":108,"«":109,"¬":110,"®":111,"¯":112,"°":113,"±":114,"²":115,"³":116,"´":117,"µ":118,"¶":119,"·":120,"¸":121,"¹":122,"º":123,"»":124,"¼":125,"½":126,"¾":127,"¿":128,"À":129,"Á":130,"Â":131,"Ã":132,"Ä":133,"Å":134,"Æ":135,"Ç":136,"È":137,"É":138,"Ê":139,"Ë":140,"Ì":141,"Í":142,"Î":143,"Ï":144,"Ð":145,"Ñ":146,"Ò":147,"Ó":148,"Ô":149,"Õ":150,"Ö":151,"×":152,"Ø":153,"Ù":154,"Ú":155,"Û":156,"Ü":157,"Ý":158,"Þ":159,"ß":160,"à":161,"á":162,"â":163,"ã":164,"ä":165,"å":166,"æ":167,"ç":168,"è":169,"é":170,"ê":171,"ë":172,"ì":173,"í":174,"î":175,"ï":176,"ð":177,"ñ":178,"ò":179,"ó":180,"ô":181,"õ":182,"ö":183,"÷":184,"ø":185,"ù":186,"ú":187,"û":188,"ü":189,"ý":190,"þ":191,"ÿ":192,"Ā":193,"ā":194,"Ă":195,"ă":196,"Ą":197,"ą":198,"Ć":199,"ć":200,"Ĉ":201,"ĉ":202,"Ċ":203,"ċ":204,"Č":205,"č":206,"Ď":207,"ď":208,"Đ":209,"đ":210,"Ē":211,"ē":212,"Ĕ":213,"ĕ":214,"Ė":215,"ė":216,"Ę":217,"ę":218,"Ě":219,"ě":220,"Ĝ":221,"ĝ":222,"Ğ":223,"ğ":224,"Ġ":225,"ġ":226,"Ģ":227,"ģ":228,"Ĥ":229,"ĥ":230,"Ħ":231,"ħ":232,"Ĩ":233,"ĩ":234,"Ī":235,"ī":236,"Ĭ":237,"ĭ":238,"Į":239,"į":240,"İ":241,"ı":242,"Ĳ":243,"ĳ":244,"Ĵ":245,"ĵ":246,"Ķ":247,"ķ":248,"ĸ":249,"Ĺ":250,"ĺ":251,"Ļ":252,"ļ":253,"Ľ":254,"ľ":255,"Ŀ":256,"ŀ":257,"Ł":258,"ł":259,"Ń":260,"Ġ(":261,"Ġ)":262,"Ġ,":263,";\\":264,"Ġ;\\":265,"Ġ-":266,"Ġi":267,"Ġ=":268,"Ġs":269,"re":270,"Ġc":271,"Ġ->":272,"Ġ*":273,"nt":274,"er":275,"st":276,"\\\"":277,"de":278,"Ġ{":279,"at":280,"se":281,"le":282,"Ġt":283,"Ġ{\\":284,"Ġ}":285,"on":286,"in":287,"Ġp":288,"Ġ[":289,"Ġ]":290,"Ġ}\\":291,"Ġ0":292,"Ġb":293,"ar":294,"Ġif":295,"Ġ&":296,"me":297,"ct":298,"Ġ1":299,"ro":300,"Ġf":301,"Ġ+":302,"Ġm":303,"Ġ\\\"":304,"Ġe":305,"Ġre":306,"al":307,"co":308,"si":309,"Ġ.":310,"Ġo":311,"Ġa":312,"ur":313,"AS":314,"Ġint":315,"ff":316,"it":317,"tr":318,"Ġd":319,"IN":320,"or":321,"Ġg":322,"an":323,"ST":324,"pe":325,"ze":326,"Ġ\"":327,"Ġv":328,"Ġu":329,"ame":330,"Ġh":331,"LL":332,"ad":333,"lo":334,"te":335,"et":336,"Ġn":337,"NU":338,"id":339,"Ġcon":340,"Ġ#":341,"set":342,"Ġ:":343,"ER":344,"ASN":345,"ĠB":346,"len":347,"ic":348,"\":":349,"EN":350,"Ġret":351,"Ġconst":352,"ype":353,"Ġ2":354,"int":355,"ata":356,"Ġr":357,"Ġ<":358,"ree":359,"NULL":360,"ĠNULL":361,"ut":362,"Ġ!":363,"mp":364,"ck":365,"size":366,"ĠASN":367,"Ġ==":368,"as":369,"ine":370,"har":371,"Ġl":372,"Ġde":373,"urn":374,"CT":375,"Ġreturn":376,"Ġco":377,"Ġ_":378,"ffset":379,"to":380,"ag":381,"ch":382,"Ġx":383,"code":384,"ase":385,"ce":386,"rea":387,"Ġst":388,"ON":389,"ctx":390,"DE":391,"th":392,"ing":393,"nd":394,"ue":395,"ed":396,"fo":397,"ion":398,"pi":399,"STR":400,"ex":401,"ss":402,"SS":403,"Ġav":404,"arg":405,"ING":406,"rame":407,"Ġ|":408,"Ġel":409,"ate":410,"ĠA":411,"Ġ++":412,"Ġelse":413,"CK":414,"Ġin":415,"add":416,"ab":417,"Ġstr":418,"32":419,"um":420,"Ġbu":421,"Ġ>":422,"Ġw":423,"ile":424,"RE":425,"Ġoffset":426,"\",":427,"nc":428,"24":429,"SSL":430,"lt":431,"STRING":432,"vb":433,"OP":434,"Ġchar":435,"Ġcase":436,"ve":437,"reak":438,"Ġk":439,"Ġ&&":440,"Ġbreak":441,"\\\\":442,"ĠE":443,"ig":444,"Ġhf":445,"ize":446,"ĠF":447,"ect":448,"OF":449,"Ġ##":450,"ver":451,"str":452,"AL":453,"IT":454,"oid":455,"PE":456,"ĠU":457,"yte":458,"Ġmb":459,"Ġun":460,"ext":461,"Ġtvb":462,"Ġsk":463,"STA":464,"16":465,"pt":466,"Ġdef":467,"val":468,"type":469,"ode":470,"245":471,"tree":472,"Ġtype":473,"Ġ4":474,"and":475,"ĠC":476,"ĠH":477,"data":478,"MB":479,"Ġlen":480,"Ġvoid":481,"OR":482,"tx":483,"able":484,"ject":485,"pro":486,"OPEN":487,"Ġ+=":488,"Ġ!=":489,"INT":490,"LE":491,"00":492,"if":493,"Ġsize":494,"FI":495,"OPENSSL":496,"ĠOPENSSL":497,"el":498,"Ġdefine":499,"gth":500,"Ġpro":501,"Ġy":502,"Ġfor":503,"bu":504,"ror":505,"ter":506,"info":507,"ey":508,"Ġctx":509,"Ġq":510,"is":511,"up":512,"STACK":513,"VP":514,"ap":515,"ptr":516,"has":517,"lock":518,"ĠT":519,"Ġ3":520,"atic":521,"Ġarg":522,"ot":523,"Ġbuf":524,"sig":525,"ist":526,"Ġdata":527,"ack":528,"64":529,"ME":530,"Ġavctx":531,"Ġj":532,"ry":533,"frame":534,"ser":535,"Ġ8":536,"CS":537,"Ġcur":538,"em":539,"Ġex":540,"Ġ%":541,"IG":542,"sign":543,"LO":544,"ure":545,"AT":546,"en":547,"ult":548,"our":549,"AN":550,"In":551,"get":552,"SE":553,"name":554,"hash":555,"ĠAV":556,"il":557,"Ġer":558,"ource":559,"sp":560,"con":561,"Ġproto":562,"op":563,"YPE":564,"ĠBN":565,"ip":566,"ĠM":567,"ub":568,"MBCS":569,"12":570,"ide":571,"Ġout":572,"signed":573,"dex":574,"ms":575,"UN":576,"LMBCS":577,"Ġunsigned":578,"ffer":579,"ERR":580,"ment":581,"sion":582,"age":583,"att":584,"ĠS":585,"put":586,"DEC":587,"mm":588,"Ġ||":589,"TYPE":590,"Ġuint":591,"project":592,"},":593,"Ġ{\"":594,"di":595,"ra":596,"Ġ'":597,"Ġch":598,"ĠP":599,"NUM":600,"es":601,"Ġcpi":602,"FILL":603,"ĠFT":604,"ĠEVP":605,"pr":606,"ES":607,"sh":608,"ĠHFILL":609,"ASE":610,"ew":611,"ca":612,"Ġop":613,"CI":614,"Ġval":615,"lag":616,"ht":617,"unt":618,"Ġ}\",":619,"row":620,"ĠBASE":621,"art":622,"ENC":623,"im":624,"CTX":625,"ERROR":626,"ax":627,"Co":628,"rc":629,"Ġbyte":630,"Ġis":631,"ream":632,"no":633,"item":634,"py":635,"AR":636,"Ġsource":637,"ONE":638,"ĠBIG":639,"ĠBIGNUM":640,"ob":641,"Ġname":642,"ent":643,"mem":644,"Ġframe":645,"line":646,"LA":647,"est":648,"Con":649,"ION":650,"ĠG":651,"Char":652,"NONE":653,"Ġref":654,"file":655,"DI":656,"of":657,"ress":658,"un":659,"Ġfi":660,"Ġmi":661,"Ġgo":662,"Ġend":663,"Ġste":664,"bi":665,"CO":666,"loc":667,"128":668,"mv":669,"cture":670,"ntext":671,"verter":672,"Ġstep":673,"sk":674,"unc":675,"tp":676,"red":677,"rent":678,"DEF":679,"Ġvp":680,"Ġgoto":681,"bit":682,"ED":683,"Ġkey":684,"fi":685,"ast":686,"Ġpi":687,"ort":688,"ity":689,"ation":690,"Ġargs":691,"ert":692,"Ġ16":693,"ead":694,"mb":695,"Ġstatic":696,"Ġres":697,"log":698,"us":699,"offset":700,"que":701,"Ġerr":702,"par":703,"def":704,"Ġgctx":705,"Ġtree":706,"lags":707,"UT":708,"ime":709,"ice":710,"Ġdst":711,"num":712,"Ġ<<":713,"Ġcm":714,"length":715,"arget":716,"PH":717,"ow":718,"Ġnum":719,"Ġ?":720,"Ġ>>":721,"col":722,"22":723,"Ġto":724,"pl":725,"ref":726,"Ġblock":727,"Ġget":728,"Ġvalue":729,"static":730,"nv":731,"RO":732,"Ġmy":733,"func":734,"ĠI":735,"Ġyy":736,"debi":737,"debian":738,"CIPH":739,"Ġptr":740,"all":741,"Ġline":742,"free":743,"INE":744,"ft":745,"bo":746,"CH":747,"VAL":748,"Ġpar":749,"address":750,"RA":751,"ay":752,"IZ":753,"cm":754,"ight":755,"ID":756,"NO":757,"uct":758,"Ġcurrent":759,"MP":760,"che":761,"Ġmv":762,"Ġnext":763,"Ġ>=":764,"Ġse":765,"key":766,"mple":767,"Ġsizeof":768,"IME":769,"ten":770,"eader":771,"qu":772,"po":773,"ĠSTACK":774,"index":775,"ssl":776,"rypt":777,"mode":778,"ĠL":779,"ĠD":780,"Ġle":781,"enc":782,"ĠENC":783,"erand":784,"UR":785,"Ġgb":786,"ac":787,"idth":788,"AD":789,"rom":790,"Ġlength":791,"Converter":792,"Ġid":793,"buffer":794,"Re":795,"ang":796,"ul":797,"CON":798,"DEFINE":799,"Ġtarget":800,"CE":801,"Ġossl":802,"Ġ6":803,"AX":804,"acket":805,"error":806,"CIPHER":807,"EX":808,"rit":809,"Ġ5":810,"inline":811,"Ġ__":812,"read":813,"uint":814,"BIT":815,"eight":816,"stream":817,"ant":818,"tra":819,"BLE":820,"block":821,"ask":822,"byte":823,"Ġcode":824,"string":825,"ol":826,"buf":827,"LOG":828,"bits":829,"Ġtmp":830,"und":831,"imit":832,"Ġlast":833,"Info":834,"orm":835,"print":836,"Ġwh":837,"UE":838,"ind":839,"Ġendif":840,"od":841,"ive":842,"count":843,"BU":844,"Ġstride":845,"bt":846,"FF":847,"Ġdi":848,"ber":849,"am":850,"Ġth":851,"rd":852,"value":853,"out":854,"Ġcl":855,"Ġbase":856,"Ġstruct":857,"Ġbs":858,"table":859,"btatt":860,"Ġsub":861,"ET":862,"ass":863,"Ġerror":864,"Ġpr":865,"lter":866,"Ġinfo":867,"ath":868,"Ġsrc":869,"ord":870,"res":871,"ong":872,"rror":873,"dr":874,"ĠDEC":875,"GS":876,"gs":877,"Ġsh":878,"CTION":879,"UINT":880,"ĠSSL":881,"ann":882,"sub":883,"alloc":884,"Ġextra":885,"Ġflags":886,"Ġ<=":887,"picture":888,"LOCK":889,"LARE":890,"tt":891,"Ġcb":892,"ĠDECLARE":893,"ITE":894,"new":895,"Ġsa":896,"NA":897,"roup":898,"vice":899,"lement":900,"kt":901,"FL":902,"Ġoutput":903,"FUN":904,"Ġwhile":905,"Ġmem":906,"Ġdo":907,"cale":908,"cod":909,"comp":910,"PT":911,"Un":912,"Data":913,"ĠEX":914,"quest":915,"atus":916,"Ġinput":917,"Ġ7":918,"Ġpinfo":919,"Ġett":920,"Ġsc":921,"err":922,"chro":923,"St":924,"ml":925,"DAT":926,"VER":927,"ABLE":928,"emp":929,"ift":930,"ted":931,"SR":932,"encrypt":933,"SIZ":934,"epi":935,"SET":936,"eld":937,"ĠULMBCS":938,"Ġnew":939,"BO":940,"ail":941,"pu":942,"Ġuni":943,"ctor":944,"sc":945,"Ġcol":946,"Error":947,"Context":948,"mage":949,"ĠR":950,"Ġatt":951,"AES":952,"load":953,"sa":954,"Ġleft":955,"Ġ/":956,"Ġms":957,"Ġopcode":958,"Ġbytes":959,"end":960,"xel":961,"chrome":962,"LS":963,"cmp":964,"iv":965,"mi":966,"EG":967,"SER":968,"writ":969,"list":970,"ction":971,"OB":972,"Ġbit":973,"SIZE":974,"ane":975,"annel":976,"ĠextraInfo":977,"Ġrc":978,"Ar":979,"ns":980,"vel":981,"Ġpic":982,"FUNCTION":983,"Ch":984,"225":985,"Ġz":986,"ITEM":987,"ange":988,"form":989,"Ġinter":990,"element":991,"ault":992,"Index":993,"Ġresult":994,"ost":995,"Ġad":996,"Ġff":997,"nce":998,"38":999,"br":1000,"ĠO":1001,"atch":1002,"10":1003,"const":1004,"UL":1005,"Ġwidth":1006,"Byte":1007,"cf":1008,"Ġbuffer":1009,"STRFL":1010,"STRFLGS":1011,"ĠDEFINE":1012,"pred":1013,"Ġen":1014,"Ġpl":1015,"otion":1016,"Ġstate":1017,"msg":1018,"Ġtemp":1019,"TIME":1020,"ain":1021,"cl":1022,"ace":1023,"Ġass":1024,"ameter":1025,"ĠuniChar":1026,"Ġuser":1027,"cpy":1028,"Ġpre":1029,"TT":1030,"wit":1031,"printf":1032,"tension":1033,"one":1034,"vm":1035,"copy":1036,"31":1037,"spi":1038,"ĠY":1039,"ECT":1040,"sy":1041,"Ġlong":1042,"Ġcospi":1043,"Cap":1044,"lk":1045,"Ġtr":1046,"Ġfile":1047,"CM":1048,"shift":1049,"OBJ":1050,"Ġdest":1051,"Ġiv":1052,"TR":1053,"Ġoperand":1054,"KE":1055,"ork":1056,"cs":1057,"LI":1058,"PECT":1059,"Uni":1060,"DATA":1061,"Ġmax":1062,"FO":1063,"arch":1064,"DIAN":1065,"Ġxd":1066,"MAX":1067,"ODE":1068,"Ġcnv":1069,"low":1070,"ĠEXPECT":1071,"55":1072,"ENDIAN":1073,"Ġlinesize":1074,"min":1075,"Limit":1076,"Ġmode":1077,"Code":1078,"packet":1079,"Args":1080,"Ġqu":1081,"Ġassert":1082,"ans":1083,"ption":1084,"io":1085,"Ġheight":1086,"Ġstream":1087,"ENT":1088,"Ġcount":1089,"ALL":1090,"ĠVP":1091,"Ġgroup":1092,"stride":1093,"Ġbest":1094,"TE":1095,"Ġcont":1096,"ok":1097,"HE":1098,"pkt":1099,"og":1100,"uid":1101,"Ġme":1102,"HAS":1103,"BOO":1104,"Ġ\\\\":1105,"ray":1106,"RAME":1107,"ere":1108,"Ġser":1109,"OBJECT":1110,"Ġimage":1111,"per":1112,"Ġlh":1113,"coding":1114,"Ġdat":1115,"cache":1116,"EGER":1117,"yn":1118,"ĠUConverter":1119,"Ġjob":1120,"state":1121,"26":1122,"LEAN":1123,"KEY":1124,"xt":1125,"spon":1126,"BOOLEAN":1127,"valid":1128,"FUNCTIONS":1129,"04":1130,"header":1131,"ĠV":1132,"init":1133,"Ġskip":1134,"PR":1135,"Ġ12":1136,"fb":1137,"ĠN":1138,"av":1139,"mt":1140,"Ġas":1141,"AP":1142,"URE":1143,"sponse":1144,"start":1145,"abil":1146,"Ġthis":1147,"Ġgcm":1148,"dev":1149,"ĠGet":1150,"Ġbytestream":1151,"56":1152,"Ġfree":1153,"GEN":1154,"decode":1155,"pos":1156,"cp":1157,"Ġ10":1158,"ri":1159,"INTEGER":1160,"Ġguint":1161,"Ġstart":1162,"TH":1163,"time":1164,"Ġcomp":1165,"ph":1166,"round":1167,"BUG":1168,"Ġdis":1169,"HASH":1170,"FRAME":1171,"Ġplane":1172,"witch":1173,"ly":1174,"xy":1175,"Ġsbr":1176,"LEN":1177,"fig":1178,"Ġrd":1179,"Pro":1180,"rst":1181,"wsp":1182,"stat":1183,"ability":1184,"ntry":1185,"0000":1186,"INVAL":1187,"pend":1188,"object":1189,"Ġ\\\"%":1190,"inter":1191,"11":1192,"80":1193,"mswsp":1194,"GENER":1195,"ams":1196,"ld":1197,"li":1198,"path":1199,"UTF":1200,"Ġ--":1201,"ffff":1202,"Ġmbmi":1203,"IS":1204,"do":1205,"filter":1206,"20":1207,"34":1208,"Ġidx":1209,"Ġabo":1210,"Ġavpkt":1211,"IO":1212,"ial":1213,"ql":1214,"ator":1215,"Ex":1216,"Ġal":1217,"Ġstring":1218,"operand":1219,"Ġabove":1220,"Ġpo":1221,"Ġswitch":1222,"gment":1223,"Ġ-=":1224,"Ġintern":1225,"Capability":1226,"erence":1227,"TTP":1228,"Ġks":1229,"max":1230,"Ġrow":1231,"Ġoff":1232,"Ġtime":1233,"rate":1234,"ĠX":1235,"Ġset":1236,"ALSE":1237,"RL":1238,"vc":1239,"Ġxml":1240,"ideo":1241,"UND":1242,"reate":1243,"are":1244,"Ġ'\\\\":1245,"13":1246,"19":1247,"PI":1248,"ĠINT":1249,"50":1250,"ke":1251,"OW":1252,"dup":1253,"Ġenv":1254,"attr":1255,"ĠpLMBCS":1256,"ust":1257,"GENERAL":1258,"Ġtypedef":1259,"Ġmotion":1260,"mask":1261,"ps":1262,"array":1263,"lob":1264,"Ġmemcpy":1265,"ength":1266,"Bu":1267,"request":1268,"Ġenc":1269,"Ġ9":1270,"orted":1271,"Ġprint":1272,"LIT":1273,"sed":1274,"To":1275,"pre":1276,"84":1277,"QU":1278,"flags":1279,"ero":1280,"INVALID":1281,"ĠAES":1282,"Ġ|=":1283,"var":1284,"Ġ32":1285,"ĠRE":1286,"Ġheader":1287,"RY":1288,"14":1289,"Ġlist":1290,"Ġpixel":1291,"PRINT":1292,"eff":1293,"ssage":1294,"ayer":1295,"mples":1296,"idx":1297,"lu":1298,"stem":1299,"eg":1300,"uuid":1301,"sit":1302,"Ġtable":1303,"alse":1304,"Ġhb":1305,"ull":1306,"CTIME":1307,"Ġfrom":1308,"UTCTIME":1309,"big":1310,"dir":1311,"ĠBLOCK":1312,"Type":1313,"Ġdefault":1314,"word":1315,"ener":1316,"ĠAVERROR":1317,"http":1318,"Ġul":1319,"mod":1320,"check":1321,"pert":1322,"Ġap":1323,"Ġfield":1324,"sl":1325,"Ġcpu":1326,"rp":1327,"resh":1328,"lean":1329,"src":1330,"mult":1331,"Ġpa":1332,"INFO":1333,"Unicode":1334,"RYPT":1335,"Source":1336,"ESC":1337,"Ġdecode":1338,"ttp":1339,"Mode":1340,"uff":1341,"Ġconverter":1342,"IL":1343,"Ġread":1344,"rtp":1345,"Ġsf":1346,"Ġoffsets":1347,"ĠFF":1348,"SP":1349,"Ġifdef":1350,"EXT":1351,"cb":1352,"Ġgot":1353,"Ġsl":1354,"ery":1355,"Ġver":1356,"ick":1357,"Val":1358,"off":1359,"Ġpb":1360,"entry":1361,"AC":1362,"FLA":1363,"ance":1364,"DEBUG":1365,"Ġinit":1366,"TLE":1367,"Ġstatus":1368,"ific":1369,"LITTLE":1370,"ory":1371,"igh":1372,"format":1373,"ature":1374,"ign":1375,"AG":1376,"ync":1377,"sect":1378,"Ġstd":1379,"mbcs":1380,"De":1381,"url":1382,"IV":1383,"ken":1384,"ĠBIO":1385,"conv":1386,"number":1387,"NOT":1388,"quant":1389,"ĠQ":1390,"Ġstack":1391,"Ġindex":1392,"ts":1393,"Ġloc":1394,"Ġob":1395,"Ġspl":1396,"77":1397,"ctive":1398,"version":1399,"IZED":1400,"ĠMB":1401,"dec":1402,"Ġdir":1403,"qual":1404,"ĠYY":1405,"context":1406,"pen":1407,"Ġbulk":1408,"Ġwmem":1409,"ild":1410,"RYPTO":1411,"date":1412,"ĠCRYPTO":1413,"sco":1414,"ĠLMBCS":1415,"Ġtag":1416,"Ġph":1417,"Ġtop":1418,"Ġconn":1419,"cess":1420,"main":1421,"ĠW":1422,"BLOCK":1423,"char":1424,"width":1425,"cu":1426,"fe":1427,"ĠUChar":1428,"Ġcontext":1429,"ONG":1430,"FFER":1431,"89":1432,"dvm":1433,"written":1434,"GENERALIZED":1435,"GENERALIZEDTIME":1436,"unk":1437,"NAME":1438,"vent":1439,"lose":1440,"FIG":1441,"BUFFER":1442,"Ġsp":1443,"pec":1444,"write":1445,"GCM":1446,"HTTP":1447,"oo":1448,"pack":1449,"ition":1450,"Ġwork":1451,"ith":1452,"lename":1453,"Ġrr":1454,"bytes":1455,"Value":1456,"uth":1457,"hand":1458,"Ġlo":1459,"level":1460,"skip":1461,"URL":1462,"17":1463,"RP":1464,"RT":1465,"Ġpd":1466,"Ġmask":1467,"intra":1468,"TLS":1469,"map":1470,"Ġulmbcs":1471,"db":1472,"iled":1473,"Ġfirst":1474,"own":1475,"iax":1476,"ailed":1477,"diff":1478,"SU":1479,"pc":1480,"Ġrate":1481,"ĠCHE":1482,"ĠCHECK":1483,"Ġps":1484,"Ġcomm":1485,"Ġpicture":1486,"OK":1487,"Ġparam":1488,"system":1489,"TRUE":1490,"ĠpArgs":1491,"now":1492,"port":1493,"66":1494,"ep":1495,"CC":1496,"ĠMAX":1497,"ir":1498,"CTRL":1499,"MODE":1500,"indow":1501,"Ġbsize":1502,"bug":1503,"Ġparse":1504,"15":1505,"bs":1506,"Ġopt":1507,"Ġbuff":1508,"Ġprev":1509,"CAT":1510,"scale":1511,"000":1512,"Buffer":1513,"tag":1514,"lat":1515,"Ġuv":1516,"her":1517,"sition":1518,"39":1519,"Ġfilter":1520,"cfg":1521,"Ġtrue":1522,"Frame":1523,"base":1524,"GRP":1525,"Set":1526,"Ġmsg":1527,"ler":1528,"ConverterIndex":1529,"29":1530,"WAES":1531,"Ġvar":1532,"Ġhas":1533,"ĠHWAES":1534,"ĠsourceLimit":1535,"BIG":1536,"Ġtx":1537,"Ġfalse":1538,"Ġvpx":1539,"ErrorCode":1540,"Ġtest":1541,"rol":1542,"Ġentry":1543,"Ġpict":1544,"INVALIDDATA":1545,"DU":1546,"gcm":1547,"ls":1548,"MV":1549,"ported":1550,"flag":1551,"AND":1552,"ENCE":1553,"void":1554,"Ġjbig":1555,"find":1556,"left":1557,"pect":1558,"FA":1559,"lc":1560,"ont":1561,"cip":1562,"inue":1563,"ĠFALSE":1564,"rowser":1565,"ĠIS":1566,"VI":1567,")\\\"":1568,"Lo":1569,"IP":1570,"OCT":1571,"SPE":1572,"back":1573,"Ġxy":1574,"sql":1575,"tvb":1576,"dent":1577,"Ġyyv":1578,"OCTET":1579,"87":1580,"field":1581,"35":1582,"69":1583,"rect":1584,"dns":1585,"ies":1586,"Channel":1587,"En":1588,"Ġiptr":1589,"addr":1590,"compfunc":1591,"Ġfd":1592,"text":1593,"append":1594,"ession":1595,"Ġnumber":1596,"Ġbits":1597,"MLS":1598,"eck":1599,"limit":1600,"ĠTSR":1601,"fix":1602,"stats":1603,"ĠTSRMLS":1604,"=%":1605,"cord":1606,"ill":1607,"archive":1608,"40":1609,"Ġrfb":1610,"CODE":1611,"Ġyyvsp":1612,"US":1613,"AST":1614,"nown":1615,"Ad":1616,"height":1617,"Ġintra":1618,"Ġcontinue":1619,"ock":1620,"sb":1621,"UNI":1622,"response":1623,"sec":1624,"Ġei":1625,"loat":1626,"Ġdissect":1627,"ake":1628,"Ġev":1629,"30":1630,"ied":1631,"FLAG":1632,"TO":1633,"ĠJ":1634,"Ġsave":1635,"CUR":1636,"ded":1637,"Ġdefined":1638,"roma":1639,"37":1640,"Par":1641,"Ġbo":1642,"noconst":1643,"parameter":1644,"ore":1645,"FOR":1646,"conn":1647,"Ġflat":1648,"Ġmysql":1649,"59":1650,"dis":1651,"ient":1652,"Ġmin":1653,"cont":1654,"coeff":1655,"Ġup":1656,"Tr":1657,"mat":1658,"ule":1659,"Ġsession":1660,"sert":1661,"Ġservice":1662,"Ġof":1663,"Ġarchive":1664,"peg":1665,"Ġpriv":1666,"Ġversion":1667,"SPECI":1668,"54":1669,"be":1670,"cry":1671,"ge":1672,"uv":1673,"udi":1674,"ĠZ":1675,"Ġac":1676,"CONST":1677,"udio":1678,"Offset":1679,"req":1680,"Ġcodec":1681,"EQ":1682,"Ġsegment":1683,"pic":1684,"part":1685,"invalid":1686,"Ġold":1687,"rag":1688,"vals":1689,"931":1690,"Ġtot":1691,"blocks":1692,"Ġpacket":1693,"Str":1694,"Ġsum":1695,"uble":1696,"ĠSK":1697,"order":1698,"Ġscan":1699,"28":1700,"ĠVAL":1701,"Ġ15":1702,"decrypt":1703,"LHASH":1704,"fd":1705,"gist":1706,"acity":1707,"Test":1708,"node":1709,"Ġsy":1710,"server":1711,"MT":1712,"Ġdct":1713,"CTURE":1714,"VERS":1715,"List":1716,"ĠAS":1717,"Ġnot":1718,"Ġpred":1719,"Ġmx":1720,"ASK":1721,"result":1722,"ĠK":1723,"Ġcopy":1724,"Ġstrlen":1725,"Ġexpert":1726,"Ġreq":1727,"Ġyych":1728,"CONT":1729,"coder":1730,"ptions":1731,"PICTURE":1732,"IE":1733,"OL":1734,"Pi":1735,"ave":1736,"Ġit":1737,"CESS":1738,"SPECIAL":1739,"ĠSKM":1740,"PRE":1741,"layer":1742,"readable":1743,"Ġfloat":1744,"tem":1745,"Cont":1746,"Ġmsr":1747,"COMP":1748,"DO":1749,"Ġchannel":1750,"CHE":1751,"SH":1752,"Ġsvc":1753,"ĠTR":1754,"hdr":1755,"Ġattr":1756,"cost":1757,"Ġhost":1758,"ĠCur":1759,"config":1760,"eneric":1761,"Ġcctx":1762,"Ġtile":1763,"CONFIG":1764,"27":1765,"GET":1766,"Ġactive":1767,"ayload":1768,"Ġlevel":1769,"opt":1770,"Ġparams":1771,"xcf":1772,"Ġca":1773,"Ġoxcf":1774,"filesystem":1775,"fa":1776,"test":1777,"lta":1778,"OPT":1779,"dest":1780,"REF":1781,"WO":1782,"ĠCurByte":1783,"tte":1784,"zend":1785,"END":1786,"ANY":1787,"Int":1788,"ify":1789,"ĠMV":1790,"Ġadd":1791,"WAR":1792,"fmt":1793,"user":1794,"Ġxctx":1795,"gister":1796,"Num":1797,"ĠIn":1798,"Ġfmt":1799,"ĠEx":1800,"Ġextension":1801,"SEQU":1802,"SEQUENCE":1803,"iz":1804,"Ġzend":1805,"Se":1806,"fer":1807,"Log":1808,"Length":1809,"vi":1810,"video":1811,"LH":1812,"Ġesi":1813,"Ġrtp":1814,"usage":1815,"//":1816,"Ġuse":1817,"pixel":1818,"CHAR":1819,"ooth":1820,"Ġctr":1821,"ĠTYPE":1822,"cond":1823,"ĠLHASH":1824,"okup":1825,"status":1826,"ated":1827,"ard":1828,"ĠUConverterData":1829,"quality":1830,"58":1831,"://":1832,"FMT":1833,"instr":1834,"Ġpath":1835,"Ġbt":1836,"ript":1837,"ĠTRUE":1838,"etooth":1839,"luetooth":1840,"GE":1841,"MASK":1842,"\\\\\\\"":1843,"CP":1844,"jo":1845,"lease":1846,"Ġhdr":1847,"Ġ24":1848,"mo":1849,"lear":1850,"opcu":1851,"opcua":1852,"UP":1853,"lette":1854,"Ġgcry":1855,"bl":1856,"for":1857,"Ġsort":1858,"MEM":1859,"Ġfilename":1860,"rite":1861,"CR":1862,"CCESS":1863,"Ġ11":1864,"unction":1865,"param":1866,"Ġquant":1867,"263":1868,"02":1869,"lv":1870,"com":1871,"abled":1872,"ROUND":1873,"SERT":1874,"ĠTYPEDEF":1875,"POW":1876,"use":1877,"Ġabs":1878,"ĠTX":1879,"Ġserver":1880,"scope":1881,"ACK":1882,"BMP":1883,"EL":1884,"MON":1885,"zero":1886,"Ġitem":1887,"store":1888,"Ġstp":1889,"Ġquery":1890,"Size":1891,"ci":1892,"EXP":1893,"TWO":1894,"ib":1895,"ĠTS":1896,"Ġtotal":1897,"File":1898,"Ġti":1899,"Ġdist":1900,"Ġsamples":1901,"Ġpkt":1902,"Ġvi":1903,"ingle":1904,"msr":1905,"SOR":1906,"Ġfz":1907,"ped":1908,"ptG":1909,"ĠsourceIndex":1910,"CODEC":1911,"params":1912,"ĠOptG":1913,"ĠVALS":1914,"57":1915,"fc":1916,"ink":1917,"Ġrs":1918,"START":1919,"Ġshow":1920,"gi":1921,"ĠNOT":1922,"Ġtw":1923,"inc":1924,"OFF":1925,"maining":1926,"Ġ13":1927,"Ġdcfg":1928,"iple":1929,"parser":1930,"VICE":1931,"ll":1932,"Ġalloc":1933,"Ġpp":1934,"change":1935,"BITS":1936,"POWER":1937,"desc":1938,"opass":1939,"CAP":1940,"Ġpart":1941,"Ġfailed":1942,"Ġhttp":1943,"quence":1944,"PRINTABLE":1945,"61":1946,"Ġnode":1947,"amp":1948,"search":1949,"Ġupr":1950,"Ġuprv":1951,"ttr":1952,"ection":1953,"raw":1954,"Ġencode":1955,"Ġphp":1956,"Ġ64":1957,"ĠROUND":1958,"ntp":1959,"Ġbluetooth":1960,"Ġhand":1961,"Ġnb":1962,"ndic":1963,"Ġstrcmp":1964,"Ġctxt":1965,"Ġcontent":1966,"67":1967,"cur":1968,"ling":1969,"xffff":1970,"ATE":1971,"parse":1972,"Bytes":1973,"ILURE":1974,"ĠAVFrame":1975,"Ġfreefunc":1976,"Ġfprintf":1977,"Ġrv":1978,"Ġcbp":1979,"MAT":1980,"ndef":1981,"Ġcf":1982,"default":1983,"DING":1984,"dy":1985,"trans":1986,"INTER":1987,"allback":1988,"body":1989,"amic":1990,"samples":1991,"ynamic":1992,"Number":1993,"07":1994,"__":1995,"roy":1996,"freefunc":1997,"DER":1998,"cContext":1999,"Ġ14":2000,"lookup":2001,"old":2002,"Trans":2003,"Get":2004,"gatt":2005,"job":2006,"Ġargv":2007,"ULONG":2008,"Ġuserid":2009,"cpm":2010,"cipher":2011,"go":2012,"guint":2013,"Ġ)\",":2014,"Ġrequest":2015,"mpt":2016,"ĠAR":2017,"orker":2018,"Ġslice":2019,"MS":2020,"motion":2021,"ical":2022,"ĠCH":2023,"IB":2024,"act":2025,"ek":2026,"Ġifndef":2027,"ices":2028,"State":2029,"18":2030,"Fi":2031,"UChar":2032,"dist":2033,"match":2034,"os":2035,"Ġiter":2036,"ASS":2037,"Ġext":2038,"rows":2039,"Ġtoken":2040,"Ġcolor":2041,"OS":2042,"Ġlog":2043,"vert":2044,"DIR":2045,"plane":2046,"ĠVPX":2047,"Ġpsz":2048,"down":2049,"Ġpg":2050,"STAT":2051,"upported":2052,"VALUE":2053,"Ġzero":2054,"DUMP":2055,"ĠUConverterDataLMBCS":2056,"dc":2057,"udvm":2058,"Ġber":2059,"Ġgs":2060,"ĠtargetLimit":2061,"factor":2062,"CAPABLE":2063,"08":2064,"Ġaes":2065,"ATT":2066,"SERVICE":2067,"ound":2068,"Ġat":2069,"Ġsign":2070,"ĠtoUL":2071,"Ġdouble":2072,"Ġtwopass":2073,"And":2074,"cnv":2075,"man":2076,"Ġxdev":2077,"Ġseg":2078,"ULT":2079,"lyph":2080,"IC":2081,"PRO":2082,"su":2083,"Ġ17":2084,"Ġmatch":2085,"Ġchild":2086,"Count":2087,"not":2088,"ret":2089,"ctr":2090,"Ġaddr":2091,"Ġlocale":2092,"cr":2093,"Ġno":2094,"Ġstat":2095,"ĠAVP":2096,"ĠCHECKED":2097,"Window":2098,"fl":2099,"ary":2100,"ctype":2101,"Ġpos":2102,"MENT":2103,"Th":2104,"ning":2105,"pp":2106,"rap":2107,"Ġ\\\"\\\"":2108,"Ġstname":2109,"UNK":2110,"2253":2111,"feature":2112,"WN":2113,"from":2114,"thod":2115,"dictor":2116,"Ġparent":2117,"aes":2118,"rb":2119,"Ġgrp":2120,"Ġargtype":2121,"eger":2122,"Ġsi":2123,"Ġpc":2124,"SUCCESS":2125,"ragment":2126,"CA":2127,"IA":2128,"Worker":2129,"bin":2130,"pass":2131,"tocol":2132,"String":2133,"Ġ(%":2134,"ĠHB":2135,"alljo":2136,"Ġmemset":2137,"Ġobj":2138,"alljoyn":2139,"NE":2140,"PL":2141,"Ġactx":2142,"Ġcompare":2143,"pa":2144,"ved":2145,"Ġ~":2146,"remaining":2147,"Ġbe":2148,"space":2149,"ĠMAC":2150,"vars":2151,"ĠYYCUR":2152,"ĠYYCURSOR":2153,"97":2154,"Ġscale":2155,"Ġpass":2156,"Ġlf":2157,"ORT":2158,"ĠMSR":2159,"queue":2160,"Ġdoc":2161,"Status":2162,"ĠtoULength":2163,"malloc":2164,"Ġbio":2165,"alt":2166,"Ġprofile":2167,"Ġobject":2168,"best":2169,"epu":2170,"pop":2171,"Ġover":2172,"ĠAVCode":2173,"ĠmySource":2174,"spec":2175,"Ġarray":2176,"Ġbrowser":2177,"ram":2178,"Ġencoding":2179,"Ġcommand":2180,"BY":2181,"known":2182,"rid":2183,"Parameter":2184,"high":2185,"Ġ20":2186,"ĠSet":2187,"Ġasn":2188,"OFFSET":2189,"SA":2190,"ting":2191,"Ġsb":2192,"top":2193,"ryp":2194,"ĠAVCodecContext":2195,"65":2196,"CL":2197,"host":2198,"next":2199,"Ġevent":2200,"Ġstrnc":2201,"Ġwrite":2202,"env":2203,"Ġreference":2204,".\\\"":2205,"Ġcreate":2206,"Ġfail":2207,"READ":2208,"ression":2209,"handle":2210,"Ġcfg":2211,"LIN":2212,"vlc":2213,"Ġtp":2214,"Ġband":2215,"tried":2216,"ĠlastConverterIndex":2217,"Ġgroups":2218,"From":2219,"ĠBIT":2220,"Me":2221,"mac":2222,"om":2223,"ĠpErrorCode":2224,"Ġ19":2225,"LOW":2226,"IM":2227,"Ġdb":2228,"ason":2229,"Ġformat":2230,"DIS":2231,"FOUND":2232,"leanup":2233,"Entry":2234,"tail":2235,"Ġio":2236,"Ġsql":2237,"Ġcheck":2238,"ĠPy":2239,"bio":2240,"Ġshare":2241,"Ġrec":2242,"Ġudvm":2243,"ĠGATT":2244,"reference":2245,"BITNAME":2246,"25":2247,"slt":2248,"sector":2249,"ERO":2250,"Ġkvm":2251,"service":2252,"ĠLIB":2253,"Ġmessage":2254,"Ġpalette":2255,"33":2256,"Id":2257,"Ptr":2258,"Ġrecord":2259,"ĠCON":2260,"image":2261,"band":2262,"ĠIN":2263,"ĠSE":2264,"Ġsig":2265,"segment":2266,"refs":2267,"Add":2268,"()":2269,"ier":2270,"nf":2271,"Ġ\\\"\\\\":2272,"Ġdc":2273,"codec":2274,"ORY":2275,"BMPSTRING":2276,"LT":2277,"Ob":2278,"cat":2279,"Ġsco":2280,"lete":2281,"iter":2282,"Ġcurr":2283,"linesize":2284,"plan":2285,"Request":2286,"Content":2287,"IST":2288,"Ġeob":2289,"ception":2290,"FILE":2291,"doall":2292,"AM":2293,"Mult":2294,"exctype":2295,"Ġexchange":2296,"iplex":2297,"cap":2298,"Ġdsp":2299,"Ġgint":2300,"thread":2301,"LAST":2302,"ute":2303,"xml":2304,"Ġ18":2305,"Ġor":2306,"Ġucnv":2307,"Extension":2308,"lf":2309,"nal":2310,"pg":2311,"page":2312,"tab":2313,"ctet":2314,"Ġfill":2315,"Ġresponse":2316,"position":2317,"PRINTABLESTRING":2318,"Cl":2319,"mit":2320,"Ġ&=":2321,"Ġut":2322,"ifier":2323,"Ġbytecode":2324,"264":2325,"mis":2326,"ark":2327,"Ġpix":2328,"color":2329,"TEST":2330,"Ġ128":2331,"vari":2332,"control":2333,"imple":2334,"Ġauth":2335,"channel":2336,"NOWN":2337,"PIX":2338,"--":2339,"ie":2340,"this":2341,"frames":2342,"Ġfilt":2343,"sample":2344,"predictor":2345,"IVE":2346,"Ġlocal":2347,"FALSE":2348,"Http":2349,"SY":2350,"aw":2351,"ROBLOCK":2352,"uffman":2353,"ĠMACROBLOCK":2354,"CB":2355,"Image":2356,"PP":2357,"Ser":2358,"create":2359,"clear":2360,"}\\":2361,"Ġcinfo":2362,"Ġmod":2363,"Ġvc":2364,"token":2365,"exp":2366,"buff":2367,"class":2368,"Ġstats":2369,"UNKNOWN":2370,"MA":2371,"du":2372,"oice":2373,"rection":2374,"lect":2375,"Ġdmv":2376,"ĠtoU":2377,"ĠInt":2378,"point":2379,"Target":2380,"Ġ^":2381,"ash":2382,"ToUnicode":2383,"Bit":2384,"cy":2385,"my":2386,"Ġts":2387,"Ġ\\\"|":2388,"Ġhave":2389,"Ġdec":2390,"ROW":2391,"subs":2392,"ĠASSERT":2393,"HEX":2394,"SO":2395,"audio":2396,"ĠPI":2397,"Ġusers":2398,"face":2399,"ne":2400,"Ġsock":2401,"Ġcert":2402,"Ġpw":2403,"ASM":2404,"ication":2405,"mmand":2406,"DIRE":2407,"ĠLMBCSCon":2408,"range":2409,"led":2410,"insert":2411,"Ġtvbuff":2412,"99":2413,"SW":2414,"With":2415,"generic":2416,"last":2417,"Ġlow":2418,"seq":2419,"destroy":2420,"Di":2421,"xff":2422,"Ġindic":2423,"Ġtl":2424,"Ġ256":2425,"ĠUErrorCode":2426,"TRA":2427,"lic":2428,"sort":2429,"only":2430,"Ġpe":2431,"uri":2432,"Ġdevice":2433,"Ġavio":2434,"Encoding":2435,"Hand":2436,"Name":2437,"Ġip":2438,"Ġpad":2439,"Ġbn":2440,"roke":2441,"Ġcoeff":2442,"ITY":2443,"encrypting":2444,"ALLO":2445,"lib":2446,"Path":2447,"ww":2448,"Ġro":2449,"Ġim":2450,"thresh":2451,"ĠAttr":2452,"stri":2453,"ANGE":2454,"Ġsample":2455,"avg":2456,"lient":2457,"01":2458,"44":2459,"For":2460,"cnt":2461,"Ġsr":2462,"ination":2463,"strdup":2464,"update":2465,"Ġcbc":2466,"minal":2467,"FAILURE":2468,"Ġbool":2469,"Is":2470,"PC":2471,"TUR":2472,"ble":2473,"sent":2474,"Ġmot":2475,"Ġne":2476,"agick":2477,"Ġqscale":2478,"uper":2479,"Ġchroma":2480,"with":2481,"Ġivlen":2482,"TURN":2483,"{\\":2484,"itle":2485,"Ġthe":2486,"Ġcommon":2487,"IF":2488,"Next":2489,"Ġxslt":2490,"Capacity":2491,"509":2492,"GTH":2493,"ILL":2494,"VE":2495,"gen":2496,"pth":2497,"step":2498,"delete":2499,"send":2500,"Ġapr":2501,"cept":2502,"values":2503,"LENGTH":2504,"uster":2505,"writeable":2506,"FE":2507,"OUT":2508,"ec":2509,"late":2510,"chroma":2511,"Ġyyval":2512,"ErrorBuffer":2513,"dissector":2514,"Ġpt":2515,"temp":2516,"abel":2517,"Ġmbfl":2518,"CHECK":2519,"DIRECT":2520,"BLIN":2521,"Key":2522,"fs":2523,"over":2524,"ĠEN":2525,"Ġlib":2526,"INTRA":2527,"emu":2528,"Ġuvlinesize":2529,"Ġfdct":2530,"UNIVERS":2531,"icalChannel":2532,"UNIVERSAL":2533,"xp":2534,"message":2535,"Ġdebug":2536,"COL":2537,"ADM":2538,"Ġshift":2539,"DATE":2540,"score":2541,"CATION":2542,"BLINDING":2543,"23":2544,"88":2545,"Bo":2546,"ILE":2547,"MIT":2548,"eb":2549,"run":2550,"ĠMY":2551,"ĠSB":2552,"memcpy":2553,"Ġworkp":2554,"OPTION":2555,"tm":2556,"Ġfname":2557,"Ġmap":2558,"ARG":2559,"mbd":2560,"LIC":2561,"ifics":2562,"ĠInteger":2563,"UNIVERSALSTRING":2564,".\\\\":2565,"COR":2566,"TS":2567,"auth":2568,"Ġcall":2569,"ish":2570,"LAY":2571,"COM":2572,"Ġcli":2573,"Ġstrncmp":2574,"AULT":2575,"OVER":2576,"nprintf":2577,"detail":2578,"uto":2579,"extension":2580,"Ġcpio":2581,"DEFAULT":2582,"AGE":2583,"ĠAVPacket":2584,"PO":2585,"sequence":2586,"Ġport":2587,"sizes":2588,"nder":2589,"Ġkrb":2590,"WARN":2591,"FLOW":2592,"Le":2593,"PAR":2594,"Rate":2595,"Ġglob":2596,"pel":2597,"PTR":2598,"ĠKADM":2599,"TAG":2600,"group":2601,"ansp":2602,"Ġlayer":2603,"REQ":2604,"ĠCO":2605,"Config":2606,"avail":2607,"Load":2608,"partition":2609,"Parameters":2610,"Sync":2611,"ix":2612,"lay":2613,"nr":2614,"open":2615,"self":2616,"urm":2617,"Ġ27":2618,"LOB":2619,"Ġframes":2620,"ĠtargetCapacity":2621,"Ġshort":2622,"Ġpartition":2623,"AB":2624,"Close":2625,"MIN":2626,"Not":2627,"dst":2628,"Ġar":2629,"debug":2630,"Ġva":2631,"proxy":2632,"Ġexit":2633,"imum":2634,"Picture":2635,"Object":2636,"cert":2637,"ference":2638,"xFF":2639,"seg":2640,"ERT":2641,"asure":2642,"Ġstroke":2643,"edge":2644,"ĠCOL":2645,"ĠIs":2646,"Ġthresh":2647,"EGAL":2648,"Ġposition":2649,"pected":2650,"ILLEGAL":2651,"09":2652,"Ġiax":2653,"reen":2654,"ized":2655,"cols":2656,"Ġclient":2657,"Ġadb":2658,"ĠCHAR":2659,"49":2660,"DB":2661,"sgi":2662,"title":2663,"Ġsz":2664,"register":2665,"Ġdone":2666,"Ġword":2667,"ĠHA":2668,"encoding":2669,"MPLE":2670,"Ġtrans":2671,"Ġhandle":2672,"Enc":2673,"HAND":2674,"close":2675,"fp":2676,"wd":2677,"Ġpdev":2678,"Ġfp":2679,"Ġmer":2680,"Ġ\\\",":2681,"oriz":2682,"Ġxts":2683,"ĠGURL":2684,"ortion":2685,"uld":2686,"layers":2687,"mission":2688,"IFI":2689,"ZERO":2690,"glyph":2691,"ual":2692,"Ġcleanup":2693,"deep":2694,"loop":2695,"ENCODE":2696,"copyfunc":2697,"Ġcopyfunc":2698,"OVERFLOW":2699,"EAD":2700,"Sh":2701,"Ġconfig":2702,"subtree":2703,"Start":2704,"ification":2705,"Ġvardata":2706,"SK":2707,"sorted":2708,"Ġsync":2709,"sexp":2710,"Ġdq":2711,"Ġchunk":2712,"Ġsend":2713,"100":2714,"cal":2715,"phar":2716,"target":2717,"Ġae":2718,"args":2719,"ending":2720,"fname":2721,"supported":2722,"Ġtra":2723,"adding":2724,"ynamicWindow":2725,"CSTRING":2726,"ĠLOG":2727,"arning":2728,"measure":2729,"ĠATT":2730,"ITION":2731,"LIMIT":2732,"Ġstderr":2733,"Message":2734,"measurement":2735,"52":2736,"mc":2737,"Ġmp":2738,"Ġretval":2739,"ĠCP":2740,"div":2741,"ĠtoUBytes":2742,"36":2743,"RST":2744,"Video":2745,"Ġprc":2746,"Ġmac":2747,"ply":2748,"uction":2749,"EST":2750,"UST":2751,"Ġmd":2752,"Ġ26":2753,"ATED":2754,"RAY":2755,"VERSION":2756,"Ġchannels":2757,"ĠlocaleConverterIndex":2758,"Handler":2759,"256":2760,"45":2761,"Equal":2762,"LONG":2763,"OM":2764,"sum":2765,"Ġput":2766,"Ġremo":2767,"ints":2768,"tern":2769,"Ġ'%":2770,"rpConverter":2771,"versionWorker":2772,"CATED":2773,"ĠOptGrpConverter":2774,"ĠLMBCSConversionWorker":2775,"Level":2776,"ise":2777,"ĠNO":2778,"LLO":2779,"Ġns":2780,"Ġ28":2781,"Ġrb":2782,"iser":2783,"encode":2784,"enabled":2785,"memory":2786,"ADD":2787,"Transfer":2788,"TES":2789,"VIS":2790,"lim":2791,"rint":2792,"sz":2793,"inish":2794,"Ġback":2795,"Ġ29":2796,"profile":2797,"CII":2798,"location":2799,"Ġscr":2800,"slice":2801,"Addr":2802,"ĠExtension":2803,"Address":2804,"CORD":2805,"'\\\"":2806,"Ġpack":2807,"Ġfunc":2808,"vers":2809,"diameter":2810,"ĠCHARTYPE":2811,"RITE":2812,"ef":2813,"reser":2814,"Ġdns":2815,"ĠPro":2816,"Ġcoded":2817,"rypto":2818,"Al":2819,"GF":2820,"Res":2821,"callback":2822,"gion":2823,"ibu":2824,"tmp":2825,"stamp":2826,"method":2827,"Ġ25":2828,"ĠHTTP":2829,"ĠMIN":2830,"98":2831,"==":2832,"TOP":2833,"dig":2834,"sr":2835,"ses":2836,"adj":2837,"Ġjpc":2838,"html":2839,"query":2840,"Stream":2841,"lowed":2842,"Protocol":2843,"Ġpdf":2844,"BYTES":2845,"CN":2846,"HINT":2847,"Ġcrypto":2848,"Ġpat":2849,"Ġdecomp":2850,"ther":2851,"OPY":2852,"Ġ31":2853,"filename":2854,"cbc":2855,"MONT":2856,"CACHE":2857,"ĠCONFIG":2858,"ibute":2859,"Header":2860,"ud":2861,"ucture":2862,"Ġsto":2863,"ueue":2864,"ummy":2865,"signal":2866,"ctory":2867,"Ġdisable":2868,"WARD":2869,"Ap":2870,"fragment":2871,"sible":2872,"try":2873,"Ġdraw":2874,"Ġgf":2875,"Ġrange":2876,"mpi":2877,"Ġdelta":2878,"OPCODE":2879,"ĠTH":2880,"ipher":2881,"ĠMODE":2882,"client":2883,"LINE":2884,"VL":2885,"oh":2886,"sad":2887,"sing":2888,"ics":2889,"expr":2890,"NUMER":2891,"first":2892,"Ġvalues":2893,"Ġ\\\\\\\"":2894,"Ġ1024":2895,"Ġviff":2896,"ĠARCH":2897,"WARNING":2898,"Ġtt":2899,"Ġtab":2900,"Ġpx":2901,"Ġusb":2902,"idate":2903,"Ġ22":2904,"uma":2905,"aster":2906,"Ġcmd":2907,"ROUP":2908,"ĠmyTarget":2909,"Ġdict":2910,"subtitle":2911,"Ġscsu":2912,"Ġorig":2913,"NextUChar":2914,"ĠCPU":2915,"ĠARCHIVE":2916,"60":2917,"qindex":2918,"upt":2919,"Ġmc":2920,"Ġvideo":2921,"Ġhist":2922,"ssh":2923,"ĠCh":2924,"ĠCurl":2925,"ĠPR":2926,"ĠPOS":2927,"Ġplan":2928,"ĠsaveSource":2929,"Ġiterator":2930,"ridable":2931,"ALLOC":2932,"HINTS":2933,"/\\\"":2934,"Client":2935,"IBLE":2936,"OD":2937,"ared":2938,"esi":2939,"freq":2940,"net":2941,"nut":2942,"pb":2943,"Ġssl":2944,"Ġbp":2945,"Ġfont":2946,"Ġudev":2947,"proto":2948,"uple":2949,"ĠgetValue":2950,"mplete":2951,"scan":2952,"Offsets":2953,"LogicalChannel":2954,"ĠOptGroup":2955,"This":2956,"nutls":2957,"/'":2958,"RB":2959,"fail":2960,"used":2961,"ured":2962,"Ġ'/'":2963,"Ġinitial":2964,"FORMAT":2965,"GROUP":2966,"fet":2967,"ged":2968,"right":2969,"Ġ\\\"-":2970,"Ġnon":2971,"Ġnull":2972,"verted":2973,"Ġ30":2974,"IGN":2975,"ĠPAR":2976,"esc":2977,"Ġtoo":2978,"tended":2979,"ulate":2980,"Ġzbin":2981,"FLAGS":2982,"Ġmerged":2983,"68":2984,"CLI":2985,"Per":2986,"Ter":2987,"Table":2988,"ug":2989,"record":2990,"Ġcnf":2991,"Ġpal":2992,"Ġ\\\".":2993,"orst":2994,"utt":2995,"Ġdesc":2996,"Ġavail":2997,"proc":2998,"dict":2999,"cmd":3000,"Ġcblk":3001,"Ġdestination":3002,"avig":3003,"UnicodeStatus":3004,"instruction":3005,"ansport":3006,"Ġdqcoeff":3007,"AUT":3008,"Match":3009,"PG":3010,"rfb":3011,"reported":3012,"Ġcp":3013,"Ġdyn":3014,"unpack":3015,"Ġblocks":3016,"Ġbitstream":3017,"Ġinterp":3018,"HttpConfig":3019,"VISIBLE":3020,"ridableHttpConfig":3021,"VISIBLESTRING":3022,"Do":3023,"USER":3024,"bn":3025,"Ġssh":3026,"rec":3027,"second":3028,"Ġpayload":3029,"INIT":3030,"ptured":3031,"Ġqemu":3032,"Comp":3033,"Converted":3034,"plication":3035,"Reject":3036,"Ġcodepage":3037,"ĠRD":3038,"unknown":3039,"pixels":3040,"acter":3041,"Ġpglob":3042,"ĠoverridableHttpConfig":3043,"CLIENT":3044,"Mem":3045,"Pre":3046,"payload":3047,"svc":3048,"atial":3049,"Ġpy":3050,"Ġbl":3051,"Ġmm":3052,"Ġ23":3053,"Ġwrap":3054,"SSLv":3055,"Ġargc":3056,"HELLO":3057,"Profile":3058,"Ġtestflag":3059,"GetNextUChar":3060,"COMMON":3061,"HANDLE":3062,")\\\\":3063,"UBLE":3064,"olean":3065,"Ġspec":3066,"select":3067,"Ġty":3068,"inal":3069,"Ġoctet":3070,"Ġ21":3071,"Command":3072,"boolean":3073,"FUNC":3074,"HEAD":3075,"Process":3076,"dentifier":3077,"Ġextensions":3078,"79":3079,"CERT":3080,"Of":3081,"mark":3082,"xed":3083,"reason":3084,"Ġtbl":3085,"convert":3086,"ĠMagick":3087,"captured":3088,"Ġrefresh":3089,"Ġdiff":3090,"offs":3091,"Ġupdate":3092,"Ġimg":3093,"SKIP":3094,"ĠCheck":3095,"ape":3096,"pdate":3097,"den":3098,"Ġform":3099,"ĠMpeg":3100,"ARGET":3101,"COOK":3102,"Ġptrdiff":3103,"eneral":3104,"Bool":3105,"AEAD":3106,"HU":3107,"WIT":3108,"Ġss":3109,"release":3110,"Ġgl":3111,"ified":3112,"Change":3113,"ĠassertEqual":3114,"handler":3115,"tings":3116,"Ġ\\\\\\\"%":3117,"GENC":3118,"MC":3119,"UB":3120,"gb":3121,"qr":3122,"input":3123,"Ġfn":3124,"Ġdev":3125,"Ġsecond":3126,"ĠDBUG":3127,"ALLOW":3128,"ĠREG":3129,"Ġlfm":3130,"Mask":3131,"event":3132,"Ġurl":3133,"toh":3134,"allsizes":3135,"URCE":3136,"384":3137,"ogram":3138,"lush":3139,"ĠQueue":3140,"limiter":3141,"Ġsavebytes":3142,"DOALL":3143,"opts":3144,"GENCB":3145,"48":3146,"Qu":3147,"md":3148,"Ġcnt":3149,"nth":3150,"ntoh":3151,"letoh":3152,"Ġbad":3153,"Ġdummy":3154,"Ġraw":3155,"ager":3156,"ĠTest":3157,"model":3158,"ormat":3159,"ustom":3160,"Buf":3161,"Ġslurm":3162,"CONTEXT":3163,"Ġencoded":3164,"STATUS":3165,"Clone":3166,"ĠMACROBLOCKD":3167,"62":3168,":%":3169,"BE":3170,"New":3171,"active":3172,"by":3173,"long":3174,"pf":3175,"single":3176,"ĠRe":3177,"ern":3178,"Ġhint":3179,"anged":3180,"Ġrows":3181,"ificate":3182,"UNICODE":3183,"lvl":3184,"CLASS":3185,"Service":3186,"SOURCE":3187,"EncContext":3188,"ĠMpegEncContext":3189,"Desc":3190,"Text":3191,"lif":3192,"ote":3193,"Ġtext":3194,"medi":3195,"uration":3196,"Ġgnutls":3197,"RECORD":3198,"ĠCURL":3199,"IGH":3200,"place":3201,"UEST":3202,"ogle":3203,"Ġprintf":3204,"Ġdistortion":3205,"gistr":3206,"cc":3207,"crc":3208,"sor":3209,"ĠKEY":3210,"Ġprefs":3211,"Ġfind":3212,"Ġfound":3213,"ĠdynamicWindow":3214,"Ġrfc":3215,"ĠAP":3216,"Ġexpected":3217,"ATAL":3218,"Invalid":3219,"cape":3220,"ĠGLOB":3221,"Ġvpaes":3222,"CEPT":3223,"ĠYYDEBUG":3224,"Ġscratch":3225,"138":3226,"device":3227,"delta":3228,"Ġfunction":3229,"STATE":3230,"ely":3231,"cast":3232,"VERT":3233,"Ġrdmult":3234,"Def":3235,"ĠJBIG":3236,"Ġremote":3237,"GB":3238,"TEXT":3239,"dp":3240,"fast":3241,"lace":3242,"zval":3243,"Ġ100":3244,"Ġep":3245,"Ġoptions":3246,"adata":3247,"ĠAd":3248,"types":3249,"andidate":3250,"build":3251,"Ġjas":3252,"push":3253,"Multiplex":3254,"Node":3255,"gain":3256,"iant":3257,"source":3258,"Ġtf":3259,"Ġdx":3260,"Ġuid":3261,"structure":3262,"FIEL":3263,"boost":3264,"qui":3265,"Ġneed":3266,"gistry":3267,"FIELD":3268,"COPY":3269,"tls":3270,"Ġndo":3271,"edi":3272,"abac":3273,"andard":3274,"ANE":3275,"Ġchan":3276,"ĠPQ":3277,"Col":3278,"Ġcluster":3279,"Ġsrcptr":3280,"content":3281,"OPTIONS":3282,"Free":3283,"ait":3284,"day":3285,"null":3286,"Ġsse":3287,"Ġmutt":3288,"Ġregister":3289,"Ġvect":3290,"Ġrun":3291,"Ġlk":3292,"REE":3293,"vector":3294,"MBC":3295,"ANDI":3296,"ĠMI":3297,"ĠSync":3298,"memset":3299,"Response":3300,"olic":3301,"Ġbitmap":3302,"connection":3303,"COOKIE":3304,"HUFF":3305,"200":3306,"Generic":3307,"MO":3308,"MAR":3309,"Read":3310,"ah":3311,"qp":3312,"ush":3313,"Ġsrtp":3314,"report":3315,"Ġclose":3316,"stack":3317,"Ġng":3318,"Ġdeno":3319,"Ġwindow":3320,"METH":3321,"123":3322,"223":3323,"Ġclip":3324,"Ġscript":3325,"save":3326,"clu":3327,"DOUBLE":3328,"Ġcaf":3329,"HEADER":3330,"ĠAPLOG":3331,"MARK":3332,"METHOD":3333,"400":3334,"76":3335,">\\\"":3336,"PAT":3337,"PUT":3338,"cum":3339,"ma":3340,"none":3341,"ose":3342,"tl":3343,"Ġfop":3344,"Ġenum":3345,"Ġwith":3346,"priv":3347,"local":3348,"Unknown":3349,"ĠRT":3350,"Ġadj":3351,"Ġencoder":3352,"198":3353,"SPL":3354,"Ġcache":3355,"Filter":3356,"DISABLE":3357,"82":3358,"At":3359,"AIN":3360,"BASE":3361,"EAM":3362,"LUR":3363,"PASS":3364,"SC":3365,"ccm":3366,"cpu":3367,"ove":3368,"reg":3369,"Ġbw":3370,"Ġreal":3371,"Ġrelease":3372,"Ġcoap":3373,"ces":3374,"SSH":3375,"Ġseq":3376,"ĠDT":3377,"554":3378,"ries":3379,"GENERALSTRING":3380,"irt":3381,"Ġevhttp":3382,"ĠTHR":3383,"LURM":3384,"GH":3385,"TER":3386,"VAR":3387,"hci":3388,"huffman":3389,"td":3390,"wap":3391,"Ġccm":3392,"rop":3393,"Ġdl":3394,"oral":3395,"umns":3396,"ĠFA":3397,"CSP":3398,"Ġ>>=":3399,"ĠnewLMBCS":3400,"Array":3401,"oolean":3402,"Ġhostname":3403,"Ġaddress":3404,"MEMORY":3405,"ĠINLINE":3406,"Ġtransform":3407,"Ġtrail":3408,"udit":3409,"ACE":3410,"FATAL":3411,"ument":3412,"Ġone":3413,"Ġmul":3414,"Ġesc":3415,"Ġdy":3416,"Ġused":3417,"asn":3418,"ateg":3419,"Ġindent":3420,"sigcomp":3421,"SEVER":3422,"CONVERT":3423,"ormap":3424,"Ġsubtree":3425,"formation":3426,"Contents":3427,"SEVERITY":3428,"05":3429,"Max":3430,"OUS":3431,"PER":3432,"Pos":3433,"VC":3434,"XED":3435,"call":3436,"mul":3437,"ĠST":3438,"Ġsnprintf":3439,"depth":3440,"Ġbsi":3441,"Ġflag":3442,"Ġmult":3443,"complete":3444,"Ġother":3445,"Ġaudit":3446,"ASCII":3447,"chunk":3448,"Ġxstr":3449,"cent":3450,"Ġwsgi":3451,"verify":3452,"Ġ44":3453,"bitmask":3454,"Ġdirect":3455,"errupt":3456,"137":3457,"perties":3458,"Control":3459,"iteral":3460,"upervi":3461,"LICIT":3462,"Ġglobal":3463,"Failed":3464,"apt":3465,"eature":3466,"rr":3467,"Ġon":3468,"Ġblk":3469,"anit":3470,"tect":3471,"ĠcharErrorBuffer":3472,"Ġkf":3473,"Ġexp":3474,"ĠPRO":3475,"ĠGPG":3476,"Ġprefix":3477,"ĠRETURN":3478,"Inter":3479,"Ġtokens":3480,"NEW":3481,"ebContents":3482,"upervised":3483,"Map":3484,"fstr":3485,"wer":3486,"Ġgeneral":3487,"chr":3488,"foo":3489,"Ġavg":3490,"umn":3491,"ARD":3492,"COUN":3493,"bound":3494,"ulator":3495,"UniChar":3496,"okie":3497,"ĠVFF":3498,"ĠNE":3499,"Ġhash":3500,"parameters":3501,"riptor":3502,"Ġutf":3503,"implement":3504,"ĠENO":3505,"Ġtyp":3506,"94":3507,"Audio":3508,"FS":3509,"Hist":3510,"One":3511,"UGH":3512,"wh":3513,"weight":3514,"Ġie":3515,"Ġtc":3516,"Ġtlv":3517,"Ġpk":3518,"Ġpn":3519,"Ġby":3520,"setup":3521,"Ġinsert":3522,"Ġhfx":3523,"ident":3524,"ĠSWIT":3525,"ĠDe":3526,"output":3527,"sync":3528,"module":3529,"ownload":3530,"EXPLICIT":3531,"ĠassertEqualInt":3532,"ĠSWITCH":3533,"677":3534,"DR":3535,"FC":3536,"Format":3537,"UOUS":3538,"hints":3539,"kely":3540,"non":3541,"neg":3542,"oq":3543,"rptr":3544,"rfc":3545,"udo":3546,"ĠiOffset":3547,"Ġ\\\"<":3548,"Ġhel":3549,"Ġdecoder":3550,"very":3551,"Ġqindex":3552,"princ":3553,"Ġsec":3554,"ĠDP":3555,"Ġmethod":3556,"AMB":3557,"MD":3558,"TY":3559,"TITION":3560,"ome":3561,"sse":3562,"ump":3563,"Ġpending":3564,"Ġregistry":3565,"ENS":3566,"Ġxnew":3567,"adds":3568,"pts":3569,"ĠCreate":3570,"ĠHigh":3571,"SED":3572,"ĠSPL":3573,"Ġkeylen":3574,"owCh":3575,"Ġmyphar":3576,"ĠLowCh":3577,"gsm":3578,"ĠbytesConverted":3579,"Ġmet":3580,"Ġenclo":3581,"ĠJbig":3582,"MSB":3583,"aredData":3584,"Memory":3585,"ĠHighCh":3586,"BACK":3587,"Ca":3588,"DC":3589,"DP":3590,"mall":3591,"xf":3592,"med":3593,"Ġnow":3594,"util":3595,"prob":3596,"prime":3597,"ĠGET":3598,"ROM":3599,"aybe":3600,"headers":3601,"multiplex":3602,"Ġdecoded":3603,"SPACE":3604,"bands":3605,"ROWSER":3606,"anitize":3607,"75":3608,"PACK":3609,"case":3610,"dt":3611,"ias":3612,"sure":3613,"tb":3614,"Ġcandidate":3615,"seudo":3616,"Ġblob":3617,"trics":3618,"ĠFile":3619,"prog":3620,"Ġprotocol":3621,"Ġdstptr":3622,"angle":3623,"SERVER":3624,"ĠSWITCHABLE":3625,"46":3626,"FALL":3627,"RGB":3628,"Update":3629,"lap":3630,"pad":3631,"ty":3632,"ative":3633,"leg":3634,"Ġtls":3635,"Ġmid":3636,"comm":3637,"Ġusect":3638,"ERN":3639,"Ġlc":3640,"Ġqcoeff":3641,"ĠTag":3642,"shft":3643,"Conn":3644,"xts":3645,"00000000":3646,"likely":3647,"Ġloop":3648,"Ġevcon":3649,"Ġnullptr":3650,"Ġngx":3651,"Ġusects":3652,"MR":3653,"Send":3654,"Single":3655,"rerror":3656,"Ġ\\\"/":3657,"orage":3658,"coded":3659,"ĠCANDI":3660,"ĠTARGET":3661,"DISP":3662,"Ġerrno":3663,"bose":3664,"SRC":3665,"ĠVPAES":3666,"rix":3667,"pha":3668,"egin":3669,"checked":3670,"connect":3671,"view":3672,"google":3673,"notify":3674,"PLANE":3675,"FromUnicode":3676,"ISTER":3677,"utex":3678,"versation":3679,"Ġdynstr":3680,"ĠCANDIDATE":3681,"Blob":3682,"BROWSER":3683,"Function":3684,"Tag":3685,"User":3686,"aad":3687,"maybe":3688,"rl":3689,"xF":3690,"Ġsel":3691,"Ġte":3692,"anager":3693,"Ġhigh":3694,"Ġnd":3695,"Ġrule":3696,"tom":3697,"ĠAH":3698,"verse":3699,"puts":3700,"ROUGH":3701,"encb":3702,"ĠRead":3703,"clip":3704,"THROUGH":3705,"words":3706,"Ġoptlist":3707,"mpty":3708,"Ġpeek":3709,"MBCSS":3710,"Ġauditlog":3711,"COUNT":3712,"FALLTHROUGH":3713,"Browser":3714,"Event":3715,"FT":3716,"cif":3717,"fill":3718,"lhash":3719,"pdu":3720,"rand":3721,"root":3722,"Ġmquant":3723,"Ġgboolean":3724,"ĠBS":3725,"asc":3726,"Ġdelimiter":3727,"DEPRE":3728,"ĠTEST":3729,"647":3730,"Ġextended":3731,"IGUOUS":3732,"names":3733,"ĠtoUnicodeStatus":3734,"ĠIx":3735,"Ġparser":3736,"Ġcbpc":3737,"ĠrfbLog":3738,"specifics":3739,"strict":3740,"Ġlibc":3741,"Ġpattern":3742,"Ġstops":3743,"ĠREGISTER":3744,"AMBIGUOUS":3745,"DEPRECATED":3746,"..":3747,"BAD":3748,"Row":3749,"SI":3750,"Var":3751,"so":3752,"sbr":3753,"sock":3754,"Ġsad":3755,"Ġpost":3756,"Ġuvm":3757,"Ġinst":3758,"process":3759,"Ġproc":3760,"Ġexception":3761,"ĠLD":3762,"ĠND":3763,"Exception":3764,"Ġappend":3765,"secure":3766,"Ġmsrs":3767,"PROC":3768,"REQUEST":3769,"369":3770,"ENUMER":3771,"Identifier":3772,"Open":3773,"RUN":3774,"flow":3775,"mpeg":3776,"oint":3777,"ux":3778,"ĠERR":3779,"Ġssize":3780,"Ġtxt":3781,"Ġpid":3782,"Ġab":3783,"Ġlimit":3784,"ORDER":3785,"ĠLog":3786,"Ġtmpzval":3787,"internal":3788,"llable":3789,"IFICATION":3790,"SharedData":3791,"AUTH":3792,"ĠENOMEM":3793,"ĠLDAP":3794,"ENUMERATED":3795,"Attr":3796,"mont":3797,"options":3798,"vp":3799,"incip":3800,"Ġrender":3801,"align":3802,"NUTLS":3803,"ĠEC":3804,"ĠFI":3805,"ĠUBool":3806,"Ġ48":3807,"ĠMake":3808,"Ġopacity":3809,"matrix":3810,"OLD":3811,"Pixel":3812,"ĠLIBSSH":3813,"Ġroot":3814,"Result":3815,"srli":3816,"Terminal":3817,"incipal":3818,"$(":3819,"'%":3820,"'t":3821,"03":3822,"CCM":3823,"FIN":3824,"MSR":3825,"Or":3826,"Sanitize":3827,"cg":3828,"ior":3829,"ner":3830,"ĠOPTIONS":3831,"rece":3832,"rectory":3833,"Ġtb":3834,"alg":3835,"cor":3836,"Ġoption":3837,"ERENCE":3838,"Ġcod":3839,"PEG":3840,"terminal":3841,"Ġ35":3842,"conf":3843,"Ġisc":3844,"COST":3845,"play":3846,"samp":3847,"handling":3848,"PRED":3849,"izer":3850,"Ġbands":3851,"avigate":3852,"ĠCheckSanitize":3853,"Default":3854,"olicy":3855,"Ġdenoiser":3856,"ĠPROTO":3857,"ĠBSAES":3858,"ĠCheckSanitizeCSP":3859,"95":3860,"Element":3861,"PDU":3862,"VM":3863,"fm":3864,"finish":3865,"ping":3866,"rm":3867,"rx":3868,"ĠDISABLE":3869,"Ġcal":3870,"stall":3871,"arr":3872,"Ġmis":3873,"Ġopen":3874,"itype":3875,"Ġglyph":3876,"Ġrgb":3877,"127":3878,"Ġoutptr":3879,"plFile":3880,"bool":3881,"Standard":3882,"ĠVT":3883,"Ġrddiv":3884,"ĠxmlChar":3885,"Ġapp":3886,"slices":3887,"multitype":3888,"ancel":3889,"rectangle":3890,"costs":3891,"features":3892,"Ġiov":3893,"USTOM":3894,"reserve":3895,"CNV":3896,"ĠFAILURE":3897,"';\\":3898,"Block":3899,"Hash":3900,"VERR":3901,"asi":3902,"ger":3903,"worst":3904,"yle":3905,"inf":3906,"Ġbpp":3907,"Ġnvalues":3908,"ALT":3909,"ĠUCNV":3910,"ĠHV":3911,"ATION":3912,"Ġchange":3913,"unshift":3914,"keys":3915,"accum":3916,"Ġdiv":3917,"OKEN":3918,"fixed":3919,"Ġsignature":3920,"return":3921,"ProtocolHandler":3922,"ĠAdd":3923,"MI":3924,"cnf":3925,"ecu":3926,"literal":3927,"padding":3928,"Ġlock":3929,"atio":3930,"Ġpush":3931,"Ġbot":3932,"tring":3933,"Ġdup":3934,"Ġhuffman":3935,"Ġcond":3936,"Ġrlvl":3937,"ched":3938,"Ġwant":3939,"RETURN":3940,"struct":3941,"Ġprog":3942,"LOAD":3943,"mvs":3944,"readint":3945,"ĠEXIT":3946,"Ġenqueue":3947,"Ġsplit":3948,"cument":3949,"SUB":3950,"AndLevel":3951,"rypted":3952,"libssh":3953,"missions":3954,"profileAndLevel":3955,"digit":3956,"Ġ\\\"./":3957,"ecute":3958,":\\\"":3959,"By":3960,"ample":3961,"he":3962,"make":3963,"tw":3964,"Ġcin":3965,"Ġclear":3966,"Ġ*=":3967,"Ġfull":3968,"covery":3969,"Ġoscore":3970,"ancy":3971,"Ġhal":3972,"Ġrf":3973,"ined":3974,"LEFT":3975,"ARRAY":3976,"ĠGNUTLS":3977,"ĠmyConverter":3978,"access":3979,"undancy":3980,"Ġsubsize":3981,"annot":3982,"ffffffff":3983,"ĠINTER":3984,"present":3985,"599":3986,"FileTransfer":3987,"MATCH":3988,"Ġpassword":3989,"SAFE":3990,"www":3991,"90":3992,"HED":3993,"blk":3994,"ian":3995,"icture":3996,"master":3997,"Ġce":3998,"Ġcipher":3999,"Ġtm":4000,"etime":4001,"Ġdequant":4002,"Ġcoinfo":4003,"chip":4004,"ssing":4005,"ĠEV":4006,"strip":4007,"ALET":4008,"Ġunion":4009,"Ġqp":4010,"ptran":4011,"ĠPN":4012,"entries":4013,"mbol":4014,"ower":4015,"MPI":4016,"Ġidct":4017,"antum":4018,"ressed":4019,"Ġdomain":4020,"Ġdirname":4021,"striction":4022,"COLOR":4023,"ĠSBHUFF":4024,"tmx":4025,"MPLEMENT":4026,"VLC":4027,"47":4028,"RD":4029,"Range":4030,"Sub":4031,"link":4032,"vd":4033,"vs":4034,"work":4035,"Ġphar":4036,"Ġpub":4037,"Ġpolicy":4038,"Ġmpeg":4039,"ASSERT":4040,"3258":4041,"ITo":4042,"Ġunlikely":4043,"ANT":4044,"ĠSIG":4045,"CIITo":4046,"imer":4047,"Ġiso":4048,"quick":4049,"FLG":4050,"LIST":4051,"QUO":4052,"FORM":4053,"Ġsyncer":4054,"ALETTE":4055,"184":4056,"HCI":4057,"IPT":4058,"Indic":4059,"full":4060,"gn":4061,"ĠDEBUG":4062,"seek":4063,"Ġfinal":4064,"sive":4065,"Ġoid":4066,"Ġnid":4067,"ĠFILE":4068,"IGNO":4069,"ĠString":4070,"Ġresource":4071,"ĠgetThis":4072,"cheme":4073,"Ġidy":4074,"Ġdirection":4075,"Ġsubmit":4076,"Ġsaved":4077,"script":4078,"Ġspatial":4079,"ĠASCIITo":4080,"LTER":4081,"ĠCODEC":4082,"media":4083,"Ġself":4084,"QUOTE":4085,"IGNORE":4086,"ĠASCIIToUTF":4087,"AV":4088,"BG":4089,"ULL":4090,"WRITE":4091,"Ġ122":4092,"Ġface":4093,"Ġes":4094,"orr":4095,"Ġla":4096,"Ġinvalid":4097,"diag":4098,"Ġuvsrc":4099,"OPTGROUP":4100,"crx":4101,"impleGetNextUChar":4102,"CBC":4103,"available":4104,"layout":4105,"ĠHAVE":4106,"scanf":4107,"AINED":4108,"MBCSSimpleGetNextUChar":4109,"ĠFIRST":4110,"42":4111,"ARE":4112,"DF":4113,"ML":4114,"UMENT":4115,"bnum":4116,"custom":4117,"iew":4118,"xd":4119,"ren":4120,"Ġbh":4121,"Ġfragment":4122,"Ġmalloc":4123,"Ġmust":4124,"Ġregion":4125,"allowed":4126,"ities":4127,"Ġgpg":4128,"Ġvlc":4129,"ĠEINVAL":4130,"ĠFLA":4131,"LECT":4132,"LOC":4133,"ĠsourceChar":4134,"mbmode":4135,"2239":4136,"encrypted":4137,"EXCEPT":4138,"BUF":4139,"Ġcolumns":4140,"nswer":4141,"Ġenabled":4142,"0000000":4143,"channels":4144,"ĠMYF":4145,"session":4146,"51":4147,"CED":4148,"LY":4149,"OT":4150,"On":4151,"UPT":4152,"WebContents":4153,"nu":4154,"oc":4155,"pable":4156,"pick":4157,"xB":4158,"Ġsame":4159,"Ġcc":4160,"Ġpop":4161,"roblock":4162,"Ġed":4163,"Ġeval":4164,"Ġdmin":4165,"lot":4166,"asse":4167,"FILTER":4168,"agement":4169,"Ġ<<=":4170,"IDABLE":4171,"ĠOVERR":4172,"cfb":4173,"ĠYi":4174,"ĠXi":4175,"Ġverbose":4176,"pectr":4177,"Ġitl":4178,"fmtcat":4179,"ĠIndent":4180,"cpmget":4181,"652239":4182,"variant":4183,"ĠPICT":4184,"utocomplete":4185,"DOUBLEOPTGROUP":4186,"Ġxstrfmtcat":4187,"DISPLAY":4188,"369123":4189,"3258652239":4190,"Ġ1223258652239":4191,"ĠOVERRIDABLE":4192,"Ġ1223258652239369123":4193,"False":4194,"RFC":4195,"dn":4196,"function":4197,"hist":4198,"nn":4199,"sg":4200,"Ġcmpt":4201,"les":4202,"sid":4203,"CTR":4204,"Ġxps":4205,"ots":4206,"UNSAFE":4207,"cause":4208,"usb":4209,"anges":4210,"olve":4211,"ormal":4212,"sys":4213,"TRY":4214,"ĠNID":4215,"posn":4216,"Ġcompression":4217,"ĠLMBCSClone":4218,"FORWARD":4219,"Ġallocate":4220,"STATS":4221,"ĠLIBC":4222,"variance":4223,"BitContext":4224,"socket":4225,"accumulator":4226,"78":4227,"NT":4228,"ORE":4229,"VR":4230,"hlen":4231,"Ġonly":4232,"Ġsingle":4233,"lec":4234,"ĠpStart":4235,"Ġmdb":4236,"INK":4237,"Ġui":4238,"Ġnn":4239,"ENABLE":4240,"ution":4241,"Ġcom":4242,"DEX":4243,"fore":4244,"ncy":4245,"Ġkad":4246,"Input":4247,"ĠPicture":4248,"accept":4249,"Ġmemcmp":4250,"ĠUConverterLoad":4251,"Ġpixels":4252,"tester":4253,"6110":4254,"palette":4255,"ĠMagickFalse":4256,"cgm":4257,"ĠpStartLMBCS":4258,"ĠUConverterLoadArgs":4259,"214":4260,"8000":4261,"EVAL":4262,"OST":4263,"Ġ@":4264,"ersion":4265,"lem":4266,"orith":4267,"ERY":4268,"Ġdepth":4269,"Ġcharacter":4270,"ALIGN":4271,"Ġ38":4272,"Ġexecute":4273,"ĠSLURM":4274,"Ġreslen":4275,"Ġ60":4276,"Ġmemory":4277,"ĠNavigate":4278,"ĠGetBitContext":4279,"ĠINTRA":4280,"Ġpsnr":4281,"Ġhistogram":4282,"ĠRDCOST":4283,"ĠFLAG":4284,"/%":4285,"All":4286,"CALL":4287,"Flag":4288,"LU":4289,"Len":4290,"ZIP":4291,"eces":4292,"lit":4293,"uate":4294,"ward":4295,"ĠSET":4296,"real":4297,"Ġcx":4298,"mess":4299,"Ġmain":4300,"Ġreply":4301,"Ġaq":4302,"changed":4303,"pix":4304,"extra":4305,"Ġkdb":4306,"ĠCo":4307,"ĠCont":4308,"txfm":4309,"FIRST":4310,"Ġprocess":4311,"Ġqtm":4312,"ĠTh":4313,"obj":4314,"ĠIM":4315,"ĠIAX":4316,"Reference":4317,"Restriction":4318,"ĠtargetUniChar":4319,"rder":4320,"Ġzval":4321,"Ġquote":4322,"okies":4323,"ĠUConverterToUnicode":4324,"ĠVC":4325,"Ġstrings":4326,"Ġsetup":4327,"prefix":4328,"Device":4329,"NOTIFICATION":4330,"ĠfirstByte":4331,"CATE":4332,"BufferSize":4333,"Local":4334,"Pieces":4335,"CRIPT":4336,"Ġscored":4337,"DIRECTORY":4338,"POST":4339,"Ġplanes":4340,"letohl":4341,"ernel":4342,"ĠReadBlob":4343,"asic":4344,"assemb":4345,"ĠUConverterToUnicodeArgs":4346,"41":4347,"724":4348,"822":4349,"=\\\"":4350,"Ack":4351,"GATE":4352,"Msg":4353,"Options":4354,"Spec":4355,"Time":4356,"dat":4357,"xor":4358,"ys":4359,"reorder":4360,"stag":4361,"Ġfeature":4362,"Ġmgs":4363,"Ġelement":4364,"Ġan":4365,"INV":4366,"ĠBINK":4367,"Ġrnd":4368,"Ġrlayer":4369,"ĠAp":4370,"vbu":4371,"Ġkid":4372,"ĠFRAME":4373,"ĠSplFile":4374,"ĠPRE":4375,"COE":4376,"pointer":4377,"ĠDO":4378,"Reason":4379,"errno":4380,"ĠOHCI":4381,"TRUN":4382,"packets":4383,"Ġserial":4384,"maximum":4385,"perty":4386,"Ġslices":4387,"ĠstackArgs":4388,"ĠWRITE":4389,"870":4390,"Ġaccept":4391,"IFY":4392,"fetch":4393,"384554":4394,"Ġvector":4395,"FINIS":4396,"Ġbottom":4397,"undancyEncoding":4398,"orithm":4399,"017":4400,"364":4401,"CRE":4402,"Dynamic":4403,"SING":4404,"air":4405,"break":4406,"hex":4407,"uage":4408,"Ġcre":4409,"Ġpage":4410,"Ġmt":4411,"Ġdsize":4412,"Ġgchar":4413,"Ġvtype":4414,"Ġhe":4415,"Ġrt":4416,"Ġwe":4417,"INTERR":4418,"Ġ3599":4419,"istic":4420,"SELECT":4421,"dian":4422,"ENCO":4423,"items":4424,"ROGATE":4425,"URROGATE":4426,"anguage":4427,"loadl":4428,"206110":4429,"QUERY":4430,"Channels":4431,"ĠJPC":4432,"CONTAINED":4433,"password":4434,"cycl":4435,"TRACE":4436,"LAYER":4437,"life":4438,"Ġexpand":4439,"Ġcoding":4440,"ĠLIBCERROR":4441,"Ġnnz":4442,"DIRECTORYSTRING":4443,"384554647":4444,"FINISHED":4445,"INTERRUPT":4446,"Ġ3599206110":4447,"Ġ3599206110384554647":4448,"!\\\"":4449,"255":4450,"63":4451,"919":4452,"Tuple":4453,"aque":4454,"dsp":4455,"rs":4456,"snprintf":4457,"sqr":4458,"wide":4459,"Ġper":4460,"Ġbv":4461,"Ġent":4462,"Ġest":4463,"idct":4464,"aged":4465,"ĠAutocomplete":4466,"3207":4467,"igin":4468,"ĠTr":4469,"Init":4470,"shake":4471,"files":4472,"Ġparameter":4473,"ĠOT":4474,"cluster":4475,"Ġalac":4476,"usto":4477,"Ġtopic":4478,"PROTO":4479,"iterator":4480,"Ġcertificate":4481,"ARGUMENT":4482,"Ġmacroblock":4483,"ĠPARTITION":4484,"BACKWARD":4485,"ĠLogError":4486,"receive":4487,"ĠAppend":4488,"889":4489,"96":4490,"DT":4491,"QL":4492,"bsize":4493,"fra":4494,"nist":4495,"octet":4496,"spe":4497,"Ġsmall":4498,"reset":4499,"remo":4500,"erator":4501,"Ġmip":4502,"Ġanswer":4503,"STE":4504,"STREAM":4505,"Ġbuild":4506,"Ġweight":4507,"ĠCS":4508,"properties":4509,"Ġ37":4510,"Ġnames":4511,"Chars":4512,"VALID":4513,"assword":4514,"207":4515,"Ġpool":4516,"ĠxmlStr":4517,"ĠxmlHash":4518,"Delta":4519,"Ġsys":4520,"ctrl":4521,"Ġscaled":4522,"Ġcfgt":4523,"unpacklo":4524,"Ġmulti":4525,"iority":4526,"sampling":4527,"Ġevaluate":4528,"DISPLAYTEXT":4529,"ustodian":4530,"Long":4531,"Non":4532,"TF":4533,"TOKEN":4534,"Warning":4535,"categ":4536,"oi":4537,"pat":4538,"sn":4539,"ui":4540,"yv":4541,"Ġround":4542,"Ġsection":4543,"Ġcan":4544,"erp":4545,"erred":4546,"Ġbmi":4547,"Ġbcp":4548,"met":4549,"Ġmake":4550,"Ġinterrupt":4551,"Ġds":4552,"Ġneg":4553,"ERE":4554,"Ġluma":4555,"Ġxfree":4556,"RECP":4557,"ĠUSE":4558,"ĠCLI":4559,"Ġqs":4560,"ANG":4561,"shape":4562,"ARY":4563,"Ġcbarg":4564,"Ġskipped":4565,"starts":4566,"117":4567,"Exp":4568,"ĠREAD":4569,"icket":4570,"Settings":4571,"ĠInit":4572,"sumed":4573,"rintf":4574,"fety":4575,"Ġmmr":4576,"Ġenclosure":4577,"Ġcandidates":4578,"Indication":4579,"70":4580,"Base":4581,"EC":4582,"Red":4583,"Sign":4584,"Ġia":4585,"Ġcap":4586,"Ġgr":4587,"Ġguid":4588,"STORE":4589,"sized":4590,"ONLY":4591,"Ġkx":4592,"ĠError":4593,"ĠUTF":4594,"opcode":4595,"cay":4596,"empty":4597,"ByteMode":4598,"ains":4599,"Ġfilegen":4600,"ISCONTAINED":4601,"Ġphdr":4602,"Locale":4603,"coeffs":4604,"SHOW":4605,"Transform":4606,"ĠPyObject":4607,"ĠSEG":4608,"WithAL":4609,"TRAIL":4610,"ABS":4611,"====":4612,"Ġmmco":4613,"ĠDebug":4614,"AY":4615,"FB":4616,"Iter":4617,"SEND":4618,"frag":4619,"mag":4620,"power":4621,"ride":4622,"Ġuri":4623,"reverse":4624,"Ġcs":4625,"Ġcallback":4626,"Ġpadding":4627,"Ġempty":4628,"command":4629,"INDEX":4630,"ich":4631,"RESS":4632,"probs":4633,"Information":4634,"ipv":4635,"Ġsequence":4636,"modes":4637,"LIB":4638,"TEMP":4639,"php":4640,"FRAMES":4641,"Ġalt":4642,"ĠfromUChar":4643,"Eng":4644,"023":4645,"Ġmodule":4646,"SOCK":4647,"osen":4648,"common":4649,"Variant":4650,"nnex":4651,"Iterator":4652,"72":4653,"Annex":4654,"Call":4655,"FREE":4656,"NS":4657,"Packet":4658,"Sc":4659,"Ua":4660,"bpdu":4661,"ia":4662,"ival":4663,"pm":4664,"tbl":4665,"reph":4666,"rome":4667,"cogn":4668,"side":4669,"prop":4670,"LACED":4671,"ĠerrSource":4672,"column":4673,"ĠIMPLEMENT":4674,"polic":4675,"Ġdoall":4676,"compress":4677,"389":4678,"ĠOpc":4679,"Ġmetrics":4680,"timeout":4681,"ialize":4682,"Ġulong":4683,"CTRLOFFSET":4684,"Ġbound":4685,"Ġquants":4686,"INTERLACED":4687,"ĠCHR":4688,"Ġlogger":4689,"Ġcurrlen":4690,"Descriptor":4691,"legate":4692,"RUNTIME":4693,"Ġcbargtype":4694,"UaType":4695,"policy":4696,"ĠOpcUaType":4697,"AKE":4698,"CLO":4699,"Host":4700,"JOB":4701,"Manager":4702,"MPEG":4703,"PK":4704,"SB":4705,"ach":4706,"ccess":4707,"grid":4708,"hb":4709,"mutex":4710,"ratio":4711,"tml":4712,"vq":4713,"window":4714,"Ġsd":4715,"onit":4716,"Ġlabel":4717,"Ġwrit":4718,"ĠUINT":4719,"isat":4720,"principal":4721,"img":4722,"Ġfixed":4723,"Ġkeyframe":4724,"Ġyyss":4725,"Ref":4726,"Ġsha":4727,"31919":4728,"riptions":4729,"THROW":4730,"Ġpoint":4731,"136":4732,"840":4733,"SPON":4734,"Ġtaglen":4735,"89017":4736,"fields":4737,"ĠZIP":4738,"Ġsynth":4739,"\\\\\\\"\\\"":4740,"Ġmatches":4741,"97023":4742,"BYTE":4743,"5231919":4744,"IGHT":4745,"ĠSyncChange":4746,"Ġ4489017":4747,"onitor":4748,"523191997023":4749,"Ġ4489017523191997023":4750,"(%":4751,"21":4752,"53":4753,"93":4754,"Dis":4755,"Download":4756,"GRAY":4757,"IAL":4758,"USE":4759,"XT":4760,"action":4761,"cre":4762,"gf":4763,"gno":4764,"gencb":4765,"lsp":4766,"srtp":4767,"va":4768,"ĠDI":4769,"Ġbmv":4770,"Ġ1000":4771,"Ġ\\\"_":4772,"coef":4773,"Ġdpy":4774,"Ġdtls":4775,"Ġrand":4776,"assert":4777,"Ġlerp":4778,"Ġelif":4779,"Ġstrdup":4780,"Ġstrchr":4781,"Ġunknown":4782,"Ġ33":4783,"otal":4784,"ĠSco":4785,"Ġchosen":4786,"ARGS":4787,"Ġresync":4788,"Ġlinelen":4789,"Ġsep":4790,"ĠLo":4791,"ĠData":4792,"Ġdie":4793,"Ġsubsampling":4794,"Ġprinc":4795,"ived":4796,"Ġmodel":4797,"interface":4798,"pathv":4799,"Ġconnection":4800,"itional":4801,"Ġupload":4802,"ĠVALUE":4803,"Ġvisit":4804,"Ġallocptr":4805,"current":4806,"Ġscore":4807,"Ġeobs":4808,"failure":4809,"aptive":4810,"tected":4811,"LOCAL":4812,"86":4813,"Cipher":4814,"If":4815,"Layer":4816,"MAN":4817,"MTR":4818,"NEXT":4819,"hv":4820,"hance":4821,"wsgi":4822,"Ġsu":4823,"sext":4824,"arm":4825,"Ġflush":4826,"Ġ\\\"--":4827,"alog":4828,"ite":4829,"Ġuwsgi":4830,"asses":4831,"ĠFind":4832,"PEL":4833,"ternal":4834,"opy":4835,"ĠSU":4836,"ĠSt":4837,"Ġisal":4838,"estroy":4839,"Ġgood":4840,"ĠLAST":4841,"ĠDo":4842,"Ġ512":4843,"inding":4844,"countdown":4845,"Ġscreen":4846,"safety":4847,"ĠpixelFilter":4848,"Ġspace":4849,"packed":4850,"ĠExpect":4851,"ĠExternal":4852,"ardp":4853,"ĠARMV":4854,"First":4855,"Counter":4856,"pair":4857,"licate":4858,"UBKEY":4859,"PATH":4860,"TRUNCATED":4861,"breakout":4862,"category":4863,"MTRR":4864,":'":4865,"Boolean":4866,"EK":4867,"Fa":4868,"HP":4869,"HERE":4870,"IR":4871,"NAL":4872,"NET":4873,"Write":4874,"XPath":4875,"cleanup":4876,"cabac":4877,"label":4878,"Ġir":4879,"Ġsqr":4880,"Ġcfb":4881,"Ġcabac":4882,"delay":4883,"ĠpBufferSize":4884,"Ġinteger":4885,"Ġdprinc":4886,"IND":4887,"Ġge":4888,"ansa":4889,"Ġhw":4890,"Ġconversation":4891,"utine":4892,"cket":4893,"font":4894,"ĠCLU":4895,"ĠHtml":4896,"Ġ36":4897,"Ġ':'":4898,"short":4899,"ROL":4900,"ĠsrcY":4901,"ĠRV":4902,"1066":4903,"261":4904,"Ġrdstat":4905,"interp":4906,"interval":4907,"Ġheaders":4908,"ĠFFABS":4909,"EXTRA":4910,"Decode":4911,"character":4912,"ĠcontextChar":4913,"306":4914,"ization":4915,"ampling":4916,"Server":4917,"TableEntry":4918,"Preview":4919,"laced":4920,"Ġneedle":4921,"SingleByteMode":4922,"Ġruleset":4923,"Ġlibcnotify":4924,"Ġkadm":4925,"SINGLE":4926,"Engagement":4927,"ansaction":4928,"969":4929,"Auth":4930,"ICE":4931,"No":4932,"PCM":4933,"Sk":4934,"Sampling":4935,"dyn":4936,"jpeg":4937,"mail":4938,"ni":4939,"nsion":4940,"qscale":4941,"tuple":4942,"vid":4943,"atum":4944,"Ġtv":4945,"arse":4946,"Ġfputs":4947,"Ġ\\\"$(":4948,"Ġand":4949,"Ġdate":4950,"Ġhp":4951,"adb":4952,"ĠBU":4953,"utf":4954,"Ġll":4955,"RES":4956,"ĠUN":4957,"Ġ34":4958,"enable":4959,"ations":4960,"ĠDTLS":4961,"048":4962,"timestamp":4963,"ĠxmlList":4964,"enerate":4965,"NAMESPACE":4966,"ĠZEND":4967,"Ġsym":4968,"Ġsystem":4969,"CONTROL":4970,"Ġattribute":4971,"REFERENCE":4972,"VideoCapability":4973,"Ġdecompression":4974,"ĠThrow":4975,"vbuffer":4976,"ĠSplFileObject":4977,"ĠAppendASCII":4978,"Ġbmvtype":4979,"Ġvisits":4980,"Factory":4981,"AA":4982,"FP":4983,"Full":4984,"HOST":4985,"Payload":4986,"RC":4987,"Reader":4988,"SURROGATE":4989,"TL":4990,"Total":4991,"Width":4992,"aal":4993,"fter":4994,"Ġtask":4995,"arith":4996,"ctime":4997,"Ġmic":4998,"Ġecode":4999,"Ġored":5000,"Ġohci":5001,"Ġnmv":5002,"Ġcookie":5003,"Ġstyle":5004,"Ġinline":5005,"Ġkernel":5006,"\\\\'":5007,"database":5008,"LET":5009,"SEP":5010,"ĠMock":5011,"direct":5012,"Ġchrome":5013,"sha":5014,"Ġmvd":5015,"resource":5016,"loadSharedData":5017,"Ġtemporal":5018,"Unique":5019,"Ġcounter":5020,"Ġalias":5021,"ĠstackPieces":5022,"Ġpreview":5023,"390":5024,"visible":5025,"force":5026,"storel":5027,"EXPORT":5028,"factors":5029,"mbda":5030,"reserved":5031,"rfbProcess":5032,"ntohs":5033,"cluded":5034,"BrowserTest":5035,"Ġcalc":5036,"DynamicOffsets":5037,"cycling":5038,"ĠSUCCESS":5039,"ĠoredChars":5040,"DY":5041,"VEL":5042,"XTS":5043,"bad":5044,"blob":5045,"dct":5046,"duct":5047,"ks":5048,"luma":5049,"pw":5050,"uchar":5051,"ĠSTR":5052,"Ġload":5053,"ĠSTATE":5054,"Ġcorr":5055,"erated":5056,"less":5057,"Ġrep":5058,"Ġresp":5059,"Ġgef":5060,"Ġht":5061,"settings":5062,"ctxt":5063,"Ġ40":5064,"Ġ409":5065,"jected":5066,"Ġtok":5067,"CHANGE":5068,"acce":5069,"counts":5070,"Ġshape":5071,"ĠEXT":5072,"emplate":5073,"ĠOld":5074,"symbol":5075,"ĠfileTransfer":5076,"Ġskippable":5077,"doc":5078,"usted":5079,"ĠREF":5080,"EXTERN":5081,"dbg":5082,"SUPP":5083,"FAILE":5084,"cipsafety":5085,"Loop":5086,"5404":5087,"Ġcodecpar":5088,"curity":5089,"Ġcolors":5090,"variable":5091,"SYS":5092,"MAIN":5093,"LICY":5094,"POLICY":5095,"Quantum":5096,"clude":5097,"Cache":5098,"SPONSE":5099,"FAILED":5100,"AF":5101,"IRE":5102,"Link":5103,"LVL":5104,"NDEF":5105,"Page":5106,"PORT":5107,"SQL":5108,"WD":5109,"cles":5110,"dlog":5111,"gg":5112,"gol":5113,"ground":5114,"hal":5115,"mx":5116,"warning":5117,"Ġsname":5118,"storage":5119,"deno":5120,"deblock":5121,"onent":5122,"Ġpts":5123,"Ġevbuffer":5124,"Ġreset":5125,"Ġreplace":5126,"orrection":5127,"SSION":5128,"argument":5129,"ĠAD":5130,"protocol":5131,"Ġyv":5132,"ptrs":5133,"Ġargument":5134,"observer":5135,"Ġkeywords":5136,"Ġcmap":5137,"ĠID":5138,"ĠImage":5139,"Ġselect":5140,"ĠDestroy":5141,"ĠoutputBytes":5142,"VERIFY":5143,"encryption":5144,"loadu":5145,"Ġmaxlen":5146,"555":5147,"avp":5148,"569":5149,"rounding":5150,"pathname":5151,"Ġinternal":5152,"Ġhbs":5153,"ĠFFMIN":5154,"cbp":5155,"quantize":5156,"disable":5157,"TestIs":5158,"INTERNAL":5159,"Ġdbname":5160,"audioSampling":5161,"Loadable":5162,"Ġspecifics":5163,"pful":5164,"ĠassertEqualIntA":5165,"Ġhelpful":5166,"ĠFilePath":5167,"ĠmyConverterData":5168,"Ġescape":5169,"ĠonlyTestIs":5170,"ĠonlyTestIsLoadable":5171,"74":5172,"884":5173,"='%":5174,"Cur":5175,"Custodian":5176,"HA":5177,"HT":5178,"OID":5179,"Pending":5180,"SIGN":5181,"UInt":5182,"YU":5183,"hf":5184,"lp":5185,"pseudo":5186,"rt":5187,"ration":5188,"vance":5189,"war":5190,"Ġisp":5191,"Ġbc":5192,"Ġboolean":5193,"Ġbasic":5194,"Ġfh":5195,"algo":5196,"Ġ...":5197,"Ġauto":5198,"Ġvo":5199,"etch":5200,"setiv":5201,"Ġly":5202,"Ġlink":5203,"example":5204,"248":5205,"ĠCUR":5206,"ipoint":5207,"ĠSvc":5208,"diction":5209,"Ġopaque":5210,"Ġvalid":5211,"Conference":5212,"ĠnextSource":5213,"olution":5214,"ĠRANGE":5215,"Ġenable":5216,"TRAN":5217,"lower":5218,"55677":5219,"Prog":5220,"Ġallow":5221,"Ġallowed":5222,"Ġtimestamp":5223,"844":5224,"Ġpair":5225,"quantizer":5226,"ValueWarning":5227,"66214":5228,"Ġprivate":5229,"ĠZERO":5230,"CONTENT":5231,"ĠInsecure":5232,"Ġ1366214":5233,"xffffffff":5234,"Ġscope":5235,"overlap":5236,"rintPreview":5237,"versal":5238,"Ġttmb":5239,"lifetime":5240,"Ġmeta":5241,"FORMADD":5242,"ENABLED":5243,"9695404":5244,"ĠnextSourceIndex":5245,"ĠInsecureValueWarning":5246,"Ġ13662149695404":5247,"Ġ1366214969540455677":5248,"*!":5249,"06":5250,"1000":5251,"AME":5252,"LF":5253,"Put":5254,"PCTX":5255,"PPTR":5256,"calloc":5257,"horiz":5258,"lshift":5259,"ou":5260,"ous":5261,"osition":5262,"timer":5263,"way":5264,"zip":5265,"Ġsupported":5266,"realloc":5267,"restore":5268,"Ġcname":5269,"Ġpctx":5270,"Ġbmp":5271,"ctld":5272,"Ġfrag":5273,"Ġman":5274,"Ġmpi":5275,"Ġmont":5276,"Ġvoice":5277,"Ġvirt":5278,"ĠBMV":5279,"Ġstg":5280,"ablestring":5281,"iso":5282,"app":5283,"ĠTime":5284,"Ġexpr":5285,"ĠMS":5286,"ĠPUBKEY":5287,"COVER":5288,"2231":5289,"freep":5290,"CONN":5291,"ressive":5292,"ĠEXTRA":5293,"Ġuniversal":5294,"ĠRS":5295,"2254":5296,"Ġassoc":5297,"5535":5298,"Ġqual":5299,"THREAD":5300,"ĠxmlXPath":5301,"192":5302,"Ġenvline":5303,"attribute":5304,"Ġprintablestring":5305,"packus":5306,"MODES":5307,"CURR":5308,"Ġreqbody":5309,"2733":5310,"Ġvisible":5311,"570":5312,"Ġrsv":5313,"Ġhandler":5314,"Field":5315,"crt":5316,"alty":5317,"Class":5318,"Ġutctime":5319,"BitRate":5320,"Ġsocket":5321,"Direct":5322,"IFT":5323,"temporal":5324,"Ġlibssh":5325,"izedtime":5326,"Ġtrace":5327,"Ġbackup":5328,"Document":5329,"Ġenumerated":5330,"ĠcharErrorBufferLength":5331,"Ġgeneralstring":5332,"Ġgeneralizedtime":5333,"utils":5334,"Origin":5335,"two":5336,"Ġbmpstring":5337,"Ġuniversalstring":5338,"Ġvisiblestring":5339,"',":5340,"Dial":5341,"Flags":5342,"JUST":5343,"Sl":5344,"TING":5345,"Tab":5346,"clean":5347,"gcry":5348,"ho":5349,"Ġsps":5350,"separ":5351,"Ġtfs":5352,"inv":5353,"Ġpps":5354,"Ġbig":5355,"Ġos":5356,"transport":5357,"Ġdxy":5358,"Ġrbuf":5359,"Ġlpc":5360,"Ġcore":5361,"exit":5362,"Ġinfile":5363,"Ġworst":5364,"andnot":5365,"aper":5366,"ĠTFS":5367,"ĠSUB":5368,"DECREF":5369,"ĠPDF":5370,"Ġrefs":5371,"mba":5372,"box":5373,"poc":5374,"post":5375,"ĠDC":5376,"submit":5377,"Ġcbpy":5378,"compressed":5379,"BOTT":5380,"Ġzip":5381,"Ġalign":5382,"ĠfromU":5383,"slurm":5384,"charset":5385,"ĠUCharErrorBuffer":5386,"ontal":5387,"VIDE":5388,"Ġnumbers":5389,"Ġpackets":5390,"SHIFT":5391,"blah":5392,"ĠmySourceChar":5393,"ĠCONT":5394,"arker":5395,"expand":5396,"extensions":5397,"ĠCOMP":5398,"Appro":5399,"ugh":5400,"MultiplexEntry":5401,"Ġmetadata":5402,"progress":5403,"Ġedge":5404,"golden":5405,"Ġquality":5406,"BOTTOM":5407,"NB":5408,"Supported":5409,"SLT":5410,"WMV":5411,"_%":5412,"aj":5413,"ered":5414,"mk":5415,"patch":5416,"super":5417,"ume":5418,"ĠDEFAULT":5419,"Ġidata":5420,"Ġsrp":5421,"stop":5422,"seen":5423,"ctable":5424,"Ġefree":5425,"Ġremaining":5426,"Ġdig":5427,"Ġufmt":5428,"Ġuphp":5429,"tent":5430,"Ġlname":5431,"CTP":5432,"Ġstrresult":5433,"strbuf":5434,"164":5435,"upport":5436,"enter":5437,"ĠGB":5438,"Ġresv":5439,"UTE":5440,"IZE":5441,"ĠcurrentOffset":5442,"Ġselec":5443,"Release":5444,"EXSTRING":5445,"Ġbitnum":5446,"ious":5447,"TELET":5448,"okmark":5449,"Ġmemm":5450,"ription":5451,"ĠconverterData":5452,"Ġstdout":5453,"owner":5454,"Ġnotification":5455,"ĠKRB":5456,"UPDATE":5457,"Ġatoi":5458,"ICSTRING":5459,"Ġrecords":5460,"ForProfile":5461,"override":5462,"NUMERICSTRING":5463,"Color":5464,"Ġuvmy":5465,"pectrum":5466,"NonStandard":5467,"Ġbounds":5468,"dbgmsg":5469,"CURRENT":5470,"ĠCONTENT":5471,"TELETEXSTRING":5472,"2198":5473,"722":5474,"Create":5475,"Func":5476,"Magick":5477,"PW":5478,"Password":5479,"SCTP":5480,"UArgs":5481,"bb":5482,"cancel":5483,"ould":5484,"rong":5485,"sra":5486,"Ġside":5487,"rement":5488,"Ġcchip":5489,"Ġbink":5490,"road":5491,"roid":5492,"Ġfour":5493,"Ġmore":5494,"Ġrem":5495,"alled":5496,"sist":5497,"Ġact":5498,"Ġdt":5499,"Ġdquant":5500,"setn":5501,"Ġright":5502,"Ġdecoding":5503,"Ġxhci":5504,"DELT":5505,"exec":5506,"Ġavt":5507,"Ġstrto":5508,"Ġwin":5509,"ĠFROM":5510,"Ġprob":5511,"upted":5512,"upper":5513,"Ġextr":5514,"split":5515,"LMBCSGetNextUChar":5516,"colormap":5517,"pol":5518,"ĠDatum":5519,"Ġ50":5520,"anner":5521,"subset":5522,"SETTING":5523,"safe":5524,"oken":5525,"Extra":5526,"Ġtopleft":5527,"scaled":5528,"COMPAT":5529,"SHORT":5530,"Ġquantum":5531,"ĠAVPALETTE":5532,"IMG":5533,"Idx":5534,"PIXEL":5535,"cycles":5536,"xFFFF":5537,"ĠProtocol":5538,"ĠsaveSourceLimit":5539,"seconds":5540,"quired":5541,"Ġrunning":5542,"History":5543,"dtor":5544,"Ġinstance":5545,"Ġhalf":5546,"Ġitlq":5547,"ĠNavigateTo":5548,"ĠPREDI":5549,"ĠBUF":5550,"ĠOldConverterIndex":5551,"Approval":5552,"srai":5553,"roadcast":5554,"LMBCSGetNextUCharWorker":5555,"131":5556,"219":5557,"420":5558,"BPDU":5559,"CUSTOM":5560,"Copy":5561,"End":5562,"Ext":5563,"IX":5564,"PS":5565,"Supervised":5566,"Word":5567,"]\\\"":5568,"dl":5569,"drop":5570,"flush":5571,"ga":5572,"gy":5573,"gra":5574,"lation":5575,"monitor":5576,"pwd":5577,"ĠDEPRECATED":5578,"Ġslen":5579,"Ġsbuffer":5580,"Ġcr":5581,"lection":5582,"Ġtcmp":5583,"urface":5584,"Ġdump":5585,"Ġ255":5586,"asl":5587,"Ġlmbcs":5588,"Ġdelim":5589,"chan":5590,"abs":5591,"term":5592,"Ġqpel":5593,"ĠType":5594,"ĠTile":5595,"MESS":5596,"LMBCSUni":5597,"Cookies":5598,"ĠisSingleByteMode":5599,"redHistory":5600,"Ġyyn":5601,"MPV":5602,"Ġsearch":5603,"ryption":5604,"ĠLTOP":5605,"errors":5606,"Ġclamp":5607,"Ġdoes":5608,"Stat":5609,"Ġcolormap":5610,"Ġtrunc":5611,"Ġtimeout":5612,"forward":5613,"SORT":5614,"distortion":5615,"vertUni":5616,"DISCOVER":5617,"Ġdcdiff":5618,"colors":5619,"ĠstatsTuple":5620,"ĠLMBCSConvertUni":5621,"ĠxsltTransform":5622,"ADDR":5623,"inished":5624,"ĠPNJ":5625,"Ġcomment":5626,"ĠContains":5627,"ĠScoredHistory":5628,"ĠExternalProtocolHandler":5629,"Ġcorrupted":5630,"CONNECT":5631,"ĠDEPRECATEDIN":5632,"ĠScoredHistoryMatch":5633,"AU":5634,"ACT":5635,"Clock":5636,"MULT":5637,"PAD":5638,"Version":5639,"cit":5640,"failed":5641,"xA":5642,"Ġsin":5643,"Ġsvq":5644,"Ġcalloc":5645,"Ġtres":5646,"inx":5647,"Ġpref":5648,"Ġbegin":5649,"Ġ\\\"(":5650,"Ġreget":5651,"Ġrecon":5652,"Ġaudio":5653,"Ġdown":5654,"INPUT":5655,"STI":5656,"Ġvt":5657,"eta":5658,"ĠBrowser":5659,"DED":5660,"expected":5661,"Ġwth":5662,"RESH":5663,"STALL":5664,"FIXED":5665,"oti":5666,"enum":5667,"ops":5668,"LMBCSOpen":5669,"ĠSC":5670,"Could":5671,"entic":5672,"ĠGST":5673,"logicalChannel":5674,"Ġwhich":5675,"Ġthread":5676,"SIZES":5677,"TIMEOUT":5678,"pending":5679,"pathc":5680,"CapabilitySet":5681,"Ġinitrd":5682,"Ġdirlen":5683,"penalty":5684,"Ġvariant":5685,"ules":5686,"cision":5687,"Ġhandshake":5688,"transfer":5689,"DISC":5690,"IFICATE":5691,"Histogram":5692,"Ġuvmx":5693,"nuTLS":5694,"ExpBuffer":5695,"YUV":5696,"ĠNavigateToURL":5697,"MESSAGE":5698,"citation":5699,"APE":5700,"Bund":5701,"NER":5702,"OTH":5703,"begin":5704,"draw":5705,"gorithm":5706,"hm":5707,"hel":5708,"iss":5709,"lcpy":5710,"pk":5711,"task":5712,"ude":5713,"Ġcd":5714,"decompress":5715,"Ġpcp":5716,"Ġfc":5717,"Ġast":5718,"Ġacoder":5719,"urity":5720,"itch":5721,"INSTR":5722,"Ġgic":5723,"Ġgss":5724,"anch":5725,"Ġnet":5726,"Ġconvd":5727,"utdown":5728,"Ġlsp":5729,"Ġxcnv":5730,"Ġstri":5731,"anding":5732,"ĠHttp":5733,"Ġprojected":5734,"Ġqx":5735,"Ġqy":5736,"served":5737,"Ġ%\\\"":5738,"SEXT":5739,"120":5740,"LMBCSin":5741,"ĠParse":5742,"escape":5743,"noise":5744,"ARCH":5745,"unsupported":5746,"CHO":5747,"ĠDBG":5748,"ody":5749,"Ġclone":5750,"ĠSSLerr":5751,"compound":5752,"Ġunique":5753,"screen":5754,"ĠRes":5755,"ĠRun":5756,"packetbb":5757,"https":5758,"checks":5759,"SPLIT":5760,"Ġverify":5761,"numbers":5762,"FACT":5763,"security":5764,"Transport":5765,"ĠppLMBCSin":5766,"IMER":5767,"tokenonly":5768,"running":5769,"partitioning":5770,"Permission":5771,"Present":5772,"Ġhintnumber":5773,"identifier":5774,"TYP":5775,"Ġduplicate":5776,"Ġprogname":5777,"ĠSIGCOMP":5778,"Ġpopulate":5779,"cpmgetrows":5780,"ALIGNED":5781,"reordering":5782,"PROTOCOL":5783,"frac":5784,"ĠDebugLog":5785,"CLOSE":5786,"ĠcontextCharToUnicode":5787,"nsions":5788,"ctablecolumn":5789,"DISCARD":5790,"235":5791,"71":5792,"726":5793,"AAD":5794,"Active":5795,"CAST":5796,"DS":5797,"FROM":5798,"GA":5799,"GnuTLS":5800,"HDR":5801,"Normal":5802,"PAGE":5803,"RANGE":5804,"UM":5805,"UU":5806,"auto":5807,"der":5808,"gu":5809,"lav":5810,"mf":5811,"mg":5812,"option":5813,"pgsm":5814,"wrap":5815,"Ġigno":5816,"Ġstop":5817,"restrict":5818,"Ġ*/":5819,"atib":5820,"Ġpent":5821,"Ġbody":5822,"Ġfps":5823,"Ġelem":5824,"Ġdmax":5825,"Ġguchar":5826,"Ġus":5827,"ckey":5828,"Ġlt":5829,"Ġden":5830,"Ġcomple":5831,"Ġxfer":5832,"arge":5833,"323":5834,"OFILE":5835,"ĠURL":5836,"extern":5837,"1651":5838,"ĠCUSTOM":5839,"LEAD":5840,"terance":5841,"ĠTLS":5842,"show":5843,"unn":5844,"Ġparsed":5845,"Ġ65":5846,"Ġ66":5847,"Ġsubpel":5848,"UINTEGER":5849,"BOXED":5850,"Ġmsb":5851,"1094":5852,"Ġpredictor":5853,"Ġpredict":5854,"047":5855,"ĠVar":5856,"GENERATED":5857,"Ġalpha":5858,"Ġoffs":5859,"ĠXp":5860,"135":5861,"ĠfromUnicodeStatus":5862,"Ġapplication":5863,"Ġaccount":5864,"ĠInstall":5865,"Sequence":5866,"cursor":5867,"ORTED":5868,"WithOffsets":5869,"PARAM":5870,"Notification":5871,"iserver":5872,"ĠExtensionService":5873,"network":5874,"AUTO":5875,"Ġsshbuf":5876,"Ġadjust":5877,"EAMDISCOVER":5878,"ĠSTEAMDISCOVER":5879,"Ġpostsize":5880,"correction":5881,"ENCODING":5882,"hancement":5883,"ĠStart":5884,"TableEntryNumber":5885,"ĠThrowReader":5886,"ĠThrowReaderException":5887,"337":5888,"41066":5889,"81":5890,"85":5891,"BM":5892,"Back":5893,"CW":5894,"Custom":5895,"DONE":5896,"DynamicWindow":5897,"FULL":5898,"LC":5899,"MU":5900,"MAL":5901,"Make":5902,"Rem":5903,"WIRE":5904,"blen":5905,"ear":5906,"ech":5907,"fac":5908,"false":5909,"glu":5910,"mime":5911,"oted":5912,"qs":5913,"rk":5914,"sin":5915,"same":5916,"schro":5917,"tlv":5918,"we":5919,"ĠER":5920,"ĠINVALID":5921,"ĠAST":5922,"Ġimp":5923,"Ġsexp":5924,"resi":5925,"retr":5926,"sel":5927,"Ġticket":5928,"arf":5929,"ĠfWidth":5930,"Ġmtr":5931,"Ġreject":5932,"Ġrestore":5933,"cose":5934,"itel":5935,"Ġgx":5936,"ank":5937,"tell":5938,"Ġnp":5939,"NUSED":5940,"interrupt":5941,"Ġlsb":5942,"ndup":5943,"Ġavcodec":5944,"Ġavpriv":5945,"ĠinDirect":5946,"REC":5947,"REP":5948,"RESPONSE":5949,"ĠkHttp":5950,"ĠEOF":5951,"ector":5952,"LEVEL":5953,"istCookies":5954,"Inst":5955,"getc":5956,"SEC":5957,"bitrate":5958,"parm":5959,"parms":5960,"Ġwhitel":5961,"Ġbsaes":5962,"BOUND":5963,"Ġcols":5964,"Ġcolon":5965,"ĠRAND":5966,"Check":5967,"Ġadaptive":5968,"domain":5969,"Ġ'\\\\\\\\'":5970,"294":5971,"PRESER":5972,"Sec":5973,"Segment":5974,"join":5975,"Ġcolorspace":5976,"Ġmatched":5977,"bandwidth":5978,"capability":5979,"Ġ^=":5980,"ALLOCATION":5981,"OUTPUT":5982,"ĠMYSQL":5983,"ĠProcess":5984,"9836":5985,"Query":5986,"ahead":5987,"localhost":5988,"ĠSTD":5989,"Ġhello":5990,"PACKET":5991,"Connection":5992,"RedundancyEncoding":5993,"SOCKET":5994,"ĠExpectTotal":5995,"ĠHtmlPut":5996,"EngagementHistogram":5997,"Skip":5998,"TLSEXT":5999,"docref":6000,"ĠEXTRACT":6001,"DELTA":6002,"WIRETYPE":6003,"glucose":6004,"ĠinDirectMode":6005,"ĠwhitelistCookies":6006,"ĠExpectTotalCount":6007,"),":6008,"484":6009,"435":6010,"65535":6011,">\\\\":6012,"AVP":6013,"AIL":6014,"DEN":6015,"FLO":6016,"MAC":6017,"NON":6018,"PQ":6019,"RIGHT":6020,"UNUSED":6021,"Vector":6022,"[%":6023,"bk":6024,"browser":6025,"border":6026,"pline":6027,"qcif":6028,"sof":6029,"vt":6030,"xC":6031,"ĠLOAD":6032,"Ġij":6033,"Ġcrc":6034,"ste":6035,"Ġbk":6036,"aries":6037,"Ġ10000":6038,"Ġflist":6039,"ĠfPos":6040,"itude":6041,"Ġgpgsm":6042,"Ġvert":6043,"Ġuiserver":6044,"Ġni":6045,"Ġnnumbers":6046,"setzero":6047,"icast":6048,"piration":6049,"ĠUD":6050,"FIX":6051,"Ġ39":6052,"ATA":6053,"ĠMST":6054,"ĠMASK":6055,"DECO":6056,"uni":6057,"Ġmissing":6058,"COME":6059,"bitmap":6060,"plx":6061,"IDX":6062,"NODE":6063,"quit":6064,"Recovery":6065,"Ġ63":6066,"buflen":6067,"Ġdirectory":6068,"Ġsubtype":6069,"ĠsrcU":6070,"ĠsrcV":6071,"Stack":6072,"elements":6073,"380":6074,"1010":6075,"ĠYV":6076,"minq":6077,"ĠGetForProfile":6078,"Property":6079,"80724":6080,"Ġalvalue":6081,"846":6082,"ĠRET":6083,"FAIL":6084,"CONTIN":6085,"Seq":6086,"Ġnoise":6087,"CLNT":6088,"ĠINIT":6089,"Ġwords":6090,"orization":6091,"digest":6092,"ĠPARSE":6093,"handlers":6094,"mediate":6095,"private":6096,"negative":6097,"ometry":6098,"ĠFIRSTPASS":6099,"COEFF":6100,"CREATE":6101,"Ġmultibuffer":6102,"38989":6103,"Ġrandom":6104,"MTRRfix":6105,"CustodianApproval":6106,"Ġrsvph":6107,"4106680724":6108,"983638989":6109,"PQExpBuffer":6110,"4106680724983638989":6111,"*\\\"":6112,"-'":6113,"Cannot":6114,"DQ":6115,"HZ":6116,"Scheme":6117,"cd":6118,"crow":6119,"la":6120,"lx":6121,"pub":6122,"tap":6123,"wait":6124,"rel":6125,"region":6126,"Ġcseq":6127,"ating":6128,"Ġtar":6129,"Ġtlen":6130,"Ġpsec":6131,"Ġpitch":6132,"ctm":6133,"ropt":6134,"Ġmres":6135,"Ġ\\\";\\":6136,"Ġretry":6137,"simple":6138,"Ġvs":6139,"Ġhy":6140,"ENTRY":6141,"Ġrropt":6142,"agg":6143,"choice":6144,"Ġxstrdup":6145,"asecmp":6146,"ĠAMR":6147,"Ġstrinfo":6148,"Ġbucket":6149,"Ġws":6150,"REMO":6151,"246":6152,"ĠES":6153,"643":6154,"ATTR":6155,"SESSION":6156,"conversation":6157,"dia":6158,"Ġ'-'":6159,"prim":6160,"Comm":6161,"ĠisExtra":6162,"ĠGSS":6163,"Ġpiv":6164,"Ġerrp":6165,"ĠDi":6166,"ĠDCT":6167,"Ġleave":6168,"Ġcodeset":6169,"Ġclass":6170,"Ġshaper":6171,"SRVR":6172,"Arg":6173,"ECTOR":6174,"abilities":6175,"ĠGetURL":6176,"Ġcomponent":6177,"ĠxmlFree":6178,"QUANT":6179,"ĠRECON":6180,"ESCAPE":6181,"ĠstackBuffer":6182,"Ġpday":6183,"153":6184,"392":6185,"ĠrfbClose":6186,"Parse":6187,"COMPRESS":6188,"2738":6189,"destination":6190,"comment":6191,"MSG":6192,"matched":6193,"matches":6194,"Ġstrncasecmp":6195,"Observer":6196,"----":6197,"SYSTE":6198,"Encryption":6199,"secondary":6200,"ntohl":6201,"quire":6202,"edia":6203,"Internal":6204,"Ġpng":6205,"ENSION":6206,"Ġabort":6207,"Ġsameh":6208,"Ġcmptno":6209,"ĠIMAP":6210,"Ġcodingset":6211,"Ġmacroblockd":6212,"PKT":6213,"accel":6214,"Cursor":6215,"Ġvoices":6216,"ĠProtocolHandler":6217,"ĠTileInfo":6218,"PADDING":6219,"Bundle":6220,"Ġstrict":6221,"Ġmtrr":6222,"PRESERVE":6223,"DQCOEFF":6224,"ĠisExtraLocal":6225,"ĠrfbCloseClient":6226,"'\\\\":6227,"110":6228,"Cre":6229,"Fax":6230,"Item":6231,"Label":6232,"clock":6233,"dw":6234,"dval":6235,"frm":6236,"gt":6237,"generate":6238,"mid":6239,"preference":6240,"tcp":6241,"wb":6242,"ĠERROR":6243,"Ġspectrum":6244,"erge":6245,"del":6246,"dered":6247,"Ġpq":6248,"Ġplist":6249,"ĠbS":6250,"Ġbps":6251,"Ġfclose":6252,"Ġmag":6253,"Ġreor":6254,"Ġvk":6255,"ading":6256,"loor":6257,"inten":6258,"Ġra":6259,"exist":6260,"Ġundef":6261,"Ġbufsize":6262,"6404":6263,"Ġ83207":6264,"signature":6265,"spatial":6266,"ĠSpline":6267,"caped":6268,"ENCRYPT":6269,"Ġisdigit":6270,"bias":6271,"ĠIF":6272,"CHUNK":6273,"CHANG":6274,"MPTY":6275,"ĠEXP":6276,"ivity":6277,"Chunk":6278,"Ġzstream":6279,"Ġcontrol":6280,"ĠUConverterFromUnicode":6281,"34184":6282,"ĠXSLT":6283,"ToWrite":6284,"Ġlocation":6285,"skipped":6286,"Ġoptarg":6287,"Ġboost":6288,"DOMAIN":6289,"Transmit":6290,"cpmset":6291,"actual":6292,"raph":6293,"Ġutterance":6294,"Dict":6295,"threshold":6296,"Application":6297,"Ġmcd":6298,"ĠPRI":6299,"LogicalChannelParameters":6300,"Ġspecified":6301,"ĠlkNew":6302,"MARKER":6303,"AudioCapability":6304,"Cause":6305,"Ġlambda":6306,"AREST":6307,"ĠAutocompleteMatch":6308,"ĠUSES":6309,"Ġirq":6310,"Ġhwaccel":6311,"SUPPORTED":6312,"24834184":6313,"ĠfromUDynamicOffsets":6314,"165124834184":6315,"ĠESLURM":6316,"Ġreordered":6317,"Ġ83207165124834184":6318,"CHANGED":6319,"ĠUConverterFromUnicodeArgs":6320,"Ġ8320716512483418415":6321,"755":6322,"789":6323,"877":6324,"ACTION":6325,"CD":6326,"DIG":6327,"KEX":6328,"MAND":6329,"MALLOC":6330,"Media":6331,"NC":6332,"OUND":6333,"Order":6334,"RAND":6335,"SF":6336,"SCRIPT":6337,"TREE":6338,"Vi":6339,"WIN":6340,"WEL":6341,"eded":6342,"guid":6343,"head":6344,"iable":6345,"oci":6346,"tile":6347,"Ġspe":6348,"Ġsent":6349,"recs":6350,"Ġcmp":6351,"nted":6352,"strerror":6353,"atH":6354,"secs":6355,"Ġtex":6356,"once":6357,"inst":6358,"Ġbfd":6359,"Ġmat":6360,"Ġmos":6361,"Ġ\\\"[":6362,"Ġrest":6363,"could":6364,"its":6365,"Ġgst":6366,"Ġhome":6367,"Ġnntp":6368,"Ġrice":6369,"Ġli":6370,"Ġxoff":6371,"export":6372,"extended":6373,"sslot":6374,"ĠAc":6375,"REUS":6376,"vec":6377,"strndup":6378,"161":6379,"ĠCSR":6380,"ĠTM":6381,"Ġbuflen":6382,"Ġbufsz":6383,"serv":6384,"Ġexcitation":6385,"Install":6386,"attstat":6387,"ĠScale":6388,"ĠPK":6389,"unsigned":6390,"Ġendloop":6391,"mbmi":6392,"offsets":6393,"define":6394,"ftone":6395,"CHWEL":6396,"Ġparity":6397,"RAM":6398,"aystack":6399,"ĠerrorCode":6400,"endian":6401,"Ġinterlaced":6402,"LICE":6403,"Ġ127":6404,"API":6405,"APP":6406,"ĠGetCache":6407,"Ġstarting":6408,"Prop":6409,"lict":6410,"Ġphase":6411,"ĠWait":6412,"893":6413,"RTP":6414,"ĠrfbEncoding":6415,"Params":6416,"Ġhttps":6417,"67889":6418,"The":6419,"specific":6420,"ĠSetPixel":6421,"LINK":6422,"tails":6423,"256404":6424,"ĠSEEK":6425,"CBPC":6426,"Ġlower":6427,"Ġipvideo":6428,"Ġrole":6429,"FEC":6430,"template":6431,"SyncData":6432,"Starts":6433,"records":6434,"contents":6435,"PATCHWEL":6436,"ĠRTP":6437,"center":6438,"67782":6439,"Ġsecret":6440,"Ġ\\\"/*!":6441,"Ġlibcerror":6442,"SIDE":6443,"SIMPLE":6444,"ĠPNG":6445,"rength":6446,"WebContentsAt":6447,"airT":6448,"Ġhev":6449,"remove":6450,"Ġcapacity":6451,"Ġpointsize":6452,"Ġlyr":6453,"57067889":6454,"UUIE":6455,"Secure":6456,"intenance":6457,"ĠEXPFILL":6458,"REUSABLE":6459,"attstatsslot":6460,"25640467782":6461,"PATCHWELCOME":6462,"5706788925640467782":6463,"!\\\\":6464,"704":6465,"729":6466,"Bl":6467,"Band":6468,"Del":6469,"EP":6470,"GO":6471,"GT":6472,"Got":6473,"GOLD":6474,"LV":6475,"Marker":6476,"UI":6477,"ained":6478,"df":6479,"eob":6480,"imp":6481,"ilt":6482,"oot":6483,"pcp":6484,"sw":6485,"wner":6486,"Ġidentifier":6487,"retry":6488,"ins":6489,"Ġpseudo":6490,"Ġpchip":6491,"Ġbr":6492,"arter":6493,"Ġft":6494,"Ġfast":6495,"Ġfopen":6496,"Ġmthread":6497,"allo":6498,"Ġdfile":6499,"Ġduration":6500,"Ġgres":6501,"Ġgencb":6502,"Ġvbr":6503,"Ġhex":6504,"Ġ200":6505,"Ġrmd":6506,"Ġdecay":6507,"tot":6508,"found":6509,"Ġinpacket":6510,"abic":6511,"Ġwas":6512,"ĠUn":6513,"Ġmba":6514,"apsh":6515,"ĠMax":6516,"ĠSource":6517,"estim":6518,"unication":6519,"refresh":6520,"Ġmvp":6521,"ĠDB":6522,"buffers":6523,"Ġ58":6524,"Ġwhere":6525,"Ġpriority":6526,"Unit":6527,"Ġmspel":6528,"ctionary":6529,"ĠOn":6530,"syllable":6531,"Ġcounts":6532,"PRIV":6533,"ĠGetWebContentsAt":6534,"Ġdissector":6535,"802":6536,"rpc":6537,"ĠFFMAX":6538,"cbase":6539,"Valid":6540,"ACCEPT":6541,"ĠQu":6542,"Ġconnect":6543,"lative":6544,"roll":6545,"Enhancement":6546,"fdct":6547,"58884":6548,"coming":6549,"Ġlogin":6550,"Ġfailure":6551,"Ġscoped":6552,"Ġpeer":6553,"Ġlayers":6554,"segfeature":6555,"ProtocolCapability":6556,"Permissions":6557,"avigation":6558,"reasons":6559,"Ġabfd":6560,"BUFSIZE":6561,"Ġcreator":6562,"Ġentity":6563,"Ġparameters":6564,"speed":6565,"ĠDouble":6566,"Ġattributes":6567,"Ġ4096":6568,"ĠPREDICTION":6569,"DECODER":6570,"Ġractx":6571,"43":6572,"711":6573,"As":6574,"Correction":6575,"NR":6576,"Prefs":6577,"UID":6578,"Usb":6579,"cist":6580,"dynamic":6581,"fn":6582,"graph":6583,"ng":6584,"pvideo":6585,"qi":6586,"rad":6587,"Ġsid":6588,"Ġsmb":6589,"Ġsuper":6590,"Ġsasl":6591,"Ġcrypt":6592,"stor":6593,"atm":6594,"sens":6595,"Ġfl":6596,"Ġmanager":6597,"Ġmaj":6598,"Ġreassemb":6599,"cow":6600,"six":6601,"ito":6602,"transaction":6603,"Ġgt":6604,"Ġhs":6605,"Ġna":6606,"Ġram":6607,"utable":6608,"reams":6609,"ĠAr":6610,"ĠACTION":6611,"Ġinl":6612,"Ġinp":6613,"Ġwarning":6614,"Ġkwd":6615,"Ġunpacked":6616,"245435":6617,"ĠHEAD":6618,"LETE":6619,"Ġforce":6620,"isual":6621,"Ġargi":6622,"Ġdatabase":6623,"642":6624,"Ġ80":6625,"ATURE":6626,"agent":6627,"ĠSwap":6628,"ĠSVC":6629,"Ġoperator":6630,"ĠbyteIndex":6631,"ĠGBo":6632,"unused":6633,"Ġkeyinfo":6634,"Ġtoc":6635,"ĠIpvideo":6636,"Ġparsing":6637,"cmpe":6638,"ĠLC":6639,"encp":6640,"Register":6641,"Render":6642,"compute":6643,"ivate":6644,"3858884":6645,"ĠuserLength":6646,"okahead":6647,"Ġaline":6648,"masks":6649,"prec":6650,"prev":6651,"AGNO":6652,"AGIC":6653,"6662":6654,"FACE":6655,"secret":6656,"305":6657,"596":6658,"Ġminst":6659,"Ġofs":6660,"before":6661,"Ġsyllable":6662,"Ġdctblock":6663,"ListEntry":6664,"results":6665,"SHAKE":6666,"Ġbta":6667,"CRow":6668,"increment":6669,"cpmcist":6670,"hostkey":6671,"Metrics":6672,"xfffe":6673,"Ġpehdr":6674,"Handle":6675,"Ġtransfer":6676,"HANDSHAKE":6677,"Term":6678,"1383858884":6679,"Ġepctx":6680,"198392":6681,"Controller":6682,"Ġ38870":6683,"Specifics":6684,"Ġcanon":6685,"Ġwriter":6686,"IfLE":6687,"Ġgeometry":6688,"2196":6689,"Ġ*/;\\":6690,"unnel":6691,"quitto":6692,"Ġmosquitto":6693,"sensor":6694,"2454352196":6695,"ĠGBoxed":6696,"ĠIpvideoContext":6697,"66622454352196":6698,"cpmcistate":6699,"1383858884161":6700,"1983921383858884161":6701,"Ġ3887066622454352196":6702,"156":6703,"300":6704,"728":6705,"AQ":6706,"Cmd":6707,"EE":6708,"EOF":6709,"GLOB":6710,"HIGH":6711,"Perror":6712,"POS":6713,"Sy":6714,"TARGET":6715,"WME":6716,"bx":6717,"bmk":6718,"cx":6719,"duration":6720,"float":6721,"glob":6722,"iod":6723,"lm":6724,"lpf":6725,"language":6726,"mux":6727,"nl":6728,"rlvl":6729,"sar":6730,"slow":6731,"Ġssrc":6732,"reget":6733,"Ġcq":6734,"Ġcat":6735,"eric":6736,"erate":6737,"atar":6738,"lems":6739,"Ġtry":6740,"Ġpbi":6741,"Ġbeta":6742,"ctf":6743,"Ġreorder":6744,"Ġrelative":6745,"alias":6746,"coap":6747,"Ġok":6748,"Ġddst":6749,"Ġvga":6750,"Ġunder":6751,"lomb":6752,"Ġnone":6753,"ĠBY":6754,"ENV":6755,"Ġrp":6756,"Ġxsize":6757,"Ġstrlcpy":6758,"Ġkqueue":6759,"ITH":6760,"Ġ41":6761,"ĠHost":6762,"ĠTABLE":6763,"ĠargConverted":6764,"Ġjpg":6765,"serial":6766,"ilink":6767,"Ġ',":6768,"priority":6769,"ĠGC":6770,"unlock":6771,"unref":6772,"Ġendp":6773,"CORE":6774,"Ġseek":6775,"Rece":6776,"Region":6777,"BODY":6778,"brid":6779,"Ġpresent":6780,"3157":6781,"ĠUConverterSharedData":6782,"ĠxmlNode":6783,"precision":6784,"DecContext":6785,"convolve":6786,"Ġspprintf":6787,"writeint":6788,"668":6789,"54569":6790,"Ġctrl":6791,"CRX":6792,"Numbers":6793,"cpmcreate":6794,"planes":6795,"Ġroutine":6796,"PARTITION":6797,"NotSupported":6798,"certificate":6799,"ĠProfile":6800,"ĠHTTPPOST":6801,"ugin":6802,"7959":6803,"CONTEXTS":6804,"Descriptions":6805,"tlsext":6806,"ĠrfbLogPerror":6807,"Ġdivx":6808,"heart":6809,"Ġpublic":6810,"history":6811,"Ġelements":6812,"ĠTrans":6813,"cognito":6814,"ĠDestroyImage":6815,"ways":6816,"Dialog":6817,"mbaff":6818,"VIDEO":6819,"ĠCOMPOUND":6820,"ĠxsltTransformError":6821,"OTHER":6822,"Ġlsps":6823,"FACTOR":6824,"iltin":6825,"cbasestor":6826,"cpmcreatequery":6827,"cbasestorvariant":6828,"):":6829,"012":6830,"429":6831,"BET":6832,"BIO":6833,"Broadcast":6834,"CF":6835,"Dir":6836,"EF":6837,"Feature":6838,"Go":6839,"HARD":6840,"Place":6841,"PALETTE":6842,"RI":6843,"SENT":6844,"SVC":6845,"YS":6846,"done":6847,"nic":6848,"nop":6849,"qmf":6850,"switch":6851,"vno":6852,"virt":6853,"xe":6854,"Ġso":6855,"Ġsurface":6856,"recode":6857,"reque":6858,"ĠcCipher":6859,"ermin":6860,"stick":6861,"decoding":6862,"dequant":6863,"section":6864,"ĠpErrorBuffer":6865,"Ġbg":6866,"Ġfe":6867,"Ġmo":6868,"alert":6869,"Ġorder":6870,"INDI":6871,"oring":6872,"Ġgstate":6873,"Ġgfc":6874,"Ġgencp":6875,"peat":6876,"Ġusl":6877,"Ġnrd":6878,"setg":6879,"leno":6880,"Ġdetails":6881,"Ġcoord":6882,"Ġcould":6883,"agma":6884,"edch":6885,"edStream":6886,"STRLEN":6887,"abc":6888,"Ġstrstr":6889,"Ġwmv":6890,"RESET":6891,"ĠECHO":6892,"ĠFrame":6893,"ĠUpdate":6894,"Ġunblen":6895,"Ġ46":6896,"ORK":6897,"009":6898,"Ġprompt":6899,"Ġyoff":6900,"MEDI":6901,"LOOK":6902,"ANCE":6903,"ĠAVDISCARD":6904,"LMBCSClose":6905,"dime":6906,"nost":6907,"obile":6908,"lines":6909,"Ġreferred":6910,"Ġerrmsg":6911,"Ġblocksize":6912,"Ġvaluelen":6913,"Ġlinear":6914,"ĠcurrentDelta":6915,"Reset":6916,"Record":6917,"Ġ68":6918,"EXCP":6919,"byteu":6920,"Ġsubframe":6921,"Ġerrors":6922,"Ġpragma":6923,"Ġ77":6924,"Ġscf":6925,"Ġscal":6926,"ĠRSTRING":6927,"ĠRel":6928,"ĠRATE":6929,"Ġzret":6930,"ByteTo":6931,"Ġfiles":6932,"cpus":6933,"3400":6934,"Exact":6935,"ĠXD":6936,"ĠxmlLink":6937,"Ġprinting":6938,"ToQuantum":6939,"843207":6940,"ĠRECORD":6941,"modified":6942,"numberOf":6943,"777":6944,"ĠprevToUnicode":6945,"Ġprevious":6946,"0001":6947,"295":6948,"rects":6949,"Enabled":6950,"407959":6951,"fdd":6952,"gistered":6953,"configuration":6954,"Seek":6955,"CHARSIZE":6956,"CPName":6957,"lvls":6958,"MATION":6959,"INTERP":6960,"0754569":6961,"cpmquery":6962,"Ġoverflow":6963,"Ġ192":6964,"RequestCre":6965,"audioLayer":6966,"without":6967,"COMMAND":6968,"SyncChange":6969,"CloseManager":6970,"Ġarabic":6971,"calc":6972,"VideoMode":6973,"452738":6974,"ĠOptGroupByteTo":6975,"FUNCARG":6976,"marker":6977,"Column":6978,"ĠlkPlace":6979,"HUFFMAN":6980,"Ġpkalg":6981,"nonStandard":6982,"negoti":6983,"Connect":6984,"MRANGE":6985,"Ġndx":6986,"Rows":6987,"ĠappendPQExpBuffer":6988,"Ġ35843207":6989,"Ġrlvlno":6990,"ĠmyConverterArray":6991,"136840":6992,"ĠREFERENCE":6993,"ĠADJUST":6994,"warn":6995,"ĠCURLE":6996,"Ġmemmove":6997,"Ġextradata":6998,"ĠRETV":6999,"CONTINUE":7000,"SYSTEMRANGE":7001,"ĠAcquire":7002,"642136840":7003,"cmpeq":7004,"Ġ','":7005,"Ġunblended":7006,"ĠprevToUnicodeStatus":7007,"0754569407959":7008,"RequestCreator":7009,"4527380754569407959":7010,"ĠOptGroupByteToCPName":7011,"Ġ35843207642136840":7012,"Ġ3584320764213684062":7013,"Ac":7014,"Can":7015,"Det":7016,"EV":7017,"Ident":7018,"Pic":7019,"Tra":7020,"WID":7021,"YP":7022,"efs":7023,"huff":7024,"jmp":7025,"rw":7026,"son":7027,"scheme":7028,"usec":7029,"vity":7030,"xc":7031,"ĠOF":7032,"Ġall":7033,"ĠINFO":7034,"Ġswap":7035,"rev":7036,"replace":7037,"recogn":7038,"Ġci":7039,"Ġcy":7040,"Ġcct":7041,"Ġcancel":7042,"des":7043,"decay":7044,"sep":7045,"Ġfg":7046,"ĠfSkip":7047,"Ġmon":7048,"Ġrecp":7049,"Ġremain":7050,"Ġrevs":7051,"alts":7052,"coefs":7053,"Ġare":7054,"Ġafter":7055,"Ġdh":7056,"Ġgra":7057,"Ġua":7058,"Ġunc":7059,"Ġhoriz":7060,"Ġhaystack":7061,"LLONG":7062,"tend":7063,"eturn":7064,"ids":7065,"icient":7066,"Ġrparams":7067,"DEVICE":7068,"inger":7069,"four":7070,"Ġinclude":7071,"REL":7072,"ĠFLI":7073,"strlen":7074,"Ġskey":7075,"Ġ45":7076,"Ġ49":7077,"ĠCC":7078,"FIR":7079,"FILEN":7080,"bugs":7081,"apr":7082,"Ġcursor":7083,"Ġexport":7084,"SEG":7085,"ily":7086,"ility":7087,"conference":7088,"UNSUPPORTED":7089,"ĠSe":7090,"putc":7091,"Ġchoice":7092,"ĠPUT":7093,"ĠPHP":7094,"shoot":7095,"ĠGS":7096,"redundancyEncoding":7097,"Ġkeys":7098,"funcs":7099,"ĠDUL":7100,"EXCH":7101,"Ġwhat":7102,"amily":7103,"compression":7104,"composition":7105,"PTYP":7106,"ĠEXCP":7107,"Ġunicode":7108,"Ġatttype":7109,"Ġinterface":7110,"Ġtemplate":7111,"UniFrom":7112,"Ġmedia":7113,"0434":7114,"ĠGetUniFrom":7115,"THRESH":7116,"Ġdisplay":7117,"Excluded":7118,"Ġalert":7119,"lute":7120,"ĠFFSW":7121,"Ġtopright":7122,"172":7123,"ĠparseArray":7124,"ĠparsePos":7125,"Ġoptim":7126,"based":7127,"2917":7128,"IPv":7129,"ĠJAS":7130,"379":7131,"3750":7132,"Ġsegmentation":7133,"TestExtension":7134,"ĠInvalid":7135,"Security":7136,"xffffffffffff":7137,"transmit":7138,"good":7139,"golomb":7140,"parent":7141,"IMAP":7142,"ContentSettings":7143,"Multipoint":7144,"SYM":7145,"MAPTYP":7146,"dump":7147,"Ġdecim":7148,"ĠSBR":7149,"Ġmerge":7150,"ClientNormal":7151,"CERTIFICATE":7152,"GenericError":7153,"Maximum":7154,"MapFactory":7155,"Ġpnstr":7156,"utilus":7157,"Ġiscan":7158,"keysalts":7159,"Only":7160,"COEF":7161,"Ġheap":7162,"Ġsections":7163,"Screen":7164,"LOCALE":7165,"Ġisalpha":7166,"ggreg":7167,"Ġmany":7168,"Slave":7169,"cleanse":7170,"Ġbinkb":7171,"sistent":7172,"pollute":7173,"SETTINGS":7174,"LMBCSOpenWorker":7175,"PermissionRequestCreator":7176,"Ġadjustment":7177,"AVPACK":7178,"Ġvertical":7179,"ĠPRIu":7180,"ARESTMV":7181,"DIGEST":7182,"Ġspeed":7183,"unicationMode":7184,"ĠHEADER":7185,"Ġkqueueop":7186,"ĠHostContentSettings":7187,"ĠxmlNodePtr":7188,"Ġctrlsrc":7189,"requency":7190,"ĠfSkipArg":7191,"Ġhorizontal":7192,"ĠGetUniFromLMBCSUni":7193,"ĠFFSWAP":7194,"ClientNormalMessage":7195,"ĠHostContentSettingsMapFactory":7196,"83":7197,"Av":7198,"AFF":7199,"DSA":7200,"Empty":7201,"Hints":7202,"IES":7203,"My":7204,"Null":7205,"Po":7206,"Pr":7207,"SOF":7208,"bar":7209,"bpp":7210,"binding":7211,"fvalue":7212,"ha":7213,"lb":7214,"lsize":7215,"mobile":7216,"pid":7217,"pbuf":7218,"rDef":7219,"small":7220,"zone":7221,"ĠNONE":7222,"Ġite":7223,"Ġsupervised":7224,"Ġcflags":7225,"Ġclean":7226,"atML":7227,"ĠpUniChar":7228,"Ġblimit":7229,"around":7230,"Ġfnc":7231,"ĠfIs":7232,"Ġfloor":7233,"Ġreph":7234,"alBand":7235,"core":7236,"site":7237,"Ġapi":7238,"Ġagain":7239,"ASH":7240,"tric":7241,"Ġdrop":7242,"Ġvst":7243,"Ġvir":7244,"Ġuuid":7245,"LLOW":7246,"Ġnwritten":7247,"Ġnargs":7248,"Ġrint":7249,"CTL":7250,"ionDescriptions":7251,"expect":7252,"ĠAC":7253,"ĠoffsetNum":7254,"OPE":7255,"Ġkq":7256,"igno":7257,"ALF":7258,"ĠCFB":7259,"MBD":7260,"0004":7261,"Ġprops":7262,"builtin":7263,"Ġqpix":7264,"Ġqcow":7265,"locks":7266,"Ġexpect":7267,"ĠSpectr":7268,"ĠSLICE":7269,"mmr":7270,"Coll":7271,"LACE":7272,"ĠGL":7273,"unch":7274,"222":7275,"ĠmyOffsets":7276,"ĠptrValue":7277,"Ġlinebuflen":7278,"CHINE":7279,"ayout":7280,"ĠLBO":7281,"Replication":7282,"Ġ67":7283,"EXIT":7284,"Ġ51":7285,"Ġ56":7286,"Ġ5400":7287,"BITCHUNK":7288,"trace":7289,"Ġdiameter":7290,"amaged":7291,"Ġprim":7292,"Ġshlsize":7293,"VERBO":7294,"Chat":7295,"Ġusername":7296,"ENTER":7297,"Ġdatname":7298,"ĠGetActive":7299,"phead":7300,"statuse":7301,"double":7302,"OWN":7303,"multiple":7304,"ĠreadCommand":7305,"ĠindexToWrite":7306,"ĠWebContents":7307,"Ġworkaround":7308,"Ġlookup":7309,"ĠMAXBITCHUNK":7310,"Frames":7311,"Setting":7312,"USH":7313,"UNICOMPAT":7314,"Ġevsignal":7315,"542917":7316,"CONSTTIME":7317,"Ġsystick":7318,"vision":7319,"\\\\\\\"%":7320,"Ġquantizer":7321,"Ġquerytree":7322,"Ġnodes":7323,"Ġrva":7324,"oundText":7325,"manager":7326,"Ġchildren":7327,"ThrDef":7328,"--\\\\":7329,"ieve":7330,"predictors":7331,"Ġpadlen":7332,"libc":7333,"TSC":7334,"Ġarf":7335,"Short":7336,"TOPRIGHT":7337,"CompoundText":7338,"RejectReason":7339,"Ġclusters":7340,"Ġclosesocket":7341,"PERF":7342,"463750":7343,"random":7344,"ĠAddress":7345,"twopass":7346,"COLORS":7347,"ĠSBHUFFRD":7348,"metadata":7349,"========":7350,"TEMPL":7351,"armcap":7352,"Ġisalnum":7353,"Fullscreen":7354,"rfbProcessClientNormalMessage":7355,"Ġgefx":7356,"Ġdownenc":7357,"SECURE":7358,"484463750":7359,"ATTRIB":7360,"ENCRYPTION":7361,"ĠQuantum":7362,"LOOKUP":7363,"cpmquerystatuse":7364,"Ġdecimation":7365,"alBandReplication":7366,"ĠSpectralBandReplication":7367,"ĠLBOT":7368,"Ġ5400542917":7369,"VERBOSE":7370,"UNICOMPATZERO":7371,"cpmquerystatusex":7372,"Ġ5400542917484463750":7373,"234":7374,"800":7375,"BS":7376,"Bcp":7377,"DM":7378,"DTLS":7379,"ELS":7380,"GRAM":7381,"HIST":7382,"LZ":7383,"Malloc":7384,"MIS":7385,"Out":7386,"PAL":7387,"Point":7388,"PrintPreview":7389,"SIG":7390,"SENS":7391,"TCHECK":7392,"Voice":7393,"crop":7394,"dh":7395,"eed":7396,"erent":7397,"finit":7398,"gest":7399,"hi":7400,"hs":7401,"iP":7402,"mar":7403,"oUnicode":7404,"tc":7405,"Ġ`":7406,"reo":7407,"repair":7408,"Ġcdir":7409,"std":7410,"atal":7411,"lel":7412,"Ġpname":7413,"Ġbi":7414,"Ġbut":7415,"Ġ189":7416,"Ġfetch":7417,"ĠmChunk":7418,"Ġreason":7419,"allel":7420,"uring":7421,"orig":7422,"anmar":7423,"Ġhad":7424,"etFilter":7425,"Ġnlm":7426,"Ġconstval":7427,"Ġrptr":7428,"Ġlang":7429,"CTYPE":7430,"Ġcost":7431,"ONT":7432,"expiration":7433,"SSECTOR":7434,"Ġbus":7435,"\\\\\\\\":7436,"ĠED":7437,"ĠFailed":7438,"ĠCl":7439,"ĠClient":7440,"ĠHint":7441,"MBs":7442,"Ġymax":7443,"ĠTO":7444,"ĠTemplate":7445,"CSU":7446,"Ġchanges":7447,"ĠPH":7448,"Comb":7449,"Ġiscnt":7450,"Ġframewith":7451,"ĠGT":7452,"CharMarker":7453,"COW":7454,"Ġpicomp":7455,"lengths":7456,"Ġnumresult":7457,"Ġyymsg":7458,"CHRO":7459,"pool":7460,"ĠDATA":7461,"CONFIR":7462,"Ġ55":7463,"trail":7464,"counter":7465,"Ġthan":7466,"outch":7467,"subsize":7468,"Ġextract":7469,"Ġdoapr":7470,"Storage":7471,"Ġcollection":7472,"ĠRMD":7473,"predA":7474,"predC":7475,"classes":7476,"Ġquarter":7477,"Ġcontain":7478,"ĠVIR":7479,"initialize":7480,"8080":7481,"ldap":7482,"Ġpoc":7483,"ĠXTS":7484,"Ġsetting":7485,"506":7486,"5038":7487,"uffix":7488,"ĠWav":7489,"176":7490,"VIR":7491,"ĠrfbSend":7492,"Ġevt":7493,"FORCE":7494,"285":7495,"2834":7496,"Ġcontenttype":7497,"ppp":7498,"ĠINSTALL":7499,"Additional":7500,"ISTIC":7501,"ĠpixetFilter":7502,"PIXELS":7503,"ĠlocalClone":7504,"Ġmodifier":7505,"dual":7506,"rangecheck":7507,"sendreal":7508,"Ġdebuglog":7509,"fragments":7510,"Ġnonrd":7511,"Doc":7512,"Compression":7513,"Ġslurmctld":7514,"TextChat":7515,"ĠPQget":7516,"cessed":7517,"ĠNEARESTMV":7518,"what":7519,"soon":7520,"processor":7521,"algorithm":7522,"correct":7523,"finished":7524,"Ġmismatch":7525,"Ġfeatures":7526,"ENCODER":7527,"ĠbcpKey":7528,"halftone":7529,"separate":7530,"Ġactual":7531,"WordStarts":7532,"atible":7533,"Ġusbi":7534,"ĠmissingCharMarker":7535,"GLOBAL":7536,"ermination":7537,"dimensions":7538,"SOFT":7539,"Ġiscntrl":7540,"Ġframewithpts":7541,"CONFIRMATION":7542,"sendrealsoon":7543,"*.":7544,"112":7545,"810":7546,"819":7547,"AI":7548,"DCT":7549,"EMU":7550,"FN":7551,"IAX":7552,"JOR":7553,"MONE":7554,"MFB":7555,"MCBPC":7556,"Ns":7557,"Rules":7558,"TAP":7559,"TCP":7560,"TARY":7561,"VT":7562,"WB":7563,"WR":7564,"XY":7565,"XML":7566,"ZVAL":7567,"ak":7568,"gpg":7569,"iot":7570,"kvno":7571,"lkt":7572,"pct":7573,"press":7574,"qdelta":7575,"rv":7576,"rsl":7577,"sct":7578,"ĠEND":7579,"ĠLEFT":7580,"Ġident":7581,"Ġsscanf":7582,"rep":7583,"stmt":7584,"depen":7585,"selec":7586,"Ġpdo":7587,"ĠpTag":7588,"rosk":7589,"Ġmaster":7590,"Ġmove":7591,"Ġestrndup":7592,"Ġrequired":7593,"cope":7594,"Ġaction":7595,"Ġgue":7596,"pear":7597,"Ġvb":7598,"Ġupack":7599,"Ġhlen":7600,"locale":7601,"eth":7602,"Ġrx":7603,"mprintf":7604,"chain":7605,"ĠALT":7606,"324":7607,"Ġkw":7608,"ĠFi":7609,"Ġskb":7610,"Ġyou":7611,"Ġqmat":7612,"apply":7613,"ĠToken":7614,"Ġdatalen":7615,"ĠMK":7616,"ĠMGS":7617,"ĠMDB":7618,"Ġchanged":7619,"ĠPG":7620,"ĠPMV":7621,"Ġopj":7622,"Ġvals":7623,"rowvariant":7624,"ĠGif":7625,"Ġkeyword":7626,"Ġnumrows":7627,"221":7628,"plus":7629,"ĠIB":7630,"Ġyystate":7631,"allno":7632,"Ġlines":7633,"Ġ500":7634,"Ġbsl":7635,"Ġmember":7636,"Unable":7637,"Ġ70":7638,"SETUP":7639,"Ġnewp":7640,"saved":7641,"aneous":7642,"Ġtrr":7643,"CMD":7644,"Ġmaximum":7645,"answer":7646,"perms":7647,"2624":7648,"00000":7649,"ISAM":7650,"Extent":7651,"psnr":7652,"prece":7653,"cblk":7654,"ĠQCOW":7655,"ĠWAVPACK":7656,"Ġspf":7657,"660":7658,"rolling":7659,"sby":7660,"TOO":7661,"nodes":7662,"nodeid":7663,"ĠattrBuf":7664,"576":7665,"Ġtwo":7666,"Ġcfrm":7667,"ATTERN":7668,"flate":7669,"binary":7670,"975":7671,"Ġoverlap":7672,"ĠSetImage":7673,"SAMPLE":7674,"ĠLIBF":7675,"MACHINE":7676,"MAJOR":7677,"BitCount":7678,"Ġtlcb":7679,"Ġtlsext":7680,"Ġarith":7681,"PictureMemory":7682,"ĠIsOrigin":7683,"496":7684,"Ġttf":7685,"rfbSet":7686,"ĠRef":7687,"MOT":7688,"ĠNEWMV":7689,"UserInput":7690,"DefaultS":7691,"Ġcalled":7692,"ĠfullPath":7693,"Ġrtmpt":7694,"sqrt":7695,"remote":7696,"ĠxmlStrEqual":7697,"ĠDISSECTOR":7698,"DecodeContext":7699,"PayloadStream":7700,"forced":7701,"rfbProcessFileTransfer":7702,"variables":7703,"ĠSvcContext":7704,"ĠUCharErrorBufferLength":7705,"ĠHttpHeader":7706,"ĠParseRules":7707,"CustomPicture":7708,"facs":7709,"resilient":7710,"AILQ":7711,"ĠUDVM":7712,"Ġhybrid":7713,"primaries":7714,"UsbDevice":7715,"Ġnautilus":7716,"Ġunderflow":7717,"ĠGCRY":7718,"virtio":7719,"Ġmount":7720,"negotiate":7721,"Determination":7722,"WIDTH":7723,"rwptr":7724,"recognition":7725,"ĠbiBitCount":7726,"ĠWavpack":7727,"MONETARY":7728,"iotap":7729,"roska":7730,"ĠIsOriginSecure":7731,"189":7732,"238":7733,"217":7734,"731":7735,"826":7736,"BC":7737,"BR":7738,"BER":7739,"Ctx":7740,"DH":7741,"Ind":7742,"ICK":7743,"Job":7744,"KVM":7745,"MAGIC":7746,"NL":7747,"Rect":7748,"Sort":7749,"TBIT":7750,"TIMER":7751,"Use":7752,"Upack":7753,"YM":7754,"bj":7755,"dd":7756,"ds":7757,"hp":7758,"iet":7759,"lden":7760,"mery":7761,"rule":7762,"ssi":7763,"sdu":7764,"wo":7765,"zz":7766,"Ġsn":7767,"Ġcsub":7768,"Ġcannot":7769,"standard":7770,"\\\"'":7771,"Ġtz":7772,"inux":7773,"Ġpht":7774,"Ġpatch":7775,"Ġpasses":7776,"routine":7777,"Ġ\\\"&":7778,"Ġ\\\"'":7779,"ASSE":7780,"INC":7781,"Ġgld":7782,"peer":7783,"Ġvid":7784,"losure":7785,"etype":7786,"Ġnc":7787,"idi":7788,"ĠBlock":7789,"mpcpy":7790,"Ġlhash":7791,"Ġdel":7792,"chk":7793,"ceeded":7794,"throw":7795,"ndor":7796,"STRU":7797,"ĠAAC":7798,"Ġstrbuf":7799,"REG":7800,"STRINGL":7801,"Ġcharset":7802,"vendor":7803,"ĠEn":7804,"strong":7805,"Ġunsupported":7806,"STAG":7807,"ĠCIN":7808,"ĠHEX":7809,"iframe":7810,"ĠTD":7811,"ĠTLV":7812,"acks":7813,"640":7814,"ANES":7815,"namespace":7816,"sprintf":7817,"ĠSRP":7818,"ĠSCRIPT":7819,"ĠPACK":7820,"nos":7821,"entication":7822,"LABLE":7823,"LAMBD":7824,"ĠGCM":7825,"ĠGSPL":7826,"CharToQuantum":7827,"Ġgolden":7828,"sktop":7829,"bitRate":7830,"uspend":7831,"collation":7832,"refptr":7833,"book":7834,"VALS":7835,"RACE":7836,"quoted":7837,"ĠDSA":7838,"Ġlead":7839,"CONV":7840,"Ġ69":7841,"Ġ53":7842,"bufs":7843,"Ġwhen":7844,"tables":7845,"ETIME":7846,"Ġprincipal":7847,"ĠDECODE":7848,"annex":7849,"Unsupported":7850,"DataApplication":7851,"Ġ72":7852,"Ġmsys":7853,"Ġbitoffs":7854,"ĠOUT":7855,"vmc":7856,"permissions":7857,"ĠVirt":7858,"ĠVersion":7859,"decoded":7860,"timebase":7861,"Ġdisabled":7862,"Properties":7863,"197":7864,"ĠREQ":7865,"Ġslcf":7866,"NOTICE":7867,"Setup":7868,"Ġhasmatch":7869,"DUSize":7870,"continue":7871,"Ġupper":7872,"SPECIFI":7873,"mount":7874,"descriptor":7875,"gomery":7876,"STATIC":7877,"MENTAL":7878,"Ġpcnt":7879,"NECTION":7880,"Ġbefore":7881,"IMAGE":7882,"Multiple":7883,"ĠPICK":7884,"ĠSBNUM":7885,"4967":7886,"DBCS":7887,"Ġfpinf":7888,"LogicalChannelNumber":7889,"Double":7890,"OfProfile":7891,"ĠRTMP":7892,"AtIndex":7893,"Ġxstrcat":7894,"ĠDPB":7895,"montgomery":7896,"rectoryIterator":7897,"ById":7898,"AVAI":7899,"Ġescaped":7900,"ĠReadBlobLong":7901,"ĠBINKB":7902,"Ġyyssp":7903,"EXTRACT":7904,"Ġarguments":7905,"patches":7906,"ClockRecovery":7907,"echo":7908,"retrieve":7909,"FLOAT":7910,"cpmsetbinding":7911,"Visible":7912,"ĠScaleCharToQuantum":7913,"alloca":7914,"PRIVATE":7915,"global":7916,"sonant":7917,"ignore":7918,"ĠGTK":7919,"ĠALTREF":7920,"ĠPACKET":7921,"LAMBDA":7922,"ĠGSPLANES":7923,"DataApplicationCapability":7924,"Ġmsyslog":7925,"AVAILABLE":7926,".'":7927,"829":7928,"</":7929,"AK":7930,"DOWN":7931,"High":7932,"KPASS":7933,"Line":7934,"Mod":7935,"Qual":7936,"QPEL":7937,"Simple":7938,"Temp":7939,"UConverter":7940,"Using":7941,"USED":7942,"afe":7943,"ause":7944,"card":7945,"dg":7946,"dm":7947,"gine":7948,"ging":7949,"gob":7950,"kf":7951,"mr":7952,"normal":7953,"ral":7954,"sf":7955,"vprintf":7956,"vdp":7957,"wbio":7958,"Ġimemory":7959,"recp":7960,"Ġtkey":7961,"Ġtctxt":7962,"inance":7963,"ĠpFrom":7964,"Ġpletoh":7965,"Ġ100000000":7966,"Ġ\\\":":7967,"Ġemprintf":7968,"Ġrel":7969,"Ġrece":7970,"Ġregs":7971,"Ġoc":7972,"itter":7973,"trunk":7974,"Ġdot":7975,"Ġdca":7976,"Ġgfi":7977,"Ġgrid":7978,"Ġgrr":7979,"Ġnchecks":7980,"ENCTYPE":7981,"ENVIR":7982,"Ġrlc":7983,"Ġlrc":7984,"Ġlanding":7985,"Ġlarge":7986,"Ġdeblock":7987,"Ġdelay":7988,"Ġdelegate":7989,"too":7990,"tore":7991,"ases":7992,"ONMENTAL":7993,"expert":7994,"extend":7995,"ssless":7996,"ĠAsn":7997,"Ġincre":7998,"Ġwww":7999,"Ġwckey":8000,"vbp":8001,"ĠkPro":8002,"ĠEnt":8003,"ĠFN":8004,"ĠFS":8005,"ĠForm":8006,"245380":8007,"ĠCon":8008,"MBER":8009,"props":8010,"Ġsizehints":8011,"Ġqos":8012,"ĠTIME":8013,"ĠTAILQ":8014,"framed":8015,"ATIVE":8016,"encoder":8017,"opacity":8018,"opulate":8019,"ĠMSP":8020,"122":8021,"ĠSH":8022,"raise":8023,"Ġ'}\\":8024,"Ġ'.'":8025,"ĠPL":8026,"ĠPrintPreview":8027,"ĠPopulate":8028,"Ġvalidate":8029,"untime":8030,"ĠbyteOne":8031,"Ġislower":8032,"ARMV":8033,"memdup":8034,"128364":8035,"filt":8036,"Ġpirlvl":8037,"Ġerrcode":8038,"parallel":8039,"PHA":8040,"collate":8041,"columns":8042,"ĠmyByte":8043,"RAW":8044,"ĠcurrentState":8045,"Ġmvs":8046,"Ġsecurity":8047,"ĠLP":8048,"Ġgbat":8049,"odd":8050,"FLUSH":8051,"Ġ78":8052,"Ġ707":8053,"ĠRSA":8054,"missing":8055,"2250":8056,"ĠOpen":8057,"101":8058,"106":8059,"clut":8060,"syser":8061,"Ġtransport":8062,"persistent":8063,"KEYS":8064,"ĠVp":8065,"ĠVAR":8066,"ĠVGA":8067,"initial":8068,"ĠNum":8069,"ĠNot":8070,"ĠGetRender":8071,"phys":8072,"119":8073,"11172":8074,"Expr":8075,"ĠxmlMalloc":8076,"1369":8077,"LITY":8078,"14364":8079,"PRINTF":8080,"ModeParameters":8081,"ufficient":8082,"ĠMBFL":8083,"Ġdirs":8084,"ĠWTAP":8085,"handshake":8086,"RTIT":8087,"systemIterator":8088,"66048":8089,"irq":8090,"Ġoptlen":8091,"Ġvars":8092,"8759":8093,"ĠrfbRead":8094,"Parser":8095,"Ġitname":8096,"Search":8097,"statuscode":8098,"Ġbtvdp":8099,"CPU":8100,"move":8101,"ĠitemLength":8102,"Ġallocated":8103,"Ġnodeset":8104,"ĠARG":8105,"AndC":8106,"Android":8107,"Ġsblen":8108,"Ġauthctxt":8109,"ness":8110,"Diag":8111,"Ġipv":8112,"Ġimaged":8113,"FEATURE":8114,"ecx":8115,"Ġcallid":8116,"POINTER":8117,"anspose":8118,"orizer":8119,"Ġmdct":8120,"Ġbacksize":8121,"Resume":8122,"ĠHTTPREQ":8123,"ĠCPUState":8124,"Ġhistory":8125,"Ġnonce":8126,"ĠavailData":8127,"WITH":8128,"ĠTestBrowser":8129,"ĠCURLFORM":8130,"connections":8131,"821094":8132,"central":8133,"ĠCreateProtocolHandler":8134,"Attribute":8135,"Ġprogressive":8136,"LAYERS":8137,"fraction":8138,"ĠFindVisible":8139,"306245380":8140,"Ġllbuff":8141,"RESULT":8142,"ĠMockUsbDevice":8143,"ductName":8144,"ĠEXTENSION":8145,"ĠSvcInternal":8146,"ĠZEROMV":8147,"ĠSUBPEL":8148,"MultiplexEntryReject":8149,"safefree":8150,"mgr":8151,"Ġignore":8152,"04700":8153,"ĠVariable":8154,"ĠInstallCRX":8155,"NotificationById":8156,"Ġimport":8157,"steam":8158,"Ġcomponents":8159,"wbxml":8160,"Ġmagic":8161,"Ġmcdparams":8162,"Ġmatroska":8163,"Delay":8164,"rollup":8165,"ĠxmlLinkPtr":8166,"Accept":8167,"EVENT":8168,"FILENAME":8169,"xffffffffffffffff":8170,"ggregSet":8171,"Ġprimary":8172,"SENSING":8173,"ĠEDGE":8174,"ĠTemplateURL":8175,"5038844":8176,"ĠPQgetvalue":8177,"gpgme":8178,"pressure":8179,"precedes":8180,"uspendResume":8181,"KPASSWD":8182,"ĠpFromUArgs":8183,"ENVIRONMENTAL":8184,"ĠkProductName":8185,"ĠMSPACK":8186,"128364821094":8187,"1436404700":8188,"ĠrfbReadExact":8189,"Ġimagedata":8190,"ĠTestBrowserCloseManager":8191,"ĠFindVisibleNotificationById":8192,"3062453801436404700":8193,"1283648210945038844":8194,",\\\"":8195,"-%":8196,"233":8197,"2048":8198,"316":8199,"455":8200,"80000000":8201,"917":8202,"933":8203,"<%":8204,"='":8205,"ACH":8206,"BL":8207,"GTYPE":8208,"Group":8209,"GOB":8210,"JPEG":8211,"LD":8212,"Leg":8213,"LBMP":8214,"MCO":8215,"Mutex":8216,"Port":8217,"Sample":8218,"Up":8219,"View":8220,"WE":8221,"Xvp":8222,"_\\\"":8223,"bv":8224,"cdb":8225,"eer":8226,"eap":8227,"gq":8228,"gex":8229,"ird":8230,"iator":8231,"iated":8232,"ihs":8233,"ln":8234,"lcl":8235,"nitude":8236,"pace":8237,"pmod":8238,"sme":8239,"support":8240,"tle":8241,"uLength":8242,"xD":8243,"zh":8244,"ĠNAME":8245,"Ġirow":8246,"Ġsw":8247,"Ġschro":8248,"Ġsalt":8249,"Ġsbio":8250,"Ġslot":8251,"Ġsuffix":8252,"ergy":8253,"dency":8254,"desktop":8255,"lev":8256,"leave":8257,"Ġtd":8258,"Ġtsig":8259,"information":8260,"include":8261,"Ġpem":8262,"Ġpol":8263,"ĠpTo":8264,"Ġbfi":8265,"Ġmmem":8266,"Ġmpa":8267,"Ġmark":8268,"Ġmrk":8269,"Ġeos":8270,"cookie":8271,"cookies":8272,"Ġarea":8273,"true":8274,"Ġdv":8275,"Ġdname":8276,"Ġdsa":8277,"Ġvstem":8278,"Ġnbits":8279,"NUMBER":8280,"idc":8281,"idump":8282,"Ġconvert":8283,"Ġrle":8284,"Ġrvalue":8285,"Ġ<%":8286,"inel":8287,"Ġlinux":8288,"Ġreturnrate":8289,"toUnicode":8290,"pipe":8291,"above":8292,"umts":8293,"ĠUC":8294,"Ġunable":8295,"Ġunpack":8296,"169":8297,"Ġ47":8298,"ablespace":8299,"Ġyq":8300,"ĠbufIdx":8301,"LODE":8302,"ATTEMP":8303,"ipped":8304,"ĠSize":8305,"Ġchat":8306,"shutdown":8307,"Ġrefcount":8308,"COLL":8309,"EDGE":8310,"Ġkeyseg":8311,"defined":8312,"ĠtoBase":8313,"Ġmyanmar":8314,"ĠIP":8315,"quote":8316,"ĠList":8317,"Ġ61":8318,"riter":8319,"Ġ59":8320,"indices":8321,"Ġbswap":8322,"Ġsav":8323,"Ġnewbuf":8324,"Ġnewtvb":8325,"Ġzs":8326,"388":8327,"ĠOid":8328,"Ġenergy":8329,"Ġbestsme":8330,"perbit":8331,"0438":8332,"ĠVoice":8333,"starting":8334,"Ġcompressed":8335,"2059":8336,"Expect":8337,"Ġalgorithm":8338,"1475":8339,"modify":8340,"ACCESS":8341,"ancellable":8342,"Ġinitiator":8343,"Delegate":8344,"ĠQEMU":8345,"ĠWindow":8346,"skippable":8347,"ĠpduLength":8348,"dba":8349,"398":8350,"2966048":8351,"SPEC":8352,"3579":8353,"ChannelClose":8354,"407":8355,"display":8356,"discovery":8357,"Ġupcoming":8358,"PREFIX":8359,"Ġcause":8360,"ĠUConverterDataHZ":8361,"IMUM":8362,"ĠSEP":8363,"segmentation":8364,"Ġauthentic":8365,"Ġsockaddr":8366,"seqno":8367,"Ġtlsc":8368,"ForOne":8369,"ebx":8370,"PARENT":8371,"Ġ271369":8372,"5204":8373,"Append":8374,"ĠPRINT":8375,"ĠPRId":8376,"Domain":8377,"ProcessHost":8378,"ĠassertEqualString":8379,"letohs":8380,"Description":8381,"boosted":8382,"Ġruncode":8383,"ĠSyncData":8384,"SCAL":8385,"ĠSTP":8386,"Interval":8387,"casecmp":8388,"orrupt":8389,"ĠIMGTYPE":8390,"Initiated":8391,"SettingsForOne":8392,"magnitude":8393,"7231":8394,"Ġsuccess":8395,"characteristic":8396,"PendingCustodianApproval":8397,"slurmctld":8398,"SupervisedUser":8399,"grade":8400,"Ġtcmpt":8401,"Ġtcmpts":8402,"Instance":8403,"soft":8404,"pubkey":8405,"ĠAutocompleteMatchType":8406,"Ġsentinel":8407,"Ġlyrno":8408,"intenanceLoop":8409,"PermissionsTestExtension":8410,"4294967":8411,"INDICATION":8412,"nostic":8413,"Ġscaling":8414,"ingerprint":8415,"SlaveDetermination":8416,"Ġitems":8417,"ĠGLRO":8418,"oUnicodeWithOffsets":8419,"StorageVariant":8420,"UserInputCapability":8421,"STRUCT":8422,"ĠEncoding":8423,"ĠREQUEST":8424,"syserror":8425,"ĠGetRenderProcessHost":8426,"87592966048":8427,"centralized":8428,"ĠEXTENSIONS":8429,"LBMPDM":8430,"ĠpToUArgs":8431,"ĠVoiceData":8432,"Ġ27136987592966048":8433,"SettingsForOneType":8434,"Ġ2713698759296604855":8435,".%":8436,"077":8437,"422":8438,"404":8439,"577":8440,"AggregSet":8441,"Bub":8442,"Ent":8443,"FD":8444,"HI":8445,"ILITY":8446,"Literal":8447,"MAP":8448,"Neg":8449,"Oid":8450,"Pref":8451,"Session":8452,"SNR":8453,"Store":8454,"TP":8455,"Tri":8456,"UDP":8457,"VMC":8458,"Wh":8459,"api":8460,"aded":8461,"dx":8462,"fun":8463,"gst":8464,"gate":8465,"hcursor":8466,"mjpeg":8467,"mni":8468,"nsit":8469,"ocs":8470,"pdf":8471,"qos":8472,"squ":8473,"vl":8474,"vices":8475,"voice":8476,"ws":8477,"worker":8478,"ĠDIRECTORYSTRING":8479,"Ġsrec":8480,"rej":8481,"regs":8482,"reassemb":8483,"sensit":8484,"Ġtsc":8485,"ony":8486,"onState":8487,"Ġpf":8488,"Ġpstate":8489,"Ġblen":8490,"Ġborder":8491,"mean":8492,"ctivate":8493,"Ġfa":8494,"Ġfb":8495,"Ġfur":8496,"Ġfinished":8497,"Ġ\\\"\\\\\\\"":8498,"Ġred":8499,"Ġrerr":8500,"Ġoob":8501,"trate":8502,"Ġdn":8503,"Ġdp":8504,"Ġdr":8505,"Ġgrow":8506,"Ġgfs":8507,"anded":8508,"STD":8509,"Ġvq":8510,"Ġvma":8511,"Ġhstart":8512,"Ġhstep":8513,"advance":8514,"losing":8515,"tenv":8516,"setting":8517,"Ġrsa":8518,"Ġlp":8519,"Ġlfi":8520,"Ġcomplete":8521,"topic":8522,"changes":8523,"codepoint":8524,"reach":8525,"Ġstrerror":8526,"ĠALLO":8527,"Ġinc":8528,"Ġstructure":8529,"3256":8530,"REJ":8531,"strsize":8532,"ALERT":8533,"ALPHA":8534,"ĠUCM":8535,"ĠUFILE":8536,"167":8537,"ĠCAT":8538,"datavalue":8539,"dataWithAL":8540,"protected":8541,"Ġproxy":8542,"Ġydst":8543,"apIdentifier":8544,"apphead":8545,"Ġcurl":8546,"ĠSA":8547,"ĠSer":8548,"ĠSupervised":8549,"ĠSHA":8550,"Ġuintptr":8551,"Ġ'{\\":8552,"rowset":8553,"noinline":8554,"member":8555,"LAIN":8556,"unmatched":8557,"Ġfix":8558,"ertificate":8559,"2208":8560,"ĠmyMem":8561,"ally":8562,"ĠLPC":8563,"ĠLuma":8564,"ĠtargetByte":8565,"errorCorrection":8566,"EXPECT":8567,"ready":8568,"Ġcodepoint":8569,"Ġtmpstr":8570,"InfoVector":8571,"Ġthr":8572,"Ġdocument":8573,"ĠRem":8574,"Ġ/=":8575,"Changed":8576,"Ġassocs":8577,"ĠuserInfo":8578,"5599":8579,"minus":8580,"validate":8581,"ĠNSS":8582,"Ġcompr":8583,"FRAMENUM":8584,"intern":8585,"intervals":8586,"801475":8587,"3456":8588,"ĠxmlGenericError":8589,"Ġ92":8590,"Ġ96":8591,"sitInfoVector":8592,"multipoint":8593,"Ġreader":8594,"Ġstdin":8595,"tsapIdentifier":8596,"ĠMBs":8597,"oose":8598,"159":8599,"Ġopts":8600,"Framed":8601,"ĠrfbStat":8602,"UNIX":8603,"5449":8604,"partial":8605,"videoWithAL":8606,"://\\\"":8607,"storeu":8608,"cii":8609,"Ġnbd":8610,"transform":8611,"guintvar":8612,"OSITION":8613,"vertical":8614,"Ġsignal":8615,"AndTransmit":8616,"Thread":8617,"NEON":8618,"Multilink":8619,"ExtensionInstall":8620,"mysql":8621,"audioWithAL":8622,"0100":8623,"IsValid":8624,"ĠENABLE":8625,"Ġlibfvalue":8626,"POINT":8627,"ABILITY":8628,"certification":8629,"ĠIsPendingCustodianApproval":8630,"Ġchunkalloc":8631,"Ġbackbytes":8632,"6065":8633,"ught":8634,"INITIAL":8635,"RejectCause":8636,"Ġwrapper":8637,"13818":8638,"NodeSet":8639,"Ready":8640,"Ġdenoise":8641,"Ġwithout":8642,"Interle":8643,"Mapping":8644,"ĠNEARMV":8645,"who":8646,"Ġpnlen":8647,"identity":8648,"Ġ\\\"</":8649,"ĠFilesystemIterator":8650,"conflict":8651,"DefaultValue":8652,"ĠPROTOBUF":8653,"Ġ60801475":8654,"little":8655,"ĠContent":8656,"ĠquoteP":8657,"receiveAndTransmit":8658,"erredEncoding":8659,"ĠbcpType":8660,"Disable":8661,"Ġsuf":8662,"3062624":8663,"ĠxmlListPtr":8664,"Ġnmvsad":8665,"ĠMockPermissionRequestCreator":8666,"Ġinfilesize":8667,"helper":8668,"ĠResource":8669,"33710":8670,"MACRO":8671,"qcifMPI":8672,"crowseek":8673,"REMOVE":8674,"MALLOCED":8675,"Ġvbranch":8676,"total":8677,"80211":8678,"Ġreassemble":8679,"15633710":8680,"BETTER":8681,"Google":8682,"RecordMessage":8683,"fourChannels":8684,"THRESHOLD":8685,"ĠGetActiveWebContents":8686,"ĠClone":8687,"AdditionalPictureMemory":8688,"ĠRTMPT":8689,"Ġ7072059":8690,"Ġslotid":8691,"Ġchatnet":8692,"orruptImage":8693,"4294967295":8694,"ĠEncodingMask":8695,"Bubble":8696,"mnibox":8697,"Ġgrown":8698,"Ġhstartcol":8699,"ĠSupervisedUser":8700,"ĠtargetByteUnit":8701,"EXPECTED":8702,"ĠrfbStatRecordMessage":8703,"544915633710":8704,"Ġ608014753062624":8705,"Ġ7072059544915633710":8706,"Ġ6080147530626246065":8707,"''":8708,"011":8709,"187":8710,"224":8711,"250":8712,"284":8713,"289":8714,"639":8715,"799":8716,"7117":8717,"::":8718,"BI":8719,"BAT":8720,"BLOB":8721,"CY":8722,"DL":8723,"Den":8724,"Eval":8725,"EMPTY":8726,"NOR":8727,"Op":8728,"Off":8729,"OIN":8730,"PMB":8731,"Part":8732,"PMODE":8733,"PATTERN":8734,"REN":8735,"Raw":8736,"Te":8737,"TABLE":8738,"UD":8739,"aver":8740,"aac":8741,"blimit":8742,"csub":8743,"ful":8744,"family":8745,"iation":8746,"mart":8747,"other":8748,"pression":8749,"rsa":8750,"sval":8751,"sEngagementHistogram":8752,"suspendResume":8753,"wn":8754,"xfe":8755,"zy":8756,"zbin":8757,"ĠNU":8758,"ĠDE":8759,"ĠSTAT":8760,"ĠOPTION":8761,"ĠORDER":8762,"Ġimap":8763,"Ġsx":8764,"Ġsprintf":8765,"Ġsmart":8766,"reply":8767,"ermission":8768,"stit":8769,"decoder":8770,"detected":8771,"lent":8772,"inch":8773,"inner":8774,"Ġpgs":8775,"ĠmChannel":8776,"Ġemail":8777,"Ġrealloc":8778,"allow":8779,"coord":8780,"trunc":8781,"Ġdid":8782,"INSTA":8783,"Ġgeneric":8784,"Ġumd":8785,"Ġhh":8786,"Ġhstem":8787,"adv":8788,"tered":8789,"ĠBu":8790,"Ġrconv":8791,"Ġxmax":8792,"cene":8793,"DEL":8794,"STRVAL":8795,"argv":8796,"ĠAF":8797,"ĠAuth":8798,"Ġinbuf":8799,"vblock":8800,"ĠFormat":8801,"ĠFPMB":8802,"ĠUPACK":8803,"Ġ42":8804,"Ġ43":8805,"ĠCA":8806,"ĠCAF":8807,"ĠCorruptImage":8808,"LEMENT":8809,"Ġqtype":8810,"appear":8811,"ĠTOKEN":8812,"Ġcurve":8813,"Ġ%.":8814,"SEEK":8815,"Ġerase":8816,"consu":8817,"consumed":8818,"ĠMT":8819,"ĠMAP":8820,"ĠMPC":8821,"Ġchoose":8822,"ĠPCP":8823,"ĠPassword":8824,"ĠPermission":8825,"ARGE":8826,"memcmp":8827,"undecoded":8828,"Ġnumbytes":8829,"Ġmyself":8830,"INET":8831,"RADI":8832,"IDENT":8833,"Ġseen":8834,"ĠLength":8835,"ĠLBER":8836,"ĠDownload":8837,"Reserved":8838,"anging":8839,"strings":8840,"ĠtmpTarget":8841,"Ġdialog":8842,"ĠsubArgs":8843,"associ":8844,"Ġinfop":8845,"subframe":8846,"DataType":8847,"SRP":8848,"Ġnewexpr":8849,"Ġattty":8850,"Changes":8851,"Ġresults":8852,"predB":8853,"Ġprestream":8854,"Ġtransaction":8855,"Ġmempcpy":8856,"perm":8857,"ĠVal":8858,"PROFILE":8859,"ĠNull":8860,"interlaced":8861,"806":8862,"ISCII":8863,"filters":8864,"340":8865,"34555":8866,"pret":8867,"varint":8868,"Ġfromlen":8869,"energy":8870,"checkheaders":8871,"ILDE":8872,"ighb":8873,"AGAIN":8874,"Debug":8875,"779":8876,"ĠWHERE":8877,"Ġlossless":8878,"ĠISCII":8879,"35197":8880,"696":8881,"Enable":8882,"Encoder":8883,"Ġminimum":8884,"Ġupstream":8885,"party":8886,"Testing":8887,"TestSupervised":8888,"Ġcached":8889,"ttempt":8890,"\\\\\\\"\\\\":8891,"blur":8892,"forw":8893,"CRC":8894,"Ġrsz":8895,"download":8896,"dcert":8897,"Ġsignvalue":8898,"PROXY":8899,"notset":8900,"Ġpasswd":8901,"queues":8902,"mallocz":8903,"25131":8904,"RequestId":8905,"pgp":8906,"SYMB":8907,"LoadMetrics":8908,"Syncing":8909,"SyncChanges":8910,"DBG":8911,"Ġremove":8912,"Algorithm":8913,"98192":8914,"adjust":8915,"Ġstore":8916,"ĠPROFILE":8917,"ThisSource":8918,"Ġinitialize":8919,"Matches":8920,"Compare":8921,"Ġsecondary":8922,"MultiplexedStream":8923,"Ġrealpath":8924,"while":8925,"ĠtlvFlags":8926,"multiplexParameters":8927,"progressive":8928,"ĠappendAt":8929,"ĠMakeUnique":8930,"TerminalBroadcast":8931,"MISS":8932,"Ġlafe":8933,"FILTERS":8934,"ĠxmlHashEntry":8935,"pattern":8936,"Signature":8937,"ĠSyncChangeList":8938,"vider":8939,"Ġcalculate":8940,"THREADS":8941,"invf":8942,"NonStandardParameter":8943,"Ġdtor":8944,"wrapper":8945,"ĠExtensionServiceTestSupervised":8946,"ENCODINGMASK":8947,"since":8948,"ĠkHttpEngagementHistogram":8949,"ĠkHttpsEngagementHistogram":8950,"ĠProcessSyncChanges":8951,"84635197":8952,"Ġcseqmet":8953,"ĠAMRWB":8954,"ĠSplinePoint":8955,"704933":8956,"Trail":8957,"ĠparseArraySimple":8958,"MyLogicalChannel":8959,"ĠMKTAG":8960,"4960438":8961,"ATTEMPTS":8962,"quotes":8963,"Expectations":8964,"ĠNUV":8965,"ĠCorruptImageError":8966,"ĠtmpTargetBuffer":8967,"Ġatttypmod":8968,"ĠNullS":8969,"3455584635197":8970,"EncoderConfig":8971,"2513198192":8972,"TerminalBroadcaster":8973,"7049333455584635197":8974,"49604382513198192":8975,"4960438251319819237":8976,",%":8977,"124":8978,"150":8979,"239":8980,"237":8981,"218":8982,"50001":8983,"766":8984,"797":8985,"DX":8986,"Enum":8987,"Fac":8988,"GNU":8989,"Hint":8990,"Inc":8991,"MIC":8992,"MMR":8993,"Option":8994,"PKEY":8995,"Position":8996,"QOS":8997,"Rc":8998,"RATE":8999,"SV":9000,"Sup":9001,"TILDE":9002,"UMP":9003,"VED":9004,"WA":9005,"WCS":9006,"Wrong":9007,"XC":9008,"Zero":9009,"ached":9010,"blo":9011,"cv":9012,"candidate":9013,"cannot":9014,"dk":9015,"dkey":9016,"dts":9017,"eph":9018,"final":9019,"hour":9020,"iht":9021,"issing":9022,"np":9023,"nname":9024,"nsec":9025,"ring":9026,"rlvls":9027,"tsc":9028,"was":9029,"want":9030,"xdigit":9031,"ĠOP":9032,"ĠDISPLAYTEXT":9033,"Ġind":9034,"Ġicc":9035,"Ġivec":9036,"Ġsect":9037,"Ġsof":9038,"Ġsbuf":9039,"Ġscene":9040,"reject":9041,"retent":9042,"Ġcms":9043,"Ġcgroup":9044,"Ġcorrection":9045,"Ġcancellable":9046,"stype":9047,"delimiter":9048,"leph":9049,"leading":9050,"Ġtbuf":9051,"Ġpval":9052,"Ġpntoh":9053,"Ġpstype":9054,"roken":9055,"Ġfdi":9056,"Ġminfo":9057,"Ġ\\\"#":9058,"Ġ\\\"'%":9059,"Ġecb":9060,"Ġelems":9061,"Ġresize":9062,"allen":9063,"Ġoct":9064,"Ġosp":9065,"Ġofb":9066,"Ġown":9067,"Ġdownload":9068,"Ġdamaged":9069,"Ġgsize":9070,"STIC":9071,"Ġvdev":9072,"ĠvType":9073,"adow":9074,"lour":9075,"tection":9076,"texp":9077,"Ġnr":9078,"ERAL":9079,"ĠBT":9080,"ĠBAD":9081,"mpdm":9082,"ascii":9083,"Ġlfe":9084,"Ġdetect":9085,"CTF":9086,"Ġreturned":9087,"tobj":9088,"Ġxch":9089,"ced":9090,"Ġstub":9091,"Ġstrength":9092,"Ġstreams":9093,"ingInformation":9094,"ndle":9095,"pict":9096,"Ġinner":9097,"Ġinflate":9098,"additional":9099,"Ġwpc":9100,"ĠEP":9101,"verbose":9102,"stract":9103,"ĠUSER":9104,"Ġmbn":9105,"ĠClose":9106,"ĠCERT":9107,"ĠCeph":9108,"datafile":9109,"MBAFF":9110,"0087":9111,"Ġysize":9112,"Ġyear":9113,"Ġqmode":9114,"Ġqps":9115,"application":9116,"ĠTWO":9117,"ĠTCTF":9118,"Ġ355":9119,"Ġexec":9120,"Ġextern":9121,"consonant":9122,"Ġprotobuf":9123,"ĠSim":9124,"ĠSCSU":9125,"DECODE":9126,"direction":9127,"ĠPCN":9128,"ĠPLAIN":9129,"shadow":9130,"Ġvalign":9131,"imin":9132,"Cookie":9133,"Ġisgraph":9134,"nough":9135,"ĠGOLD":9136,"DIFF":9137,"ofb":9138,"unct":9139,"Ġstereo":9140,"five":9141,"Ġtotrate":9142,"ĠgetTrail":9143,"ĠmyData":9144,"ĠIARD":9145,"Ġyyerror":9146,"Ġlineno":9147,"ĠLM":9148,"Req":9149,"Ġ54":9150,"Ġ57":9151,"ĠtmpState":9152,"Ġthird":9153,"outlen":9154,"Ġbsse":9155,"Ġsubpacket":9156,"assoc":9157,"Ġsrcport":9158,"Ġshould":9159,"Ġsafe":9160,"compare":9161,"DataFor":9162,"DataProtocolCapability":9163,"Ġzz":9164,"ĠOmnibox":9165,"Ġplace":9166,"Ġassu":9167,"ĠuserKey":9168,"Ġmaxband":9169,"5517":9170,"Ġcontains":9171,"Ġjobid":9172,"0468":9173,"ĠVer":9174,"566":9175,"11506":9176,"Ġposix":9177,"Ġtimelib":9178,"130087":9179,"50731":9180,"Too":9181,"checksum":9182,"Ġfields":9183,"Ġreading":9184,"cbpy":9185,"ightexp":9186,"ĠQMODE":9187,"7729":9188,"widthexp":9189,"Ġlookahead":9190,"herit":9191,"35130087":9192,"Param":9193,"dissect":9194,"True":9195,"ĠZVAL":9196,"Ġtotdist":9197,"COMPLETE":9198,"SHARE":9199,"278":9200,"Second":9201,"ĠuseDynamicWindow":9202,"\\\\\\\":":9203,"Ġhttpreq":9204,"cpmfetch":9205,"UCharDBCS":9206,"Ġsigned":9207,"Ġmatchfreq":9208,"pau":9209,"ĠSetBoolean":9210,"Ġevents":9211,"Ġmessages":9212,"ĠSEARCH":9213,"SYMS":9214,"Services":9215,"Ġmodified":9216,"tokens":9217,"TargetUCharDBCS":9218,"Ġipaddr":9219,"ecc":9220,"tempts":9221,"Ġkrberror":9222,"openpgp":9223,"orizing":9224,"mcvs":9225,"Ġpacked":9226,"srv":9227,"FORMATION":9228,"Ġsshkey":9229,"TextExtent":9230,"13819":9231,"MBCST":9232,"GenericCapability":9233,"76576":9234,"ENSURE":9235,"multiplexEntry":9236,"legal":9237,"DISPOSITION":9238,"soa":9239,"TerminalLabel":9240,"algname":9241,"presentation":9242,"cpmgetrowset":9243,"Ġcharacteristic":9244,"ĠexecuteQuery":9245,"objcore":9246,"ĠAutocompleteResult":9247,"ĠTransport":9248,"Initial":9249,"clusters":9250,"Ġ372834":9251,"ĠInitialize":9252,"ĠInitServices":9253,"Ġwritten":9254,"INDOW":9255,"mailto":9256,"niffer":9257,"resources":9258,"TRANSF":9259,"Ġscopes":9260,"horizontal":9261,"Ġvirtio":9262,"ĠRSb":9263,"hook":9264,"separator":9265,"NBD":9266,"superframe":9267,"Ġstrtok":9268,"granted":9269,"Ġsinpi":9270,"ĠExtensionServiceSync":9271,"BOUNDS":9272,"unique":9273,"64335130087":9274,"11050731":9275,"87711506":9276,"airToken":9277,"ĠfastSingle":9278,"apshot":9279,"ĠMaxTextExtent":9280,"Ġalinelen":9281,"AGNOSTIC":9282,"CRowSeek":9283,"ĠcurrentDeltaToUnicode":9284,"hausted":9285,"ĠmChunkSize":9286,"cblks":9287,"SPECIFIED":9288,"ĠSBNUMSYMS":9289,"afeClone":9290,"Ġincrease":9291,"ĠEntity":9292,"ĠFSb":9293,"MultiplexEntryRejectionDescriptions":9294,"Ġauthenticated":9295,"ĠSyncDataList":9296,"220887711506":9297,"ĠRemove":9298,"helpers":9299,"71170468":9300,"ĠTOKENEXTRA":9301,"LoadMetricsBrowserTest":9302,"MISSING":9303,"blood":9304,"retention":9305,"allenge":9306,"Ġ355220887711506":9307,"ĠSCSUData":9308,"ĠGOLDEN":9309,"ightexpn":9310,"widthexpn":9311,"cpmfetchvalue":9312,"cpmgetrowsetnotify":9313,"Ġ37283411050731":9314,"TRANSFER":9315,"AGNOSTICINFO":9316,"7117046864335130087":9317,"Ġ355220887711506893":9318,"Ġ3728341105073176576":9319,"'s":9320,"))":9321,"016":9322,"10000":9323,"816":9324,"910":9325,"BP":9326,"Bad":9327,"BABILITY":9328,"Callback":9329,"CGROUP":9330,"CANDI":9331,"Dig":9332,"FY":9333,"FIT":9334,"FAST":9335,"Fetch":9336,"IMPLEMENT":9337,"Jo":9338,"KIND":9339,"Language":9340,"LANG":9341,"Layout":9342,"LARGE":9343,"Mock":9344,"Master":9345,"OI":9346,"Pho":9347,"Sp":9348,"Unt":9349,"VDP":9350,"]\\\\":9351,"after":9352,"bp":9353,"dsa":9354,"fr":9355,"fx":9356,"flist":9357,"gl":9358,"gue":9359,"gop":9360,"gnutls":9361,"hq":9362,"hor":9363,"lab":9364,"psprintf":9365,"rnd":9366,"rules":9367,"slot":9368,"tar":9369,"yze":9370,"year":9371,"Ġsmp":9372,"required":9373,"repeat":9374,"Ġ*;\\":9375,"erived":9376,"station":9377,"stime":9378,"ater":9379,"attempts":9380,"sess":9381,"Ġter":9382,"Ġtts":9383,"Ġtgq":9384,"inqu":9385,"Ġ0777":9386,"Ġbin":9387,"Ġbqp":9388,"aring":9389,"ropp":9390,"Ġftl":9391,"Ġmjpeg":9392,"Ġ\\\"*\\\"":9393,"Ġeq":9394,"Ġenough":9395,"Ġreloc":9396,"Ġotr":9397,"Ġobuf":9398,"Ġogg":9399,"tran":9400,"Ġdash":9401,"Ġdpb":9402,"INSERT":9403,"origin":9404,"Ġga":9405,"Ġgob":9406,"STIMER":9407,"Ġudp":9408,"adaptive":9409,"eto":9410,"Ġconv":9411,"ERVER":9412,"lence":9413,"icu":9414,"Ġrqp":9415,"inement":9416,"Ġlst":9417,"Ġlanguage":9418,"Ġdend":9419,"Ġcoef":9420,"changing":9421,"Ġxmin":9422,"codebook":9423,"aseStorageVariant":9424,"DEPT":9425,"three":9426,"fol":9427,"excluded":9428,"ĠALLOW":9429,"Ġstrptr":9430,"Ġstrcpy":9431,"Ġwait":9432,"Ġwrk":9433,"2407":9434,"2490":9435,"ĠkExcluded":9436,"ĠFor":9437,"strib":9438,"struction":9439,"ĠUDP":9440,"ĠUSB":9441,"ĠURI":9442,"txt":9443,"txsize":9444,"ell":9445,"Ġproperty":9446,"Ġ820":9447,"Ġ846":9448,"Ġexist":9449,"LOOP":9450,"converter":9451,"opp":9452,"ĠMe":9453,"ĠMerge":9454,"MBCSFrom":9455,"12100":9456,"ERRNO":9457,"ĠSG":9458,"ĠSort":9459,"ĠSYS":9460,"DECL":9461,"Ġchr":9462,"Ġchpw":9463,"imb":9464,"Ġisdefault":9465,"note":9466,"ĠGType":9467,"Ġendian":9468,"unciation":9469,"ROID":9470,"boxed":9471,"Ġmvcost":9472,"mplement":9473,"ĠLXC":9474,"ĠDCM":9475,"ADB":9476,"CEIL":9477,"bytecount":9478,"Ġlastseq":9479,"FFF":9480,"Ġthat":9481,"Ġthiss":9482,"annunciation":9483,"newable":9484,"Ġ79":9485,"DATES":9486,"Ġnewpic":9487,"loading":9488,"iving":9489,"EGOT":9490,"Ġzpad":9491,"ByteContext":9492,"sym":9493,"Capabilities":9494,"TROPY":9495,"LIFE":9496,"Ġmean":9497,"0400":9498,"0448":9499,"ĠVDP":9500,"ĠVLC":9501,"ĠGetByteContext":9502,"phan":9503,"Proxy":9504,"ISDIR":9505,"Ġ'\\\\''":9506,"1969":9507,"1954":9508,"Ġ97":9509,"ToUTF":9510,"140":9511,"1458":9512,"Ġapps":9513,"ĠFFALIGN":9514,"EXTEND":9515,"NOTIFY":9516,"ĠWIN":9517,"ĠWORK":9518,"vents":9519,"1709":9520,"Ġcommit":9521,"Ġpictures":9522,"ĠMAXIMUM":9523,"SetPresent":9524,"Ġvarc":9525,"ANDROID":9526,"ĠrfbFileTransfer":9527,"307":9528,"ĠJob":9529,"CURITY":9530,"Ġsymbol":9531,"OLC":9532,"Ġcaught":9533,"joint":9534,"EXPLODE":9535,"msrs":9536,"ĠNOTIFICATION":9537,"Ġ1300":9538,"descr":9539,"descriptions":9540,"Ġcontents":9541,"curr":9542,"xffffff":9543,"MSC":9544,"Filename":9545,"Ġextcap":9546,"PROBABILITY":9547,"CAUSE":9548,"NESS":9549,"specified":9550,"ramerate":9551,"Metric":9552,"Ġsqlbuf":9553,"segments":9554,"colorspace":9555,"controller":9556,"CBR":9557,"CBaseStorageVariant":9558,"Dictionary":9559,"licit":9560,"Encodings":9561,"441954":9562,"Ġneighb":9563,"883256":9564,"CORNER":9565,"ishMagick":9566,"segdata":9567,"Ġchunkwant":9568,"ternate":9569,"Allocation":9570,"digPho":9571,"606":9572,"esis":9573,"ĠPART":9574,"Ġcblkno":9575,"Matching":9576,"PGP":9577,"Ġsshpkt":9578,"Ġpayloadlen":9579,"ĠTestParse":9580,"castsi":9581,"NodeId":9582,"vectors":9583,"regulator":9584,"bounds":9585,"AudioMode":9586,"UpdateRequest":9587,"ĠTESTBUFSIZE":9588,"ĠMakeSyncChange":9589,"Pixels":9590,"Ġlocked":9591,"ĠEVCON":9592,"mediaChannel":9593,"ULLONG":9594,"OTAP":9595,"ĠFRAMEFLAGS":9596,"ĠDOUBLE":9597,"Ġcreated":9598,"SignIn":9599,"Packetization":9600,"CLOSED":9601,"ĠLoad":9602,"ĠLoading":9603,"Ġcookiehost":9604,"DYN":9605,"Ġhton":9606,"SYSMACRO":9607,"xffffffffL":9608,"Ġbignum":9609,"TransportAddress":9610,"guard":9611,"Ġignored":9612,"NotificationObserver":9613,"ĠStartHttp":9614,"Background":9615,"RECV":9616,"Installed":9617,"Schemes":9618,"lambda":9619,"--------":9620,"755883256":9621,"swab":9622,"Aspect":9623,"ĠTransfer":9624,"ĠDestroyImageList":9625,"MEDIA":9626,"ĠRelinqu":9627,"calculate":9628,"ConnectIn":9629,"379441954":9630,"ĠInvalidOid":9631,"ATTRIBUTE":9632,"ĠPHAR":9633,"Ġcontainer":9634,"sctp":9635,"ethod":9636,"Ġmembers":9637,"82612100":9638,"SortAggregSet":9639,"Ġncand":9640,"64058":9641,"45582612100":9642,"Legal":9643,"COLLATION":9644,"Trial":9645,"ĠrfbStatRecordMessageRc":9646,"ĠSTATISTIC":9647,"Ġdidsend":9648,"consume":9649,"RADIOTAP":9650,"ĠValue":9651,"Suppression":9652,"ĠPCNET":9653,"CANDIDATES":9654,"FITNESS":9655,"VDPAU":9656,"lenceSuppression":9657,"DEPTH":9658,"24070448":9659,"ĠkExcludedSchemes":9660,"MBCSFromUChar":9661,"Ġchpwfail":9662,"EGOTI":9663,"Ġzpadlen":9664,"ishMagickMemory":9665,"digPhoto":9666,"regulatory":9667,"ĠMakeSyncChangeList":9668,"SYSMACROS":9669,"755883256379441954":9670,"ĠRelinquishMagickMemory":9671,"4558261210024070448":9672,"ĠrfbStatRecordMessageRcvd":9673,"177":9674,"33157":9675,"627":9676,"707":9677,":*":9678,":\\\\":9679,"AE":9680,"Alter":9681,"BIN":9682,"BPP":9683,"BIND":9684,"CRestriction":9685,"Err":9686,"EDED":9687,"FR":9688,"Fragment":9689,"Frequency":9690,"Gra":9691,"GType":9692,"IMP":9693,"Min":9694,"MSTI":9695,"ND":9696,"NING":9697,"PSW":9698,"QMFB":9699,"RSA":9700,"Runtime":9701,"SplFile":9702,"Try":9703,"Via":9704,"WOR":9705,"WAY":9706,"XX":9707,"You":9708,"bps":9709,"cle":9710,"cms":9711,"cstring":9712,"dname":9713,"dash":9714,"ee":9715,"equal":9716,"fg":9717,"fro":9718,"fed":9719,"ftp":9720,"gobject":9721,"href":9722,"ibr":9723,"kick":9724,"lum":9725,"law":9726,"large":9727,"nx":9728,"native":9729,"oct":9730,"ru":9731,"rat":9732,"sq":9733,"sv":9734,"sEngagement":9735,"tctf":9736,"uccess":9737,"vtype":9738,"wind":9739,"will":9740,"xslt":9741,"Ġur":9742,"ĠPE":9743,"Ġath":9744,"Ġicount":9745,"rease":9746,"registered":9747,"relev":9748,"renewable":9749,"Ġcv":9750,"Ġcch":9751,"ntax":9752,"errc":9753,"style":9754,"strength":9755,"atof":9756,"leted":9757,"inct":9758,"inspe":9759,"ĠpValue":9760,"Ġpblocks":9761,"Ġpci":9762,"Ġba":9763,"arn":9764,"Ġifdebug":9765,"Ġ150":9766,"Ġfr":9767,"Ġfoffset":9768,"Ġfol":9769,"Ġfinish":9770,"Ġfatal":9771,"Ġfingerprint":9772,"Ġmlu":9773,"Ġmpc":9774,"Ġmutable":9775,"Ġ\\\"/\\\"":9776,"Ġevb":9777,"Ġeof":9778,"Ġrev":9779,"Ġrele":9780,"Ġrecode":9781,"Ġreuse":9782,"Ġrequi":9783,"alic":9784,"always":9785,"corr":9786,"Ġour":9787,"Ġanal":9788,"Ġderived":9789,"ors":9790,"ority":9791,"Ġgreen":9792,"pet":9793,"peek":9794,"Ġvol":9795,"Ġuq":9796,"Ġusize":9797,"Ġuvc":9798,"Ġusing":9799,"Ġhit":9800,"Ġhead":9801,"lost":9802,"Ġnbytes":9803,"Ġconsumed":9804,"ERS":9805,"ĠBo":9806,"ĠBFP":9807,"Ġrsi":9808,"uting":9809,"aspect":9810,"Ġldata":9811,"chapt":9812,"Ġstar":9813,"thr":9814,"exception":9815,"ĠAT":9816,"ĠAss":9817,"ĠAttempt":9818,"ĠinBytes":9819,"Ġinformation":9820,"abstract":9821,"umd":9822,"umeric":9823,"Ġww":9824,"Ġweb":9825,"Ġwrong":9826,"Ġwtap":9827,"RETRY":9828,"vbr":9829,"Ġkk":9830,"ĠEIGH":9831,"ĠEMPTY":9832,"Ġhfs":9833,"ALWAY":9834,"ĠUP":9835,"Ġmbtype":9836,"Ġmbskip":9837,"Ġunmatch":9838,"Ġunhex":9839,"Ġuncompressed":9840,"1617":9841,"Ġ400":9842,"ĠHALF":9843,"ĠHeap":9844,"dataType":9845,"MBV":9846,"MBLE":9847,"ising":9848,"Ġ369":9849,"istics":9850,"6428":9851,"framesrc":9852,"Ġ82":9853,"Ġexpi":9854,"ATIAL":9855,"ĠAVS":9856,"opaque":9857,"ĠMOS":9858,"ĠMAKE":9859,"ĠMMCO":9860,"ĠSV":9861,"ĠSCHRO":9862,"dialog":9863,"ĠPDU":9864,"ĠPeer":9865,"Ġisf":9866,"ĠisLegal":9867,"Consumed":9868,"unloadSharedData":9869,"Ġendl":9870,"mvmask":9871,"mbs":9872,"mbed":9873,"mbolic":9874,"logical":9875,"logging":9876,"pars":9877,"coll":9878,"2226":9879,"refl":9880,"CHAN":9881,"URI":9882,"acl":9883,"ADJUST":9884,"CONNECTION":9885,"CEL":9886,"amped":9887,"Ġclabel":9888,"resolution":9889,"gsniffer":9890,"allocate":9891,"Ġ76":9892,"Ġscseq":9893,"Ġnewval":9894,"Ġnewcount":9895,"ContextPtr":9896,"ĠRK":9897,"ĠReturn":9898,"Ġmszh":9899,"EGORY":9900,"Arq":9901,"225668":9902,"Ġfflush":9903,"3888":9904,"ĠOCSP":9905,"ULength":9906,"Ġplain":9907,"Ġplugin":9908,"TTAP":9909,"Ġdestport":9910,"Ġdestroy":9911,"csv":9912,"FORE":9913,"LimitError":9914,"ENTS":9915,"oke":9916,"Ġmeth":9917,"ĠUConverterName":9918,"26390":9919,"045":9920,"ĠNon":9921,"ĠNode":9922,"ĠNET":9923,"Ġasf":9924,"Ġcompress":9925,"Ġdiscard":9926,"statp":9927,"115599":9928,"202":9929,"341094":9930,"Ġalimb":9931,"CapabilityTableEntryNumber":9932,"ĠXWD":9933,"keep":9934,"ĠencBuf":9935,"Ġ90":9936,"ToULength":9937,"prediction":9938,"Ġapply":9939,"Ġfieldmv":9940,"slash":9941,"multicast":9942,"ModeElement":9943,"SPATIAL":9944,"AGGT":9945,"IVLEN":9946,"ĠYYSTACK":9947,"fec":9948,"dbname":9949,"SUM":9950,"GRPSIZE":9951,"Loc":9952,"875":9953,"8704":9954,"ASTER":9955,"ĠJOB":9956,"disk":9957,"ientific":9958,"ĠZMBV":9959,"ĠoldToULength":9960,"286":9961,"fdpart":9962,"PRECI":9963,"Ġattrib":9964,"Ġactiveh":9965,"Ġactivev":9966,"faction":9967,"Ġallocator":9968,"Ġpartial":9969,"6754":9970,"INTERFACE":9971,"ĠtoULimit":9972,"AndClose":9973,"ĠlocaleName":9974,"Ġobjects":9975,"651458":9976,"hostset":9977,"ĠSECTION":9978,"Ġsigaction":9979,"caplen":9980,"utes":9981,"Ġors":9982,"need":9983,"Ġropt":9984,"Keyword":9985,"ĠENTROPY":9986,"messages":9987,"COLGRPSIZE":9988,"fpq":9989,"calibr":9990,"Ġmacinf":9991,"4514":9992,"ĠNOTE":9993,"Ġnsv":9994,"Ġbacking":9995,"ĠExtensionListEntry":9996,"ĠExtensionSpecifics":9997,"Alloc":9998,"ohci":9999,"Ġnullfrac":10000,"PerFrame":10001,"TablePtr":10002,"utton":10003,"Ġavailable":10004,"Ġblue":10005,"Ġ2335":10006,"selected":10007,"FreeFunc":10008,"DISABLED":10009,"SCOPE":10010,"regex":10011,"Ġbwl":10012,"Ġseqno":10013,"MemoryAllocation":10014,"month":10015,"aligned":10016,"TerminalID":10017,"Ġdupp":10018,"chedule":10019,"Ġhalfpq":10020,"ĠINTERFACE":10021,"FileTransferMessage":10022,"Ġpubkeys":10023,"BGR":10024,"ĠFIRSTSOCKET":10025,"functions":10026,"Ġkadmin":10027,"ĠNavigateIn":10028,"Ġqtmd":10029,"airOne":10030,"Ġperiod":10031,"ĠbcpValue":10032,"Ġnegative":10033,"Descriptors":10034,"achine":10035,"Refinement":10036,"Downloads":10037,"ĠDIAGNOSTICINFO":10038,"IfReady":10039,"hanced":10040,"Ġhwaddr":10041,"10661709":10042,"Authentic":10043,"Ġllstr":10044,"Ġsymcode":10045,"Ġsymbuf":10046,"PageLoadMetricsBrowserTest":10047,"denoising":10048,"HAVE":10049,"Ġisprint":10050,"AMETER":10051,"ĠRSL":10052,"Ġdigit":10053,"Ġdigest":10054,"Ġmemmory":10055,"Ġstrtol":10056,"CopyFunc":10057,"StatData":10058,"ACTIVE":10059,"MULTI":10060,"ĠHttpsEngagement":10061,"ĠResolve":10062,"Ġltid":10063,"ĠURLRow":10064,"SequenceNumbers":10065,"Remote":10066,"CommonState":10067,"COMPRESSED":10068,"airTwo":10069,"insufficient":10070,"estimate":10071,"estimated":10072,"Ġsuperblock":10073,"Ġsaslserv":10074,"Ġflipped":10075,"ĠGBoxedFreeFunc":10076,"ĠGBoxedCopyFunc":10077,"0434225668":10078,"Ġoptimize":10079,"Avatar":10080,"Ġkqop":10081,"BcpKey":10082,"PrintPreviewDataFor":10083,"finite":10084,"Ġ1891617":10085,"ĠRMDS":10086,"810341094":10087,"Ġkwargs":10088,"ĠLIBFVALUE":10089,"Ġtlcblkt":10090,"MOTION":10091,"ASSEMBLE":10092,"ĠAACContext":10093,"iframesrc":10094,"OfProfileAtIndex":10095,"ĠPLANE":10096,"ĠVGACommonState":10097,"AndCull":10098,"ĠVariableStatData":10099,"GroupSortAggregSet":10100,"Ġtlscstatp":10101,"SCALE":10102,"ĠResourceLimitError":10103,"NORMAL":10104,"Opacity":10105,"Ġassuan":10106,"ĠVerify":10107,"MBCSToUnicodeWithOffsets":10108,"ĠEntitySpecifics":10109,"follow":10110,"stribution":10111,"Ġ820651458":10112,"ĠSortAndCull":10113,"ĠDCMNET":10114,"phanumeric":10115,"MatchingVoice":10116,"luminance":10117,"rati":10118,"relevant":10119,"inspection":10120,"Ġevbase":10121,"Ġrequires":10122,"Ġuvcbp":10123,"ĠEIGHTTAP":10124,"ALWAYS":10125,"Ġunmatchfreq":10126,"ĠHeapTuple":10127,"Ġ369115599":10128,"ĠMOSQ":10129,"unloadSharedDataIfReady":10130,"ĠUConverterNamePieces":10131,"AGGTTYPE":10132,"calibration":10133,"MemoryAllocationFailed":10134,"106617090004":10135,"ĠHttpsEngagementPageLoadMetricsBrowserTest":10136,"PrintPreviewDataForIndex":10137,"Ġ1891617106617090004":10138,"Ġ8206514580434225668":10139,"Ġ369115599810341094":10140,"20000":10141,"2870":10142,"367":10143,"ADI":10144,"BAND":10145,"CURL":10146,"DGRAM":10147,"FG":10148,"Fast":10149,"GX":10150,"Jitter":10151,"KF":10152,"KRB":10153,"Lead":10154,"LMBCSS":10155,"LMBCSToUnicodeWithOffsets":10156,"MQUANT":10157,"Method":10158,"NCS":10159,"Octet":10160,"PA":10161,"Pad":10162,"Scale":10163,"SIL":10164,"TW":10165,"TMP":10166,"Visual":10167,"VNCS":10168,"bg":10169,"bis":10170,"bot":10171,"bort":10172,"basic":10173,"custodian":10174,"dlen":10175,"dummy":10176,"eq":10177,"fax":10178,"glibc":10179,"hd":10180,"just":10181,"jbig":10182,"merge":10183,"nbio":10184,"pted":10185,"rbio":10186,"salt":10187,"ufa":10188,"vinfo":10189,"wht":10190,"xa":10191,"yes":10192,"ĠNUM":10193,"ĠRA":10194,"ĠOBJ":10195,"Ġic":10196,"Ġsupport":10197,"Ġct":10198,"Ġcrow":10199,"stp":10200,"ats":10201,"segs":10202,"Ġta":10203,"Ġtmv":10204,"Ġtick":10205,"Ġtctf":10206,"ond":10207,"onu":10208,"inu":10209,"inlen":10210,"inject":10211,"Ġpcol":10212,"ĠpFilter":10213,"ĠpPos":10214,"ĠpVar":10215,"ĠpPr":10216,"Ġ[%":10217,"Ġbx":10218,"Ġbcount":10219,"Ġbrd":10220,"Ġbail":10221,"arant":10222,"ctl":10223,"ropy":10224,"rott":10225,"rough":10226,"Ġfallback":10227,"Ġfwd":10228,"Ġfach":10229,"ĠfPad":10230,"Ġmsk":10231,"Ġmoi":10232,"Ġecontext":10233,"Ġerefs":10234,"Ġreport":10235,"Ġreserved":10236,"sired":10237,"Ġaad":10238,"Ġdime":10239,"Ġduring":10240,"orian":10241,"Ġgain":10242,"Ġgpointer":10243,"zenx":10244,"Ġvshift":10245,"Ġvfp":10246,"Ġvisual":10247,"Ġumv":10248,"Ġhuff":10249,"adr":10250,"ĠBDR":10251,"Ġ2000":10252,"Ġri":10253,"Ġrl":10254,"Ġrte":10255,"Ġdemux":10256,"Ġreturndistortion":10257,"chive":10258,"child":10259,"Ġxc":10260,"Ġxan":10261,"Ġxoffset":10262,"Ġxvp":10263,"Ġxvid":10264,"Ġxvinfo":10265,"ONYM":10266,"Ġins":10267,"abort":10268,"Ġstrtab":10269,"Ġbundle":10270,"2413":10271,"ĠEnd":10272,"ĠElf":10273,"ĠFrom":10274,"ALTIME":10275,"Ġunused":10276,"24547":10277,"Ġ404":10278,"ĠCLA":10279,"ĠHas":10280,"0090":10281,"bus":10282,"buted":10283,"Ġqsort":10284,"ĠTCP":10285,"ĠTRACE":10286,"otpl":10287,"649":10288,"Ġ88":10289,"ulti":10290,"ANSP":10291,"InGroupSortAggregSet":10292,"illed":10293,"ĠMy":10294,"ĠMulti":10295,"MBCSIs":10296,"Ġoutbuffer":10297,"UNSPECIFIED":10298,"LMBCSFromUnicode":10299,"LMBCSLocale":10300,"attablespace":10301,"mma":10302,"distri":10303,"directory":10304,"rac":10305,"htonu":10306,"ĠisTargetUCharDBCS":10307,"ARM":10308,"Ġnameserver":10309,"Cond":10310,"Ġrefl":10311,"DIO":10312,"DIVIDE":10313,"unit":10314,"unable":10315,"unpred":10316,"unlikely":10317,"COSE":10318,"cturer":10319,"bitstream":10320,"plugin":10321,"ĠIA":10322,"Ġyyerr":10323,"Ġyychar":10324,"IDDEN":10325,"Ġmvcount":10326,"ĠDCA":10327,"ĠDNS":10328,"bufferf":10329,"Registry":10330,"Reconfiguration":10331,"rith":10332,"Ġ52":10333,"blocking":10334,"Ġtmpstream":10335,"Ġtmpconn":10336,"ĠtmpStatus":10337,"under":10338,"Ġbaseline":10339,"Unexpected":10340,"DataAnd":10341,"Ġscientific":10342,"erral":10343,"BOM":10344,"ErrorFactory":10345,"SERVED":10346,"Ġbitrate":10347,"Ġzrv":10348,"ĠOK":10349,"Ġbufferlist":10350,"317":10351,"synth":10352,"csrc":10353,"LIF":10354,"559":10355,"Ġquoted":10356,"Ġquiet":10357,"Ġmenu":10358,"BOOL":10359,"percent":10360,"period":10361,"040":10362,"ĠNo":10363,"mtu":10364,"ĠGetPrefs":10365,"ĠGetDictionary":10366,"ĠGetMatchingVoice":10367,"Ġstartp":10368,"Ġcompparms":10369,"GENERIC":10370,"ISO":10371,"ĠxmlNew":10372,"ĠxmlDict":10373,"requested":10374,"Ġ91":10375,"multi":10376,"Modes":10377,"ignoring":10378,"Depen":10379,"Decoder":10380,"IVITY":10381,"Ġobserver":10382,"ĠWrap":10383,"Ġloco":10384,"URLRow":10385,"dbstmt":10386,"15726":10387,"396":10388,"399":10389,"IPS":10390,"695":10391,"Encode":10392,"limits":10393,"Ġevsel":10394,"375":10395,"Ġupx":10396,"matexport":10397,"Ġaccum":10398,"ĠKVM":10399,"ĠTRANSP":10400,"ĠfmtConsumed":10401,"Select":10402,"://*.":10403,"0280":10404,"Ġpktbuf":10405,"rawInfo":10406,"NumberFormat":10407,"GetBool":10408,"18893":10409,"Ġlogcat":10410,"Ġ174":10411,"flash":10412,"NEED":10413,"ĠmySourceIndex":10414,"ĠSetMax":10415,"6532":10416,"6527":10417,"Ġstrncpy":10418,"Ġchecksum":10419,"Idle":10420,"catalog":10421,"Ġpixptr":10422,"ĠtoUDynamicOffsets":10423,"Bits":10424,"Ġtsd":10425,"Ġcertification":10426,"DIRECTION":10427,"Ġtlvblock":10428,"ĠAttribute":10429,"ForTab":10430,"templace":10431,"CHECKSUM":10432,"8826390":10433,"LAYOUT":10434,"Ġglobfree":10435,"Ġpartitioning":10436,"Ġarnr":10437,"xFFC":10438,"segcounts":10439,"izedText":10440,"Ġwordstream":10441,"IFIER":10442,"Ġconfiguration":10443,"StartSyncing":10444,"Ġsending":10445,"45127":10446,"Ġ29305":10447,"Ġfuncform":10448,"Resolution":10449,"Ġstored":10450,"ĠmyTargetIndex":10451,"Ġdicts":10452,"Ġoriginal":10453,"uggest":10454,"Ġdescriptor":10455,"Profiles":10456,"Processor":10457,"MaskToUnicode":10458,"events":10459,"Ġscratchpad":10460,"ĠPQfinish":10461,"Colormap":10462,"ĠSyncErrorFactory":10463,"TERMIN":10464,"Ġdlhandle":10465,"identify":10466,"identities":10467,"ĠDecode":10468,"program":10469,"communicationMode":10470,"Ġloops":10471,"sole":10472,"ĠMakeURLRow":10473,"Ġpubkey":10474,"mediaControl":10475,"Ġccd":10476,"ĠContext":10477,"Timestamp":10478,"DTCH":10479,"AnnexA":10480,"RefCount":10481,"ĠDataProtocolCapability":10482,"ĠFindLMBCSUni":10483,"ĠFindLMBCSLocale":10484,"Ġ4090":10485,"ĠADD":10486,"dictionary":10487,"TRANS":10488,"Progress":10489,"Ġttmbf":10490,"ĠMSG":10491,"DialingInformation":10492,"Slice":10493,"Ġtruncated":10494,"secondaryEncoding":10495,"exists":10496,"NCES":10497,"SFR":10498,"Ġcmpfunc":10499,"impl":10500,"apshots":10501,"incrementRefCount":10502,"System":10503,"Receive":10504,"Received":10505,"Ġpresentation":10506,"315787":10507,"Ġgravity":10508,"ĠGSVALS":10509,"MultipointCapability":10510,"TEMPLATE":10511,"HISTORY":10512,"ĠHintMask":10513,"MultiplePayloadStream":10514,"PRIVATEKEY":10515,"ĠSHOW":10516,"ĠPopulateWordStarts":10517,"ĠNotification":10518,"91713819":10519,"3579218":10520,"5204315787":10521,"InitiatedExtensionInstall":10522,"SupervisedUserInitiatedExtensionInstall":10523,"sensitivity":10524,"whohas":10525,"BIDIR":10526,"BATCH":10527,"Teleph":10528,"INSTANCES":10529,"appearance":10530,"IDENTIFIER":10531,"MultiplexedStreamCapability":10532,"progressiveRefinement":10533,"candidates":10534,"hours":10535,"Ġyearnum":10536,"ĠMergeDataAnd":10537,"3315791713819":10538,"7076754":10539,"Alternative":10540,"frozenx":10541,"Ġrelevance":10542,"Ġwwctx":10543,"642833":10544,"22268826390":10545,"87044514":10546,"Ġ233522268826390":10547,"ĠHeapTupleIsValid":10548,"LeadByte":10549,"LMBCSSafeClone":10550,"SILENT":10551,"ufacturer":10552,"ĠpPriv":10553,"aranteed":10554,"rottle":10555,"ĠfPadChar":10556,"Ġumvplus":10557,"ĠBDRV":10558,"245473579218":10559,"ĠCLAMP":10560,"00905204315787":10561,"otplug":10562,"MBCSIsLeadByte":10563,"distributed":10564,"ĠWrapUnique":10565,"45127642833":10566,"Ġ2930500905204315787":10567,"ĠSyncErrorFactoryMock":10568,"ĠFindLMBCSUniRange":10569,"ĠMergeDataAndStartSyncing":10570,"331579171381918893":10571,"7076754245473579218":10572,"AlternativeCapabilitySet":10573,"8704451445127642833":10574,"Ġ2335222688263906532":10575,"'.\\\\":10576,"**":10577,"087":10578,"132":10579,"287":10580,"310":10581,"304":10582,"469":10583,"5294":10584,"92":10585,"?'":10586,"AAL":10587,"Asn":10588,"Activate":10589,"BAL":10590,"BEG":10591,"Cnt":10592,"Date":10593,"DSC":10594,"FRA":10595,"Float":10596,"HO":10597,"HW":10598,"ICT":10599,"JP":10600,"Last":10601,"Men":10602,"Net":10603,"Oper":10604,"Pri":10605,"QP":10606,"Rel":10607,"RVAL":10608,"Ratio":10609,"SPR":10610,"SDUSize":10611,"Template":10612,"Used":10613,"Ulaw":10614,"WS":10615,"Web":10616,"WANT":10617,"WHERE":10618,"area":10619,"bw":10620,"bid":10621,"cred":10622,"cagg":10623,"ea":10624,"eval":10625,"flict":10626,"gent":10627,"grp":10628,"iases":10629,"jor":10630,"kad":10631,"marg":10632,"mms":10633,"nb":10634,"ough":10635,"pul":10636,"rf":10637,"rle":10638,"rms":10639,"udev":10640,"vout":10641,"xb":10642,"xn":10643,"yuv":10644,"zing":10645,"ĠSTRING":10646,"ĠDIS":10647,"ĠLOCAL":10648,"ĠMESSAGE":10649,"Ġ(\\\"":10650,"Ġiss":10651,"Ġimem":10652,"resize":10653,"rency":10654,"streams":10655,"delegate":10656,"demux":10657,"atLL":10658,"atter":10659,"Ġtail":10660,"Ġtmin":10661,"Ġtcp":10662,"Ġtmax":10663,"Ġpsk":10664,"Ġpbuf":10665,"ĠpData":10666,"ĠpOffset":10667,"Ġpthread":10668,"Ġbroken":10669,"arity":10670,"Ġ135":10671,"route":10672,"Ġftag":10673,"Ġfci":10674,"Ġfexpr":10675,"Ġmidx":10676,"Ġmarker":10677,"Ġmachine":10678,"Ġech":10679,"Ġembed":10680,"Ġemms":10681,"coseconds":10682,"Ġoth":10683,"urbo":10684,"trial":10685,"trusted":10686,"Ġdlen":10687,"Ġdim":10688,"INFORMATION":10689,"Ġgif":10690,"Ġgive":10691,"Ġvno":10692,"Ġvsz":10693,"Ġhgb":10694,"adlen":10695,"adiotap":10696,"lookahead":10697,"Ġnsubs":10698,"Ġnmatches":10699,"sets":10700,"Ġconstr":10701,"Ġradiotap":10702,"Ġllen":10703,"Ġlut":10704,"Ġlvalue":10705,"Ġllist":10706,"toLevel":10707,"chem":10708,"Ġxt":10709,"Ġxid":10710,"Ġxcf":10711,"Ġstorage":10712,"DES":10713,"DELIMIT":10714,"DELETE":10715,"ndn":10716,"foreach":10717,"arger":10718,"Ġelist":10719,"abling":10720,"umotion":10721,"Ġwill":10722,"Ġwarn":10723,"RET":10724,"249":10725,"Ġchars":10726,"Ġkfile":10727,"ĠEOB":10728,"ĠFunction":10729,"ĠFFUNC":10730,"ITERAL":10731,"Ġmbb":10732,"Ġunit":10733,"extcp":10734,"ĠCCM":10735,"txm":10736,"ifdesc":10737,"Ġproperties":10738,"Ġforward":10739,"isdn":10740,"VPOW":10741,"Ġargcount":10742,"ackMessage":10743,"Ġjtbl":10744,"Ġ84":10745,"Ġcurframe":10746,"Ġcurrency":10747,"emit":10748,"ATER":10749,"ANONYM":10750,"SEARCH":10751,"ilIdle":10752,"console":10753,"129":10754,"Ġoutl":10755,"ĠSQ":10756,"ĠSURROGATE":10757,"ĠSQL":10758,"TYPED":10759,"rast":10760,"Ġ'?'":10761,"ĠPT":10762,"ĠPPC":10763,"should":10764,"Ġopproc":10765,"CIST":10766,"Core":10767,"Coer":10768,"Comple":10769,"ARRVAL":10770,"ĠGF":10771,"DIAGNO":10772,"DIVPOW":10773,"ofinished":10774,"unquantize":10775,"unsafe":10776,"redfrm":10777,"Ġkeyno":10778,"fifo":10779,"ityLevel":10780,"Ġresume":10781,"Ġerrfunc":10782,"parsing":10783,"UTDOWN":10784,"Ġnumh":10785,"Ġnumrlvls":10786,"ROMA":10787,"Ġyysize":10788,"board":10789,"IDResponse":10790,"NOCHECK":10791,"NOSPACE":10792,"NOMATCH":10793,"NOESCAPE":10794,"MPatH":10795,"Ġnexttvb":10796,"poly":10797,"ĠLITERAL":10798,"ĠDef":10799,"Resp":10800,"Realloc":10801,"angul":10802,"olc":10803,"btgatt":10804,"Ġclut":10805,"tablelim":10806,"Ġsubsystem":10807,"resolve":10808,"drv":10809,"compatible":10810,"Database":10811,"Ġ73":10812,"Ġ74":10813,"Ġscallno":10814,"Stroke":10815,"Style":10816,"SRTP":10817,"scr":10818,"Ġmsmpeg":10819,"cmpts":10820,"writer":10821,"annelType":10822,"ChairToken":10823,"Ġzcoeff":10824,"Ġinterval":10825,"383":10826,"3864058":10827,"Ġprediction":10828,"syn":10829,"synic":10830,"Ġtranspose":10831,"KEEP":10832,"Ġmaxq":10833,"minimum":10834,"minmx":10835,"minutes":10836,"Ġdatetime":10837,"26207":10838,"KEYFRAME":10839,"sponder":10840,"ĠVi":10841,"ĠNGX":10842,"ava":10843,"Ġrdsp":10844,"statistic":10845,"interpret":10846,"114":10847,"201":10848,"ĠXPR":10849,"Ġsetjmp":10850,"reateQuery":10851,"Ġ'\\\\\\\"'":10852,"requestMode":10853,"requestChannelClose":10854,"Ġ95":10855,"QUAL":10856,"ĠREC":10857,"alsel":10858,"UnicodeSet":10859,"rtpPayload":10860,"AGES":10861,"Defer":10862,"7764":10863,"Ġphys":10864,"Ġspadlen":10865,"HTTPS":10866,"mapped":10867,"Ġprevframe":10868,"393864058":10869,"ĠvarRel":10870,"lcid":10871,"Lock":10872,"USING":10873,"TOC":10874,"Parms":10875,"Ġbom":10876,"595":10877,"Ġupd":10878,"544":10879,"Ġoldval":10880,"Ġtotalsel":10881,"288":10882,"fds":10883,"nodeclass":10884,"ĠKey":10885,"ĠKnown":10886,"Ġcaa":10887,"Ġcaption":10888,"users":10889,"ĠException":10890,"Ġuses":10891,"pixelAspect":10892,"ĠUConverterDataISCII":10893,"CPMC":10894,"fornow":10895,"Ġabsdiff":10896,"Ġtotalp":10897,"Ġrsvp":10898,"Ġshowfilename":10899,"curve":10900,"translate":10901,"cpmrati":10902,"ĠCHROMA":10903,"Ġiterations":10904,"crash":10905,"crank":10906,"Ġpcsp":10907,"CAF":10908,"Ġbecause":10909,"StatusCode":10910,"Ġoverride":10911,"ĠSetFile":10912,"ĠSetContent":10913,"ĠPyDict":10914,"ĠLIBVNCS":10915,"ĠSEEN":10916,"ISTS":10917,"ExtensionService":10918,"Ġutil":10919,"PPER":10920,"Bitmap":10921,"Ġpwtmp":10922,"rangebound":10923,"444":10924,"Ġsrctx":10925,"ĠxsltDocument":10926,"CHECKS":10927,"888":10928,"RateMode":10929,"openLogicalChannel":10930,"edgev":10931,"edgecv":10932,"ĠIsFullscreen":10933,"DBAGGTTYPE":10934,"Ġdonefornow":10935,"ĠATTR":10936,"ĠExtensionSyncData":10937,"Alaw":10938,"Allowed":10939,"Ġ2500":10940,"ĠMINUS":10941,"Apply":10942,"Ġgfu":10943,"Ġrangeredfrm":10944,"ALLOCZ":10945,"Ġnonextcp":10946,"cmdline":10947,"Ġpystate":10948,"OfScreen":10949,"Ġdifferent":10950,"denied":10951,"COOKIES":10952,"Ġepdp":10953,"ĠAddr":10954,"quiet":10955,"Freeze":10956,"maintenanceLoop":10957,"major":10958,"Ġenumerator":10959,"ĠescSeq":10960,"Ġotherfreq":10961,"chunks":10962,"Ġpkblob":10963,"Ġbypl":10964,"Updates":10965,"cifMPI":10966,"...\\\"":10967,"TerminalCapabilitySet":10968,"OrPending":10969,"cga":10970,"received":10971,"terminalCapabilitySet":10972,"95323":10973,"ĠDISABLED":10974,"MISSION":10975,"Ġprogram":10976,"masterSlaveDetermination":10977,"42393864058":10978,"VRC":10979,"VRFY":10980,"ĠquoteWindow":10981,"datat":10982,"datdba":10983,"vbuf":10984,"ĠSplFileInfo":10985,"cyclic":10986,"ĠxmlHashTablePtr":10987,"ĠInitSupervisedUserInitiatedExtensionInstall":10988,"Ġcapabilities":10989,"magic":10990,"ichannelType":10991,"AnnexB":10992,"CallFunction":10993,"lsps":10994,"ĠScoped":10995,"HPatH":10996,"DecodeParms":10997,"ĠcontextCharFromUnicode":10998,"Authorization":10999,"Ġnmvcosts":11000,"rtit":11001,"Ġispunct":11002,"ĠenableCursor":11003,"Progression":11004,"Ġscopeok":11005,"Ġvirtual":11006,"FieldTrial":11007,"okmarkBubble":11008,"cancelMultipoint":11009,"Ġmorebytes":11010,"ĠDatumGetBool":11011,"ĠpreferredEncoding":11012,"STICS":11013,"logicalChannelRate":11014,"ĠRunUnt":11015,"atibility":11016,"Ġelemtype":11017,"Remo":11018,"FLOOR":11019,"borders":11020,"steps":11021,"PropertySet":11022,"Ġcseqnum":11023,"CommunicationMode":11024,"clockRecovery":11025,"Ġcontroller":11026,"CDb":11027,"OrderCnt":11028,"ĠPKT":11029,"GOTO":11030,"EEE":11031,"SYMLINK":11032,"ĠfIsLong":11033,"uncher":11034,"SettingDefaultS":11035,"Ġ`%":11036,"ĠClientHints":11037,"ĠrfbSendFileTransferMessage":11038,"81995323":11039,"ĠPGconn":11040,"ssimg":11041,"ĠOUTPUT":11042,"Module":11043,"QualityLevel":11044,"dgram":11045,"ĠTIMELIB":11046,"cdbprop":11047,"reassembled":11048,"Interleaver":11049,"DisableReason":11050,"Ġnmvsadcosts":11051,"crowseekat":11052,"ĠCloneString":11053,"RENEGOTI":11054,"ĠPasswordStore":11055,"Facs":11056,"Ġdownloads":11057,"ĠCERTIFICATE":11058,"ĠCephX":11059,"fiveChannels":11060,"ĠposixID":11061,"multiplexEntrySend":11062,"ĠExtensionServiceSyncTest":11063,"Spatial":11064,"repeatCount":11065,"threeChannels":11066,"oppfield":11067,"ĠSYSERROR":11068,"RuntimeException":11069,"WORD":11070,"Ġfollow":11071,"ĠBookmarkBubble":11072,"TWICE":11073,"hdlc":11074,"Ġbrdcost":11075,"ĠMultiBuffer":11076,"LIFETIME":11077,"ForTabOrPending":11078,"ĠDecodeAsn":11079,"frozenxid":11080,"529414":11081,"Menu":11082,"Network":11083,"Priority":11084,"margin":11085,"attery":11086,"Ġecho":11087,"Ġembedded":11088,"Ġxcfdata":11089,"ANONYMIZE":11090,"DIAGNOSTICS":11091,"minmxid":11092,"ĠvarRelid":11093,"ĠExceptionInfo":11094,"CPMCreateQuery":11095,"cpmratiofinished":11096,"ĠSetContentSettingDefaultS":11097,"ĠLIBVNCSERVER":11098,"Ġpwtmpbuf":11099,"rangeboundry":11100,"MISSIONS":11101,"4239386405881995323":11102,"ĠInitSupervisedUserInitiatedExtensionInstallFeature":11103,"ĠRunUntilIdle":11104,"ĠSetContentSettingDefaultScope":11105,"019":11106,"377":11107,"434":11108,"536":11109,"5285":11110,"658":11111,"73":11112,"714":11113,"730":11114,"744":11115,"723":11116,"Are":11117,"Access":11118,"Arith":11119,"BIDDEN":11120,"CInGroupSortAggregSet":11121,"DFA":11122,"EM":11123,"EW":11124,"Ed":11125,"Es":11126,"ENUM":11127,"EAR":11128,"GU":11129,"GINE":11130,"GLU":11131,"IRT":11132,"LX":11133,"Ma":11134,"Man":11135,"Missing":11136,"Ne":11137,"NEG":11138,"NEL":11139,"Navigation":11140,"Owner":11141,"PN":11142,"PSK":11143,"PAGES":11144,"QUE":11145,"RR":11146,"Run":11147,"RMD":11148,"SID":11149,"Success":11150,"TA":11151,"Tone":11152,"TAB":11153,"TICK":11154,"UAGE":11155,"bluetooth":11156,"broadcast":11157,"can":11158,"cut":11159,"ccolumn":11160,"cidump":11161,"dqscale":11162,"esp":11163,"eof":11164,"eep":11165,"fmul":11166,"hy":11167,"hint":11168,"lut":11169,"lang":11170,"lpc":11171,"mize":11172,"na":11173,"pal":11174,"pare":11175,"rchr":11176,"sbu":11177,"swap":11178,"tsig":11179,"uBoolean":11180,"ving":11181,"wkey":11182,"wstate":11183,"wks":11184,"xform":11185,"xobject":11186,"ĠInfo":11187,"ĠSTATUS":11188,"Ġntohs":11189,"Ġntohl":11190,"Ġrolling":11191,"Ġsar":11192,"Ġsem":11193,"Ġsen":11194,"Ġsconv":11195,"recovery":11196,"renegotiate":11197,"Ġccs":11198,"Ġccp":11199,"Ġctl":11200,"Ġclosing":11201,"delim":11202,"atile":11203,"Ġtap":11204,"Ġtprintf":11205,"Ġpm":11206,"Ġpset":11207,"Ġpkey":11208,"Ġpreference":11209,"ĠpDecodeParms":11210,"Ġbind":11211,"Ġbinf":11212,"Ġfread":11213,"Ġfvalue":11214,"ĠfBundle":11215,"Ġmk":11216,"Ġmce":11217,"Ġmpy":11218,"Ġmsc":11219,"Ġmagick":11220,"Ġesp":11221,"Ġresi":11222,"Ġrestrict":11223,"Ġrenegotiate":11224,"alive":11225,"alpha":11226,"Ġowner":11227,"Ġafdpart":11228,"ASHED":11229,"INSECURE":11230,"orary":11231,"Ġgw":11232,"Ġgen":11233,"Ġgray":11234,"STP":11235,"peated":11236,"Ġvms":11237,"Ġvram":11238,"Ġult":11239,"Ġufile":11240,"Ġho":11241,"Ġhshift":11242,"adapt":11243,"etite":11244,"Ġngsniffer":11245,"ĠBluetooth":11246,"Ġ250":11247,"Ġ237":11248,"Ġrq":11249,"Ġrsp":11250,"Ġrrc":11251,"Ġraster":11252,"Ġrwstate":11253,"utation":11254,"mpa":11255,"Ġxmalloc":11256,"Ġxvmc":11257,"codeset":11258,"Ġinfilename":11259,"Ġstrrchr":11260,"3206":11261,"Ġwould":11262,"ilent":11263,"REATE":11264,"REALTIME":11265,"ĠoffsetDelta":11266,"ncat":11267,"2499":11268,"OPDF":11269,"Ġcases":11270,"igger":11271,"ĠFE":11272,"ĠFMT":11273,"ALANT":11274,"ĠUt":11275,"Ġmbs":11276,"Ġunlock":11277,"Ġunscaled":11278,"Ġunescape":11279,"16829":11280,"Ġtypentry":11281,"Ġ470":11282,"Ġ45517":11283,"ĠCOPY":11284,"ĠCopy":11285,"procs":11286,"INTR":11287,"eline":11288,"Ġyet":11289,"Ġyend":11290,"Ġymin":11291,"Ġqdev":11292,"Ġ880":11293,"enforce":11294,"enhanced":11295,"Incognito":11296,"ĠAVFormat":11297,"ĠAVMEDIA":11298,"spo":11299,"spot":11300,"sprite":11301,"sparse":11302,"ĠMem":11303,"uby":11304,"UNPACK":11305,"UNAV":11306,"UNEXPECTED":11307,"ĠSh":11308,"die":11309,"Ġ'+":11310,"share":11311,"caa":11312,"iming":11313,"Ġisxdigit":11314,"estination":11315,"ĠGIF":11316,"filegen":11317,"Ġendpoint":11318,"located":11319,"Ġkeymatexport":11320,"Ġerrnop":11321,"refcnt":11322,"ROOT":11323,"ĠImag":11324,"ĠIEEE":11325,"Ġyystack":11326,"Ġyyaccept":11327,"keyblock":11328,"enclosure":11329,"ĠgbConverter":11330,"Registered":11331,"Ġ62":11332,"tract":11333,"LOGIC":11334,"printed":11335,"indic":11336,"FFFF":11337,"Ġdirp":11338,"rdmult":11339,"Ġbasename":11340,"Ġbasenode":11341,"Ġbsd":11342,"Ġsubdir":11343,"Ġsubclass":11344,"ĠsubResult":11345,"subject":11346,"subclass":11347,"subbands":11348,"allocator":11349,"newmv":11350,"Ġ75":11351,"errset":11352,"ĠnewConn":11353,"ĠbytesTo":11354,"ivation":11355,"Child":11356,"Chair":11357,"Ġzrc":11358,"Ġzfx":11359,"38234":11360,"104":11361,"constant":11362,"clic":11363,"Ġuserp":11364,"31975":11365,"Ġfilepos":11366,"TRIES":11367,"Ġmaxval":11368,"minator":11369,"Ġdatctype":11370,"Ġdatallow":11371,"262":11372,"Ġskipping":11373,"ĠNT":11374,"Ġascent":11375,"ĠGetAll":11376,"ĠGetInstance":11377,"Ġ101":11378,"Ġcompatible":11379,"Ġ\\\"%*":11380,"intercept":11381,"11407":11382,"809":11383,"document":11384,"Ġalgo":11385,"Ġswitchable":11386,"ĠXt":11387,"arest":11388,"1305":11389,"199":11390,"predict":11391,"8487":11392,"Ġ320":11393,"ĠREPH":11394,"ĠRESPONSE":11395,"sitive":11396,"Ġfieldtx":11397,"reshold":11398,"EXTENSION":11399,"kename":11400,"feed":11401,"1760":11402,"Ġpdht":11403,"TLSv":11404,"Ġpsse":11405,"Ġpsvi":11406,"CCateg":11407,"ĠparseInt":11408,"1533":11409,"SetProperties":11410,"290":11411,"Ġvard":11412,"Ġtesting":11413,"lcat":11414,"Lookup":11415,"IPAC":11416,"SPEED":11417,"Ġyyvs":11418,"3528":11419,"692":11420,"308":11421,"371":11422,"oreground":11423,"FORBIDDEN":11424,"conninfo":11425,"connlimit":11426,"Ġupgrade":11427,"bearing":11428,"Ġoldtable":11429,"SHA":11430,"fact":11431,"REFRESH":11432,"username":11433,"LengthError":11434,"videoFast":11435,"ĠUConverterDataCompoundText":11436,"GEST":11437,"mov":11438,"CRASH":11439,"CRASHED":11440,"0238234":11441,"circ":11442,"Ġview":11443,"description":11444,"Ġparts":11445,"188":11446,"Threshold":11447,"spaces":11448,"978":11449,"979":11450,"SACTION":11451,"hostname":11452,"Ġfailf":11453,"MeChair":11454,"333":11455,"iters":11456,"Ġcurradv":11457,"Ġpixdepth":11458,"await":11459,"ĠInter":11460,"Ġsockpath":11461,"Without":11462,"DirectoryIterator":11463,"ĠENV":11464,"ĠSBSYM":11465,"authorizer":11466,"PARSE":11467,"PictureReference":11468,"Ġthreshold":11469,"4916829":11470,"glyphs":11471,"Ġmpx":11472,"Ġprcno":11473,"Ġremoved":11474,"ĠnsList":11475,"ĠExtensionPrefs":11476,"Alphanumeric":11477,"Ġttl":11478,"Ġorigin":11479,"Ġmcg":11480,"Ġmcsel":11481,"Quit":11482,"ĠPQconninfo":11483,"regulate":11484,"VARINT":11485,"Ġmulty":11486,"Ġmultiple":11487,"chunky":11488,"ĠdirectMode":11489,"RowSetProperties":11490,"Ġsadb":11491,"Ġsadpb":11492,"AttrVT":11493,"ĠPROTOCOL":11494,"ElementList":11495,"BlockState":11496,"asis":11497,"returndiag":11498,"returnDiag":11499,"ĠINTERP":11500,"SubItem":11501,"Indicate":11502,"ĠStringValue":11503,"AVT":11504,"AllJo":11505,"ĠComp":11506,"speech":11507,"ĠxmlHashSc":11508,"Ġsyslog":11509,"ĠmakeLengthError":11510,"LocaleString":11511,"AnnexC":11512,"Ġsdf":11513,"13626207":11514,"crestrict":11515,"Skew":11516,"Ġtasks":11517,"Ġnmvjoint":11518,"half":11519,"denoiser":11520,"encryptionUpdate":11521,"TRANSACTION":11522,"ClassMask":11523,"ĠxsltTransformContextPtr":11524,"AUDIO":11525,"STICK":11526,"ĠBrowserList":11527,"logicalChannelNumber":11528,"ĠRunLoop":11529,"Ġcompleted":11530,"samefield":11531,"retries":11532,"installed":11533,"APPEND":11534,"Ġlyrsizes":11535,"59613626207":11536,"switchable":11537,"Ġfeats":11538,"Ġ774916829":11539,"INTERPOL":11540,"Identity":11541,"revolution":11542,"Ġcyclic":11543,"Ġquantizers":11544,"ĠQuantumRange":11545,"LZO":11546,"MISC":11547,"MISMATCH":11548,"TextChatMsg":11549,"dependent":11550,"Ġguest":11551,"Ġtzoff":11552,"ĠVARI":11553,"FEATURES":11554,"Ġimports":11555,"31659613626207":11556,"Ġswbuf":11557,"ĠSizeOf":11558,"nosticInfo":11559,"FDD":11560,"vlcs":11561,"workers":11562,"Ġfakename":11563,"ĠALLOC":11564,"Threads":11565,"01154":11566,"truncated":11567,"ĠFormatLocaleString":11568,"SYMBOL":11569,"12443":11570,"LANGUAGE":11571,"Ġgamma":11572,"Ġstarted":11573,"ĠAssert":11574,"ĠUPDATE":11575,"388831975":11576,"20215726":11577,"inuous":11578,"Ġisspace":11579,"Ġconstruct":11580,"chema":11581,"ĠFunctionCall":11582,"Complex":11583,"ĠDefault":11584,"scratch":11585,"QUALITY":11586,"Edit":11587,"GLUCOSE":11588,"sbuv":11589,"uBooleanOptions":11590,"Ġccps":11591,"Ġbinfrac":11592,"OPDFRead":11593,"Ġ47011407":11594,"Ġ4551720215726":11595,"ĠAVFormatContext":11596,"UNAVAIL":11597,"ĠImaging":11598,"Ġyystacksize":11599,"ĠbytesToSend":11600,"Ġdatallowconn":11601,"videoFastUpdate":11602,"0238234888":11603,"ĠSBSYMCODE":11604,"AllJoyn":11605,"Ġnmvjointcost":11606,"Ġ7749168290238234888":11607,"3165961362620712443":11608,"38883197535":11609,"Ġ4701140738883197535":11610,"Ġ455172021572601154":11611,"%\\\"":11612,"&\\\"":11613,"099":11614,"800000000":11615,"?\\\\":11616,"AMS":11617,"AIR":11618,"BN":11619,"BLA":11620,"BShort":11621,"Case":11622,"CES":11623,"Done":11624,"DNS":11625,"During":11626,"EB":11627,"FFI":11628,"Fallback":11629,"General":11630,"GGEST":11631,"Hal":11632,"Hel":11633,"Huffman":11634,"HALT":11635,"IAS":11636,"Igno":11637,"Kwd":11638,"LM":11639,"Landing":11640,"MF":11641,"MX":11642,"Mux":11643,"OCK":11644,"Over":11645,"Pa":11646,"Padding":11647,"Return":11648,"SM":11649,"SAS":11650,"TECT":11651,"Ticket":11652,"Tunnel":11653,"Udp":11654,"VAN":11655,"VBR":11656,"Wrap":11657,"WORK":11658,"YC":11659,"aic":11660,"ba":11661,"bss":11662,"bject":11663,"bord":11664,"basis":11665,"car":11666,"cgroup":11667,"ev":11668,"fin":11669,"far":11670,"gle":11671,"ges":11672,"hext":11673,"have":11674,"ision":11675,"lX":11676,"llu":11677,"mon":11678,"mip":11679,"nex":11680,"nap":11681,"ole":11682,"pstrdup":11683,"qemu":11684,"rus":11685,"rshift":11686,"smb":11687,"solve":11688,"tmask":11689,"ticket":11690,"ucmp":11691,"vo":11692,"win":11693,"wid":11694,"water":11695,"xity":11696,"xfree":11697,"xpos":11698,"ysi":11699,"yrd":11700,"yrate":11701,"zd":11702,"ĠON":11703,"ĠSTART":11704,"ĠSSH":11705,"ĠLLONG":11706,"Ġiy":11707,"Ġsct":11708,"Ġsan":11709,"Ġschedule":11710,"reci":11711,"Ġcg":11712,"Ġcsize":11713,"Ġcsrc":11714,"Ġcscope":11715,"Ġctm":11716,"Ġcrx":11717,"nto":11718,"dep":11719,"lead":11720,"Ġtctx":11721,"Ġtindex":11722,"Ġtimer":11723,"Ġturbo":11724,"invert":11725,"Ġplen":11726,"Ġpas":11727,"Ġpcm":11728,"Ġppath":11729,"ĠpExt":11730,"Ġburn":11731,"Ġbinding":11732,"Ġbfraction":11733,"Ġbdrv":11734,"cte":11735,"Ġ115":11736,"roff":11737,"ĠfLimit":11738,"ĠfPre":11739,"Ġmq":11740,"Ġmr":11741,"Ġmutex":11742,"Ġmonitor":11743,"Ġestrdup":11744,"Ġemul":11745,"Ġretr":11746,"Ġrecoded":11747,"Ġredirect":11748,"Ġrepeat":11749,"Ġreinterpret":11750,"sited":11751,"Ġoq":11752,"Ġodd":11753,"Ġah":11754,"Ġai":11755,"Ġaprintf":11756,"Ġasave":11757,"orize":11758,"ĠgB":11759,"pem":11760,"Ġvinfo":11761,"Ġvdsp":11762,"Ġulen":11763,"Ġuchar":11764,"Ġuvbuf":11765,"Ġhis":11766,"Ġhref":11767,"Ġhere":11768,"adst":11769,"adler":11770,"added":11771,"loss":11772,"loaded":11773,"Ġnsp":11774,"Ġnpos":11775,"Ġnump":11776,"Ġnhist":11777,"ERER":11778,"Ġretlen":11779,"Ġrach":11780,"Ġruby":11781,"utof":11782,"mport":11783,"assi":11784,"hard":11785,"Ġlstat":11786,"Ġlside":11787,"Ġlru":11788,"Ġdetected":11789,"Ġxmis":11790,"Ġxppp":11791,"Ġstres":11792,"ONENTS":11793,"DEP":11794,"ingTo":11795,"ndroid":11796,"INGLE":11797,"Ġelf":11798,"ĠAn":11799,"ĠAndroid":11800,"Ġincognito":11801,"3215":11802,"Ġwc":11803,"REV":11804,"REEN":11805,"REDU":11806,"RETRIES":11807,"lts":11808,"ltree":11809,"ven":11810,"Ġknow":11811,"ĠkLanding":11812,"ĠEF":11813,"ĠEH":11814,"ĠFake":11815,"ĠFONT":11816,"ĠFmgr":11817,"strcat":11818,"ALIVE":11819,"ALGO":11820,"ALIAS":11821,"ITCH":11822,"ĠUS":11823,"ĠUData":11824,"ĠUPRINTF":11825,"Ġmbd":11826,"Ġmbr":11827,"Ġunes":11828,"Ġskr":11829,"STAR":11830,"STAMP":11831,"ptt":11832,"ĠCol":11833,"ĠCod":11834,"ĠCREATE":11835,"ĠHAS":11836,"ĠHeader":11837,"datacl":11838,"ORING":11839,"procal":11840,"protect":11841,"property":11842,"processed":11843,"protection":11844,"proxpos":11845,"INTFR":11846,"007":11847,"ĠdefineP":11848,"Ġproduct":11849,"Ġytop":11850,"Ġymis":11851,"Ġyppp":11852,"bund":11853,"aping":11854,"apsing":11855,"approxpos":11856,"ists":11857,"istemplate":11858,"6455":11859,"MED":11860,"MEDIAN":11861,"CSt":11862,"Ġexported":11863,"Ġexslt":11864,"ATYPE":11865,"engine":11866,"InList":11867,"illegal":11868,"spn":11869,"Ġoutdata":11870,"Ġoutpacket":11871,"Ġoutcipher":11872,"Ġoutcnt":11873,"Ġoutdigest":11874,"ĠSame":11875,"ĠSchro":11876,"ĠSDX":11877,"ĠSINGLE":11878,"division":11879,"rach":11880,"ĠPAGE":11881,"ĠEVPerr":11882,"prior":11883,"shaping":11884,"rowse":11885,"imate":11886,"Colour":11887,"Ġnamelength":11888,"entity":11889,"entropy":11890,"linear":11891,"estack":11892,"ĠGR":11893,"ĠGFile":11894,"DIC":11895,"ofs":11896,"unless":11897,"12896":11898,"mvc":11899,"skey":11900,"ationLayer":11901,"logname":11902,"owWordStarts":11903,"22797":11904,"ĠgetWindow":11905,"Ġgetting":11906,"ĠmyUChar":11907,"Ġyytoken":11908,"bopen":11909,"bookmark":11910,"Ġseed":11911,"Ġsecs":11912,"quad":11913,"ĠDUMP":11914,"acy":11915,"ADATA":11916,"Reassemb":11917,"ulation":11918,"ulong":11919,"ulated":11920,"Ġ666":11921,"Ġ511":11922,"Ġ599":11923,"readkeys":11924,"Ġtmpptr":11925,"tablelow":11926,"tablehigh":11927,"Ġsubquery":11928,"Ġerrorperbit":11929,"Ġshared":11930,"NAV":11931,"NAMIC":11932,"FLEN":11933,"FLICT":11934,"ĠEXISTS":11935,"Ġ71":11936,"DATATYPE":11937,"ailable":11938,"ĠRR":11939,"ĠRowWordStarts":11940,"LSBShort":11941,"Ġffmax":11942,"38884":11943,"1050":11944,"ULD":11945,"ĠbufferOffset":11946,"Ġengine":11947,"TIMESTAMP":11948,"clamped":11949,"315":11950,"3134":11951,"3144":11952,"Ġtracks":11953,"CMode":11954,"TRIX":11955,"FOUR":11956,"ĠbestIdx":11957,"erer":11958,"Ġdatfrozenxid":11959,"Ġdatminmxid":11960,"267":11961,"26639":11962,"0450":11963,"aved":11964,"APER":11965,"ĠGetPath":11966,"ĠGetSettingsForOneType":11967,"565":11968,"Ġcompmode":11969,"objects":11970,"1148":11971,"3431":11972,"Ġalready":11973,"Ġpointer":11974,"130":11975,"1926639":11976,"attrs":11977,"849":11978,"ĠRES":11979,"Ġulpdu":11980,"slave":11981,"uffle":11982,"ACCEL":11983,"ighted":11984,"Dep":11985,"Delete":11986,"NOTFOUND":11987,"decision":11988,"ĠWeb":11989,"ĠWINDOW":11990,"ither":11991,"skipu":11992,"SUGGEST":11993,"Ġpsf":11994,"nowled":11995,"irrus":11996,"154":11997,"152499":11998,"Ġoptind":11999,"lated":12000,"2931":12001,"Ġtests":12002,"lsf":12003,"ĠISAT":12004,"VIEW":12005,"698":12006,"Enabling":12007,"USAGE":12008,"Ġevutil":12009,"30724":12010,"ĠJOIN":12011,"372":12012,"373":12013,"FORMED":12014,"contained":12015,"ĠSKIP":12016,"nodeClassMask":12017,"DOC":12018,"DOT":12019,"SHAPER":12020,"Ġhostset":12021,"2757":12022,"fach":12023,"REFERER":12024,"UPX":12025,"Ġdistance":12026,"Ġvisited":12027,"llX":12028,"ĠcontentType":12029,"MATH":12030,"INTERVAL":12031,"cpmcompare":12032,"Ġrequests":12033,"activity":12034,"183":12035,"distinct":12036,"DIRFUNC":12037,"Ġsigner":12038,"WorkerData":12039,"PLAN":12040,"Ġdocroot":12041,"ĠmySourceLimit":12042,"ridge":12043,"ĠreferenceFrames":12044,"Ġbandno":12045,"macis":12046,"ĠLIBXML":12047,"images":12048,"ExtensionObject":12049,"ImageInList":12050,"ĠPIX":12051,"9999":12052,"libtree":12053,"IsSingleByteMode":12054,"IFREG":12055,"5091926639":12056,"stepsizes":12057,"overflow":12058,"ĠENVEL":12059,"Ġmaplength":12060,"Ġmapping":12061,"Ġshortcut":12062,"ĠCOLOR":12063,"ĠIsExcluded":12064,"ĠIsTry":12065,"izedtext":12066,"MPLES":12067,"Ġfpnum":12068,"Ġ\\\",\\\"":12069,"Ġ\\\",\\\\":12070,"521":12071,"Ġbackground":12072,"Ġpacktmp":12073,"Ġfuncid":12074,"HeaderInterval":12075,"Ġinitialized":12076,"escrow":12077,"ulateCustodianApproval":12078,"PerPacket":12079,"Ġdescription":12080,"dicts":12081,"avigations":12082,"rfbTextChatMsg":12083,"ĠMagickSignature":12084,"ĠMagickTrue":12085,"ĠCheckMake":12086,"HUMAN":12087,"ChangeVia":12088,"Ġrowsin":12089,"fasttest":12090,"Ġneeds":12091,"saveconfig":12092,"PATS":12093,"Ġadjbuf":12094,"BASED":12095,"TERM":12096,"chunked":12097,"ControlCapability":12098,"ĠRETURNDIAGNOSTICS":12099,"where":12100,"Ġpktype":12101,"nonColl":12102,"DCCH":12103,"progname":12104,"commit":12105,"00000000000":12106,"Ġcbpcy":12107,"OpenLogicalChannel":12108,"0300":12109,"Elements":12110,"ALTDIRFUNC":12111,"ĠAddDevice":12112,"SUBMIT":12113,"digits":12114,"ByCustodian":12115,"Ġisoent":12116,"Ġgpgme":12117,"cpmgetapproxpos":12118,"ĠReadBlobLSBShort":12119,"Ġestimate":12120,"ĠAutocompleteInput":12121,"ĠxmlStrdup":12122,"ĠxmlStrncat":12123,"reverseParameters":12124,"reverseLogicalChannelParameters":12125,"NSV":12126,"RCVRC":12127,"SUPPLEMENT":12128,"AFTER":12129,"halant":12130,"ĠImageInfo":12131,"Current":12132,"lpid":12133,"CONTENTS":12134,"ĠRSVP":12135,"superblock":12136,"Ġextras":12137,"ĠPREDICT":12138,"lationBlock":12139,"ACTIVITY":12140,"ClockFrequency":12141,"otiation":12142,"CHOICE":12143,"7112896":12144,"restricted":12145,"Ġcomplexity":12146,"MUX":12147,"MALFORMED":12148,"ĠERANGE":12149,"joiner":12150,"unicode":12151,"ĠPARSEDATE":12152,"Ġhyper":12153,"24638884":12154,"ĠDirectoryIterator":12155,"ĠProtocolHandlerRegistry":12156,"ĠSplineMake":12157,"cpmsetscope":12158,"Ġlibopen":12159,"PropSet":12160,"ĠWaitFor":12161,"radiotap":12162,"Ġgtk":12163,"ĠArchive":12164,"ĠTranslationBlock":12165,"Ġcoordmap":12166,"ANCEL":12167,"ĠcurrentDeltaFromUnicode":12168,"SyncChangeProcessor":12169,"ĠAcquireImage":12170,"PicSelect":12171,"ĠSBRData":12172,"Available":12173,"Posix":12174,"lbmpdm":12175,"mobileMultilink":12176,"ĠvirLog":12177,"22224638884":12178,"Output":12179,"dependency":12180,"ĠField":12181,"DefaultSAX":12182,"Ġphtc":12183,"Ġ10000000000000000000":12184,"Ġdelayed":12185,"initialized":12186,"11940":12187,"Attributes":12188,"xffffffffffffffffLL":12189,"Entries":12190,"gateway":12191,"square":12192,"onyEvent":12193,"ĠSAMPLES":12194,"ĠENABLED":12195,"ĠquotePairTwo":12196,"ĠbcpTypeLen":12197,"stitute":12198,"permutation":12199,"ĠxmlHashEntryPtr":12200,"GNUC":12201,"Ġsoftmask":12202,"ĠcmsUInt":12203,"cedure":12204,"ĠSimulateCustodianApproval":12205,"SHARED":12206,"ĠRemoveDevice":12207,"Digest":12208,"Fetcher":12209,"Ġeqproc":12210,"ĠForOPDFRead":12211,"ĠMessage":12212,"mplemented":12213,"196930724":12214,"Ġneighbors":12215,"Ġhtons":12216,"ĠAttemptClose":12217,"ĠSVQ":12218,"collid":12219,"ADJUSTMENT":12220,"Ġplainauth":12221,"Location":12222,"AuthenticPixels":12223,"Ġinsns":12224,"ĠMyISAM":12225,"Condition":12226,"mediaControlChannel":12227,"ĠpresentationLength":12228,"MultiplePayloadStreamElement":12229,"TelephonyEvent":12230,"HWACCEL":12231,"Operation":12232,"caggregs":12233,"kadm":12234,"raster":12235,"ĠVisitInfoVector":12236,"nodeclassmask":12237,"TICKET":12238,"ĠFEAT":12239,"Ġ880196930724":12240,"ĠShow":12241,"Ġ'+'":12242,"15335091926639":12243,"INTERPOLATED":12244,"8000000000000000":12245,"Helper":12246,"nexus":12247,"naptr":12248,"reciprocal":12249,"ĠpExtBuf":12250,"Ġbindingsin":12251,"ĠfPrecision":12252,"Ġemulated":12253,"Ġlsidebearing":12254,"Ġstrescape":12255,"ingToQuit":12256,"ĠkLandingPage":12257,"ĠFakeSyncChangeProcessor":12258,"Ġunescaped":12259,"ĠCoder":12260,"Ġ59915335091926639":12261,"nowledge":12262,"15249941":12263,"cpmcomparebmk":12264,"ĠENVELOPE":12265,"ĠIsTryingToQuit":12266,"ChangeViaSync":12267,"nonCollapsing":12268,"SUPPLEMENTARY":12269,"Ġlibopenjpeg":12270,"2222463888415249941":12271,"ĠSimulateCustodianApprovalChangeViaSync":12272,"Ġ8801969307247112896":12273,"Ġ5991533509192663951":12274,"055":12275,"029":12276,"116":12277,"232":12278,"338":12279,"410":12280,"622":12281,"637":12282,"6333":12283,"8128":12284,"91":12285,"9371":12286,">%":12287,">'":12288,"@@":12289,"An":12290,"APT":12291,"Answer":12292,"Abort":12293,"Bin":12294,"Bar":12295,"BAR":12296,"BEST":12297,"BORDER":12298,"CAL":12299,"Cif":12300,"CRT":12301,"CColumn":12302,"Certificate":12303,"DrawInfo":12304,"EFF":12305,"EOB":12306,"Form":12307,"Fec":12308,"Foreground":12309,"GSS":12310,"Guid":12311,"GAC":12312,"Green":12313,"GMC":12314,"Imp":12315,"IBU":12316,"JAV":12317,"KDB":12318,"Low":12319,"LATE":12320,"MOD":12321,"MASTER":12322,"Nr":12323,"None":12324,"NMI":12325,"Ok":12326,"PM":12327,"Pel":12328,"PAY":12329,"PLACE":12330,"Petite":12331,"SByte":12332,"Switch":12333,"UCS":12334,"UWrite":12335,"VA":12336,"VB":12337,"VBASE":12338,"VOID":12339,"VECTOR":12340,"WH":12341,"WJ":12342,"WRA":12343,"WARE":12344,"Xml":12345,"XContext":12346,"XSLT":12347,"XVMC":12348,"YV":12349,"ales":12350,"bly":12351,"cname":12352,"cxt":12353,"cspn":12354,"dout":12355,"dpau":12356,"ecb":12357,"evt":12358,"flt":12359,"fallback":12360,"gv":12361,"gbits":12362,"gray":12363,"general":12364,"home":12365,"hotplug":12366,"ield":12367,"iwht":12368,"jump":12369,"kg":12370,"kernel":12371,"mmediate":12372,"mvbp":12373,"nss":12374,"nil":12375,"nes":12376,"navigation":12377,"nlpid":12378,"pv":12379,"past":12380,"paged":12381,"png":12382,"qps":12383,"ron":12384,"rase":12385,"rity":12386,"rva":12387,"ssed":12388,"turn":12389,"tkey":12390,"tunnel":12391,"wc":12392,"wmv":12393,"wrong":12394,"xover":12395,"ĠLO":12396,"ĠDEF":12397,"ĠIndex":12398,"ĠMEM":12399,"Ġicon":12400,"Ġiplace":12401,"Ġsg":12402,"Ġsmatch":12403,"Ġscheme":12404,"Ġsni":12405,"Ġcid":12406,"Ġcut":12407,"Ġcmv":12408,"Ġcdb":12409,"eration":12410,"erature":12411,"stuff":12412,"stimer":12413,"dead":12414,"Ġtid":12415,"Ġtsec":12416,"onsumed":12417,"ining":12418,"Ġpast":12419,"Ġbzero":12420,"Ġbbox":12421,"Ġbridge":12422,"aris":12423,"Ġ110":12424,"ross":12425,"Ġftype":12426,"Ġfget":12427,"Ġfcm":12428,"Ġfwrite":12429,"Ġfoo":12430,"Ġfplace":12431,"Ġmtype":12432,"Ġmname":12433,"Ġmsp":12434,"Ġmci":12435,"Ġ\\\"=":12436,"Ġecd":12437,"Ġrepair":12438,"Ġregex":12439,"coales":12440,"silenceSuppression":12441,"Ġam":12442,"ural":12443,"ASCRIPT":12444,"Ġinto":12445,"fff":12446,"itect":12447,"trle":12448,"trigger":12449,"Ġdpi":12450,"Ġdsc":12451,"Ġdri":12452,"Ġdynamic":12453,"Ġdropp":12454,"INDO":12455,"Ġgop":12456,"Ġghost":12457,"Ġgenerate":12458,"anull":12459,"Ġvdpau":12460,"Ġuval":12461,"Ġuloc":12462,"Ġha":12463,"Ġhi":12464,"losed":12465,"teleg":12466,"Ġnsecs":12467,"Ġnmsrs":12468,"ider":12469,"ĠBL":12470,"ĠBEST":12471,"Ġretain":12472,"Ġ240":12473,"intrad":12474,"Ġring":12475,"Ġrtype":12476,"Ġrang":12477,"Ġrlvls":12478,"uter":12479,"mpu":12480,"Ġlu":12481,"Ġlag":12482,"Ġlcode":12483,"Ġlav":12484,"Ġldout":12485,"Ġdeleted":12486,"Ġdecorr":12487,"tok":12488,"chg":12489,"Ġxs":12490,"reached":12491,"Ġstc":12492,"Ġstanull":12493,"throttle":12494,"exc":12495,"expi":12496,"extobj":12497,"sss":12498,"argest":12499,"Ġelts":12500,"Ġinx":12501,"Ġinet":12502,"Ġinctx":12503,"Ġincompatible":12504,"ably":12505,"Ġstrcasecmp":12506,"Ġstrcspn":12507,"3211":12508,"3298":12509,"3241":12510,"Ġwi":12511,"Ġwchar":12512,"REQU":12513,"RESERVED":12514,"243":12515,"OPER":12516,"velo":12517,"Ġkctx":12518,"Ġhflags":12519,"ĠFZ":12520,"ĠFp":12521,"ĠFound":12522,"strlcpy":12523,"PED":12524,"ĠUser":12525,"ĠUNUM":12526,"ĠUID":12527,"ĠULocale":12528,"Ġmby":12529,"Ġmblen":12530,"Ġmbtab":12531,"Ġunum":12532,"1658":12533,"ĠChar":12534,"ĠCertificate":12535,"ĠCBP":12536,"ĠCYC":12537,"ĠHF":12538,"ĠHave":12539,"005":12540,"ifest":12541,"Ġys":12542,"Ġfork":12543,"Ġqueue":12544,"Ġqcc":12545,"Ġqdelta":12546,"lockout":12547,"Ġ300":12548,"sigs":12549,"acked":12550,"Ġ85":12551,"Ġ87":12552,"Ġ850":12553,"CSort":12554,"Ġexpiration":12555,"Ġexceeded":12556,"eng":12557,"ename":12558,"Insert":12559,"getconfig":12560,"ĠAVT":12561,"Ġerasure":12562,"construct":12563,"ĠMSK":12564,"ĠMPA":12565,"Ġoutfile":12566,"Ġoutside":12567,"msmpeg":12568,"mentFor":12569,"ĠSY":12570,"ĠSuggest":12571,"ĠSLX":12572,"Ġ'\\\"'":12573,"Ġ'='":12574,"Ġ'>'":12575,"Ġchallenge":12576,"ĠPY":12577,"ĠPre":12578,"ĠPCI":12579,"ĠPrint":12580,"ĠPITCH":12581,"shaper":12582,"Complete":12583,"ĠisEmpty":12584,"ĠisNull":12585,"noS":12586,"Conflict":12587,"ĠGHash":12588,"ĠGSB":12589,"DIV":12590,"DIAMETER":12591,"unescape":12592,"Ġfifo":12593,"Ġmime":12594,"Ġgold":12595,"locbund":12596,"mvdata":12597,"bitCapability":12598,"Ġkeylength":12599,"Ġkeynr":12600,"fier":12601,"ertain":12602,"Ġ16384":12603,"mbv":12604,"Ġerrbuf":12605,"UTES":12606,"Ġnumly":12607,"Ġnumgbits":12608,"2233":12609,"Ġmyhash":12610,"Ġmyhttp":12611,"Ġmydl":12612,"ĠIAD":12613,"aynum":12614,"IDL":12615,"Ġseid":12616,"Ġsess":12617,"ĠLST":12618,"ĠLIBU":12619,"ĠDH":12620,"ĠDis":12621,"Ġleast":12622,"Ġlengths":12623,"Ġidr":12624,"Replace":12625,"Repet":12626,"ĠtargetLength":12627,"EXEC":12628,"stringl":12629,"LOGCAT":12630,"Ġtmpheader":12631,"Ġtmpdir":12632,"Ġsubfont":12633,"Ġsrcs":12634,"ĠDECLIN":12635,"subtype":12636,"subclasses":12637,"subtract":12638,"Ġ720":12639,"mlink":12640,"DATETIME":12641,"Ġcolumn":12642,"cmpt":12643,"cmpgt":12644,"Choice":12645,"Ġztmp":12646,"Ġinterle":12647,"Ġinteractive":12648,"Ġinterlace":12649,"Ġintermediate":12650,"branch":12651,"1056":12652,"ByteString":12653,"Ġtempin":12654,"clone":12655,"Ġprec":12656,"syntax":12657,"symbolic":12658,"ĠfileCount":12659,"LICATION":12660,"architect":12661,"557":12662,"Ġdatlen":12663,"ĠUConverterReset":12664,"statem":12665,"0408":12666,"ĠNow":12667,"ĠNIL":12668,"ĠNSV":12669,"ĠGetPrintPreviewDataForIndex":12670,"56606":12671,"THING":12672,"THIS":12673,"Ġcomputer":12674,"Proto":12675,"Processed":12676,"Provider":12677,"1188":12678,"11138":12679,"805":12680,"347":12681,"34377":12682,"341148":12683,"Exhausted":12684,"CapabilityDescriptor":12685,"maxBitRate":12686,"Ġtimespec":12687,"ĠXSet":12688,"ĠXVMC":12689,"1338":12690,"501":12691,"50554":12692,"duplicate":12693,"Build":12694,"requestMultiplexEntry":12695,"Ġprintformat":12696,"8498":12697,"846527":12698,"QUICK":12699,"149":12700,"egrity":12701,"sity":12702,"biggest":12703,"multilink":12704,"Ġpaint":12705,"Ġreadfds":12706,"SPatch":12707,"igned":12708,"AGENT":12709,"ĠQnil":12710,"Ġindexpr":12711,"ĠindexStart":12712,"ĠindexEnd":12713,"tsClockRecovery":12714,"ĠMBSPatch":12715,"ĠYYFILL":12716,"ĠYYLIMIT":12717,"ĠYYMARKER":12718,"contexts":12719,"ĠWEP":12720,"ĠWITH":12721,"uthkey":12722,"1718":12723,"1749":12724,"different":12725,"SUP":12726,"Ġcomma":12727,"6684":12728,"Ġtruespeech":12729,"29730":12730,"BIGENDIAN":12731,"Ġtxfm":12732,"Ġtestip":12733,"MVC":12734,"MVD":12735,"FACH":12736,"backend":12737,"87217":12738,"872490":12739,"appendl":12740,"=%\\\"":12741,"403298":12742,"ĠrfbFile":12743,"ĠrfbClient":12744,"ĠrfbProcess":12745,"ĠrfbTextChat":12746,"akeDebug":12747,"302":12748,"Ġbookmark":12749,"59267":12750,"dispatch":12751,"Ġprivkey":12752,"reqbody":12753,"Ġoldcur":12754,"Ġoldact":12755,"Ġsumcommon":12756,"orders":12757,"281":12758,"283":12759,"OLUTE":12760,"PREV":12761,"PRESENT":12762,"Continuous":12763,"SHUTDOWN":12764,"Ġattrs":12765,"ĠattrValue":12766,"costing":12767,"276":12768,"Ġactivequeues":12769,"ĠExit":12770,"Selection":12771,"videoIndicate":12772,"\\\\\\\",":12773,"formed":12774,"Ġtotalsize":12775,"Ġtotalrate":12776,"Ġtileno":12777,"Ġ645":12778,"ĠnbE":12779,"67112":12780,"cursive":12781,"Ġrequested":12782,"activation":12783,"18596":12784,"ĠextNeg":12785,"Ġcolorant":12786,"Ġberval":12787,"PROCESS":12788,"Ġmatching":12789,"Ġstatistics":12790,"Ġsimple":12791,"pauthkey":12792,"Ġbee":12793,"Ġarraysize":12794,"ĠSetClient":12795,"CLING":12796,"Ġwritebytecount":12797,"FromUTF":12798,"Ġ19816":12799,"Ġ191188":12800,"IMAL":12801,"ĠformatBundle":12802,"ĠPyString":12803,"references":12804,"25284":12805,"servicePriority":12806,"Ġpalettes":12807,"Ġsigstatus":12808,"Extensions":12809,"Classi":12810,"Ġauthentication":12811,"Ġauthorizing":12812,"ieving":12813,"SYNC":12814,"ToUnicodeWithOffsets":12815,"Ġdecerr":12816,"Ġpwbuflen":12817,"lastgob":12818,"Distribution":12819,"Ġimmediate":12820,"448":12821,"updates":12822,"Ġnearest":12823,"temperature":12824,"messageContent":12825,"Bookmark":12826,"authorization":12827,"authreadkeys":12828,"PART":12829,"PARTY":12830,"Ġglobnames":12831,"Ġlayering":12832,"ĠCOMPLE":12833,"NotAvailable":12834,"PictureHeader":12835,"ĠIsA":12836,"Ġchunkhave":12837,"ĠsendMutex":12838,"1001":12839,"1003134":12840,"ĠLOGFILE":12841,"ITIONING":12842,"52372":12843,"VideoContext":12844,"Ġmdaynum":12845,"Allow":12846,"srtsClockRecovery":12847,"CNT":12848,"ĠCPUX":12849,"ĠPRV":12850,"ĠPRIV":12851,"uples":12852,"failcnt":12853,"Ġzbins":12854,"Terms":12855,"Ġdescriptions":12856,"Ġcblks":12857,"unpackhi":12858,"reclength":12859,"Compute":12860,"MCG":12861,"Ġdevname":12862,"Ġdevaddr":12863,"ĠTestScheme":12864,"BEFORE":12865,"ĠRelease":12866,"ĠRepeated":12867,"RECORDDATATYPE":12868,"Ġclosest":12869,"localizedtext":12870,"198131":12871,"Ġonealt":12872,"ategy":12873,"Ġmulticast":12874,"Ġ44238":12875,"rrsig":12876,"Maps":12877,"chron":12878,"DROP":12879,"Ġsecnum":12880,"MemoryExhausted":12881,"multiplexedStream":12882,"SendThisSource":12883,"EventProto":12884,"solete":12885,"Ġsadperbit":12886,"ĠNDX":12887,"flowControl":12888,"ĠLogcat":12889,"ĠECerr":12890,"Ġmisc":12891,"Ġglyphs":12892,"MIXED":12893,"Ġpushed":12894,"mvswitch":12895,"Ġsplitbuf":12896,"SUBFRAME":12897,"heur":12898,"heightexpn":12899,"908498":12900,"Ġceil":12901,"ĠregionMaps":12902,"dnskey":12903,"78570":12904,"extract":12905,"ĠCount":12906,"LocalizedText":12907,"4156606":12908,"AckParameters":12909,"datum":12910,"Ġany":12911,"Ġangle":12912,"ĠPRED":12913,"TRUNC":12914,"maximumAL":12915,"Ġentries":12916,"Script":12917,"pmu":12918,"Ġbounding":12919,"lspf":12920,"Ġrandkey":12921,"Ġgeo":12922,"ĠHtmlCopy":12923,"ĠUNIT":12924,"SYSENTER":12925,"ĠDestroyString":12926,"Ġbcd":12927,"ĠSUBFRAME":12928,"Ġaligned":12929,"enterH":12930,"Ġfourmvbp":12931,"Ġfourmvswitch":12932,"executable":12933,"Ġdumper":12934,"Ġdoesn":12935,"hello":12936,"Ġusage":12937,"Ġcompleting":12938,"MakeTerminalBroadcaster":12939,"Ġimplicit":12940,"residual":12941,"REPAIR":12942,"29411138":12943,"NONKEY":12944,"NONREF":12945,"Ġ1000000":12946,"REMOTE":12947,"primary":12948,"FaxUdp":12949,"ItemString":12950,"tiles":12951,"couldn":12952,"APPLICATION":12953,"GOLDEN":12954,"Ġflash":12955,"Ġreassembled":12956,"ĠArray":12957,"RegisterProtocolHandler":12958,"72832":12959,"POSITIONING":12960,"slowCif":12961,"RegionParams":12962,"6683211":12963,"BroadcastMyLogicalChannel":12964,"HARDERROR":12965,"nicely":12966,"Ġnrda":12967,"abcdef":12968,"ĠFrameData":12969,"Ġmonnum":12970,"Ġunconsumed":12971,"Ġuncertain":12972,"0434278":12973,"Pointer":12974,"multiplePayloadStream":12975,"ATTRIBUTES":12976,"Ġbusnum":12977,"Combos":12978,"counters":12979,"80808080":12980,"ĠbcpKeyLen":12981,"Ġguessed":12982,"ĠGCRYMPI":12983,"ssim":12984,"chkpts":12985,"Ġreceiving":12986,"Ġrlcinf":12987,"Ġwckeyid":12988,"propspec":12989,"ĠPrintPreviewUI":12990,"ĠVpx":12991,"ĠNumRange":12992,"DiagnosticInfo":12993,"ACHA":12994,"SampleRate":12995,"WEIGHT":12996,"Ġpolarity":12997,"riteria":12998,"577846527":12999,"SessionID":13000,"Ġblend":13001,"ĠServer":13002,"3456789":13003,"ĠxmlGenericErrorContext":13004,"DefaultValueThrDef":13005,"799099":13006,"CYCLING":13007,"Ġ%.*":13008,"downloads":13009,"ExpectationsOn":13010,"ĠtmpTargetBufferLength":13011,"HintExpectationsOn":13012,"Ġsectcnt":13013,"ĠOmniboxEventProto":13014,"srvconf":13015,"LayoutTag":13016,"horz":13017,"Ġdendl":13018,"DECLASS":13019,"177469":13020,"Gravity":13021,"cleared":13022,"Ġourset":13023,"Ġanalyze":13024,"2860280":13025,"Ġsymcodelengths":13026,"ASSEMBLED":13027,"2870872490":13028,"bottom":13029,"24139371":13030,"ĠFromWebContents":13031,"Dependency":13032,"Ġaccumulator":13033,"ĠAttributeListEntry":13034,"TRANSITION":13035,"ĠMSGLEVEL":13036,"BEGIN":13037,"DateTime":13038,"SPRITE":13039,"Ġ1353431":13040,"ackMessageOnly":13041,"Ġnumhcblks":13042,"rtpPayloadType":13043,"atibilityLevel":13044,"SYMLINKS":13045,"ĠPasswordStoreChange":13046,"52941476":13047,"71425284":13048,"NEGATIVE":13049,"ĠInfoBar":13050,"Ġmcelem":13051,"Ġulti":13052,"enforcement":13053,"ĠMemory":13054,"feedback":13055,"352829411138":13056,"ĠVARIANCE":13057,"Ġsctpauthkey":13058,"depFec":13059,"Ġhishash":13060,"REDUCE":13061,"ĠFmgrInfo":13062,"ationLayerType":13063,"Ġ66671425284":13064,"04503":13065,"63336683211":13066,"8128341148":13067,"CALC":13068,"JAVASCRIPT":13069,"UWriteBytes":13070,"WRAPPER":13071,"XmlElement":13072,"ĠLOCO":13073,"arison":13074,"Ġmspack":13075,"Ġecdh":13076,"coalesce":13077,"Ġdrir":13078,"Ġdroppable":13079,"INDOOR":13080,"Ġghostview":13081,"telegram":13082,"intradc":13083,"Ġrangeline":13084,"Ġlavc":13085,"Ġstanullfrac":13086,"ĠULocaleBundle":13087,"165850554":13088,"ĠCBPY":13089,"ĠCYCLIC":13090,"ĠisEmptySegment":13091,"ĠGHashTable":13092,"ĠGSBPP":13093,"Ġnumlyrs":13094,"2233554":13095,"ĠLIBUSB":13096,"Repetition":13097,"ĠDECLINED":13098,"architectural":13099,"ĠUConverterResetChoice":13100,"04082870872490":13101,"343776":13102,"29730975":13103,"87217577846527":13104,"4032982860280":13105,"67112908498":13106,"1859629730975":13107,"ĠSetClientHintExpectationsOn":13108,"Ġ1981604082870872490":13109,"Ġ1911881859629730975":13110,"Classifier":13111,"DistributionCapability":13112,"PictureHeaderRepetition":13113,"100313404503":13114,"ĠTestSchemeClassifier":13115,"ĠRepeatedNotificationObserver":13116,"Ġ4423867112908498":13117,"7857059267":13118,"043427861":13119,"799099177469":13120,"Ġ1353431100313404503":13121,"3528294111382233554":13122,"Ġ6667142528452941476":13123,"6333668321124139371":13124,"8128341148043427861":13125,"1658505547857059267":13126,"8721757784652752372":13127,"4032982860280343776":13128,"Ġ4423867112908498696":13129,"7990991774694156606":13130,"%+":13131,"))\\\"":13132,"*'":13133,"-\\\\":13134,"/>\\\"":13135,"024":13136,"050":13137,"01010":13138,"2000":13139,"415":13140,"4136":13141,"512":13142,"657":13143,"812":13144,"860":13145,"9660":13146,"=\\\\\\\"":13147,"=@@":13148,"><":13149,"?\\\"":13150,"Ass":13151,"App":13152,"Bound":13153,"Binding":13154,"BADI":13155,"CAD":13156,"Cases":13157,"Criteria":13158,"Dime":13159,"Datum":13160,"Est":13161,"ECB":13162,"Font":13163,"Finished":13164,"FakeDebug":13165,"GI":13166,"HOR":13167,"Hold":13168,"HFG":13169,"Icon":13170,"Kind":13171,"Malic":13172,"NK":13173,"Need":13174,"NCompare":13175,"OCI":13176,"OVERR":13177,"Push":13178,"Queue":13179,"SCS":13180,"SCM":13181,"Support":13182,"TB":13183,"TD":13184,"UES":13185,"ULOCALE":13186,"VF":13187,"Was":13188,"Writer":13189,"YK":13190,"ZZ":13191,"]%":13192,"_'":13193,"aer":13194,"aint":13195,"amv":13196,"aarch":13197,"aunch":13198,"bc":13199,"bd":13200,"bsi":13201,"bprint":13202,"csi":13203,"csc":13204,"catch":13205,"ccontent":13206,"dot":13207,"dcon":13208,"dtp":13209,"dCB":13210,"dhe":13211,"damaged":13212,"eprintf":13213,"fw":13214,"frp":13215,"gtl":13216,"hw":13217,"hid":13218,"hCursor":13219,"iop":13220,"iment":13221,"ixel":13222,"iir":13223,"jis":13224,"mtr":13225,"mass":13226,"mace":13227,"nY":13228,"nen":13229,"nics":13230,"oe":13231,"ox":13232,"ouble":13233,"pkey":13234,"perror":13235,"pake":13236,"qt":13237,"qidx":13238,"qpel":13239,"qchanged":13240,"rsc":13241,"rgb":13242,"sce":13243,"sError":13244,"supervised":13245,"sanitize":13246,"sServer":13247,"surface":13248,"sasl":13249,"uadd":13250,"uge":13251,"vable":13252,"veto":13253,"watch":13254,"ware":13255,"xim":13256,"xdc":13257,"xvmc":13258,"yoffset":13259,"ĠLOW":13260,"Ġ$(":13261,"ĠCTR":13262,"ĠSTREAM":13263,"ĠDELTA":13264,"Ġrollup":13265,"ĠRequestId":13266,"Ġib":13267,"Ġiic":13268,"Ġssc":13269,"Ġslow":13270,"recur":13271,"revision":13272,"Ġcuser":13273,"Ġcirrus":13274,"sth":13275,"sto":13276,"sting":13277,"stroke":13278,"Ġtn":13279,"Ġtfi":13280,"Ġtight":13281,"Ġtly":13282,"Ġtitle":13283,"Ġtunnel":13284,"inference":13285,"inmemory":13286,"inverse":13287,"install":13288,"inherit":13289,"Ġpv":13290,"Ġptype":13291,"Ġpdata":13292,"Ġpow":13293,"ĠpType":13294,"ĠpKey":13295,"Ġpower":13296,"Ġpndn":13297,"Ġpchg":13298,"Ġ0755":13299,"Ġbmode":13300,"Ġiflags":13301,"ctext":13302,"Ġ124":13303,"Ġ114":13304,"Ġ154":13305,"rogate":13306,"Ġfprint":13307,"Ġfcs":13308,"Ġframerate":13309,"Ġfdbname":13310,"Ġmss":13311,"ĠmBytes":13312,"ĠmChannels":13313,"Ġmvbp":13314,"Ġ\\\"$":13315,"Ġ\\\"`":13316,"Ġ\\\"{\\":13317,"Ġ\\\"\\\\\\\"\\\"":13318,"Ġeol":13319,"Ġreg":13320,"Ġrever":13321,"alternate":13322,"cover":13323,"coup":13324,"coeng":13325,"Ġamode":13326,"Ġawait":13327,"Ġintno":13328,"Ġintpart":13329,"transpose":13330,"Ġdon":13331,"Ġdpass":13332,"Ġdgst":13333,"Ġdattablespace":13334,"INSTALL":13335,"INNER":13336,"Ġgre":13337,"Ġgap":13338,"Ġgdev":13339,"ĠgFakeDebug":13340,"anal":13341,"Ġvsize":13342,"Ġvfc":13343,"Ġvdst":13344,"Ġublock":13345,"Ġudst":13346,"Ġusr":13347,"Ġhval":13348,"Ġhap":13349,"Ġhpf":13350,"Ġhuge":13351,"loctext":13352,"tel":13353,"tex":13354,"Ġndev":13355,"Ġnick":13356,"Ġnavigate":13357,"Ġncolors":13358,"Ġnmean":13359,"sethalftone":13360,"setprops":13361,"ĠByte":13362,"ĠBORDER":13363,"ENOT":13364,"Ġconstra":13365,"Ġ257":13366,"integer":13367,"intfrp":13368,"Ġrname":13369,"Ġrdatacl":13370,"mpidump":13371,"assign":13372,"assigned":13373,"ineType":13374,"harmon":13375,"Ġlun":13376,"Ġlatch":13377,"Ġlayout":13378,"Ġlsf":13379,"CTable":13380,"cell":13381,"DEV":13382,"DETECT":13383,"ingbits":13384,"edges":13385,"STRAINED":13386,"exinit":13387,"Ġavc":13388,"Ġavformat":13389,"Ġelt":13390,"ĠACM":13391,"ĠAPP":13392,"Ġinject":13393,"Ġincipher":13394,"Ġstrip":13395,"Ġstrmake":13396,"Ġstrpool":13397,"Ġstrlcat":13398,"3280":13399,"Ġwoff":13400,"RELA":13401,"RECE":13402,"Ġoffsetx":13403,"Ġoffsetof":13404,"247":13405,"vbd":13406,"ĠcaseValue":13407,"Ġkeep":13408,"\\\\'\\\"":13409,"\\\\'%":13410,"ĠECB":13411,"ĠFOP":13412,"ĠFION":13413,"ĠFIE":13414,"strcmp":13415,"strained":13416,"ALTR":13417,"PEED":13418,"ĠUndef":13419,"ĠULOC":13420,"Ġmbmode":13421,"ĠCALL":13422,"ĠCBC":13423,"ĠHDR":13424,"ĠHASH":13425,"Ġlens":13426,"ORIG":13427,"OPENPGP":13428,"001":13429,"0030":13430,"Ġprovider":13431,"Ġyoffset":13432,"bucket":13433,"termin":13434,"Ġqc":13435,"Ġqtrle":13436,"isNull":13437,"locked":13438,"ĠTAR":13439,"ĠTIP":13440,"ĠThe":13441,"ĠTAK":13442,"Ġdatas":13443,"Ġdatacl":13444,"644":13445,"6467":13446,"framesize":13447,"Ġ807":13448,"IGATION":13449,"ATH":13450,"enough":13451,"Independent":13452,"ĠAVCOL":13453,"ĠAVStream":13454,"ilnp":13455,"ilineType":13456,"ipDelay":13457,"ĠMSS":13458,"ĠMPI":13459,"ublic":13460,"125":13461,"Ġoutkey":13462,"msmp":13463,"UNDECODE":13464,"ĠSk":13465,"ĠSIX":13466,"ĠSOCK":13467,"ĠSPEED":13468,"race":13469,"Ġ''":13470,"Ġ'*'":13471,"Ġ'_'":13472,"Ġchost":13473,"ĠPS":13474,"ĠPack":13475,"ĠPDFA":13476,"prct":13477,"prtc":13478,"shuffle":13479,"cached":13480,"CID":13481,"ERRORS":13482,"Ġisdn":13483,"Ġisupper":13484,"ĠisDone":13485,"ART":13486,"obic":13487,"obsolete":13488,"memalign":13489,"Conversion":13490,"ĠGSW":13491,"mvr":13492,"Ġstepsizes":13493,"skb":13494,"redu":13495,"Ġvpm":13496,"Ġkeytype":13497,"Ġkeyring":13498,"usub":13499,"numerator":13500,"numeric":13501,"referral":13502,"ĠgetNext":13503,"ĠgetDynamic":13504,"Ġmyerror":13505,"ĠILACE":13506,"Ġyyl":13507,"Ġyylen":13508,"Ġyyalloc":13509,"CHAT":13510,"CHDR":13511,"NOW":13512,"ĠcurrentMaskToUnicode":13513,"Ġmvy":13514,"Ġmvmasks":13515,"Ġnextcp":13516,"poll":13517,"indexmapped":13518,"modeinfo":13519,"ĠLONG":13520,"ĠDF":13521,"ĠDY":13522,"ADVAN":13523,"ADouble":13524,"Ġidmemory":13525,"buffering":13526,"ular":13527,"ulative":13528,"CONF":13529,"CONSTRAINED":13530,"CEDES":13531,"Ġ650":13532,"Ġ625":13533,"EXPI":13534,"BITSTREAM":13535,"ĠtmpJob":13536,"ĠtmpAppend":13537,"undant":13538,"UETO":13539,"btav":13540,"Ġdia":13541,"Ġdiag":13542,"Ġdictionary":13543,"rdu":13544,"rdsp":13545,"Ġclause":13546,"Ġsubroutine":13547,"ĠsharedData":13548,"Ġshutdown":13549,"allocation":13550,"Ġcbcr":13551,"Ġcblkt":13552,"caleNCompare":13553,"comps":13554,"comparison":13555,"Ġscv":13556,"Ġscfi":13557,"Ġscanner":13558,"errnop":13559,"Stmt":13560,"Ġnewbest":13561,"scanner":13562,"ĠRand":13563,"ĠRFC":13564,"Ġattic":13565,"loadh":13566,"Ġmsv":13567,"Ġbitnames":13568,"nsap":13569,"Ġzmbv":13570,"Ġadmin":13571,"387":13572,"3824":13573,"atches":13574,"10799":13575,"314":13576,"Ġfilelength":13577,"Ġmaxcnt":13578,"5536":13579,"ioc":13580,"Ġstreamid":13581,"HELL":13582,"periment":13583,"268":13584,"0479":13585,"ĠVAP":13586,"ĠVSB":13587,"Ġ1280":13588,"ĠNINSTANCES":13589,"ĠGetMult":13590,"ĠGetPixel":13591,"ĠGetOrigin":13592,"ĠGetDomain":13593,"ĠGetWeb":13594,"56250":13595,"Ġ108":13596,"timecode":13597,"Ġcompno":13598,"FRAMESIZE":13599,"Ġrdcost":13600,"Procedure":13601,"Ġ\\\"%+":13602,"113":13603,"8054":13604,"lirp":13605,"201718":13606,"342":13607,"Exceeded":13608,"Exists":13609,"Ġalg":13610,"Ġposp":13611,"maxlen":13612,"Ġtimebase":13613,"Ġsetw":13614,"Bucket":13615,"ToList":13616,"Ġlisten":13617,"Ġtables":13618,"wordv":13619,"multip":13620,"multichannelType":13621,"Ġslash":13622,"ACPRED":13623,"IVED":13624,"ĠQINDEX":13625,"ĠQMFB":13626,"ĠYYP":13627,"chars":13628,"899":13629,"Ġworkarea":13630,"1782":13631,"RTPP":13632,"Ġpdn":13633,"diffport":13634,"157":13635,"Ġprevcp":13636,"CATEGORY":13637,"tags":13638,"tagtree":13639,"leration":13640,"2904":13641,"Ġvarnos":13642,"Ġtxfrm":13643,"rolname":13644,"portedBound":13645,"IPV":13646,"357":13647,"3542":13648,"409":13649,"40101":13650,"ĠrfbSet":13651,"ĠrfbCommand":13652,"UNIMP":13653,"309":13654,"TOMULT":13655,"373206":13656,"TripDelay":13657,"549":13658,"5467":13659,"54201718":13660,"Ġaccess":13661,"parts":13662,"Ġoldcount":13663,"ĠoldTarget":13664,"Ġsumsq":13665,"2826":13666,"servername":13667,"VERSYM":13668,"ĠASF":13669,"resultmask":13670,"resultMask":13671,"ĠKERN":13672,"PRECEDES":13673,"ĠattrFirst":13674,"2781":13675,"ayloadType":13676,"OPTS":13677,"WOULD":13678,"userInput":13679,"ĠInherit":13680,"videoCapability":13681,"\\\\\\\".\\\"":13682,"CPUID":13683,"moment":13684,"blank":13685,"zeroes":13686,"Ġpartname":13687,"Ġhttpversion":13688,"Ġhandled":13689,"ĠcontentParam":13690,"transformed":13691,"INTEREST":13692,"Translate":13693,"GetI":13694,"GetRows":13695,"jobinfo":13696,"ciphers":13697,"ĠARDP":13698,"IBUTE":13699,"181":13700,"ASSOCI":13701,"ĠextBuf":13702,"Ġpgp":13703,"Ġdoubledl":13704,"AndSize":13705,"surogate":13706,"Ġstatbuf":13707,"raps":13708,"fromUnicode":13709,"fromUWriteBytes":13710,"Ġpcnet":13711,"StringAndSize":13712,"PLTE":13713,"ĠdocList":13714,"ĠSetDownload":13715,"Ġsbrdsp":13716,"READING":13717,"FromStringAndSize":13718,"maclength":13719,"omic":13720,"ĠPyErr":13721,"Ġrecv":13722,"ĠINPLACE":13723,"ĠSECURITY":13724,"Obj":13725,"RequestMultiplexEntryRejectionDescriptions":13726,"pgrs":13727,"Clause":13728,"Ġauthneg":13729,"SYN":13730,"ImageHeader":13731,"Ġstatsdir":13732,"ĠPIMV":13733,"WithDownloads":13734,"Ġlowsurogate":13735,"Diff":13736,"Ġtlx":13737,"Ġtlprct":13738,"Ġpevt":13739,"4465":13740,"ForTesting":13741,"cntl":13742,"PCF":13743,"within":13744,"CapacityExceeded":13745,"sender":13746,"sendThisSource":13747,"authid":13748,"Ġcalling":13749,"PARATE":13750,"ĠCOAP":13751,"ĠCOEFF":13752,"MINOR":13753,"PictureNumber":13754,"ĠIsRegistered":13755,"Ġthreshes":13756,"Ġwordc":13757,"Ġtranslated":13758,"Shift":13759,"Shutdown":13760,"mcv":13761,"Ġ'%'":13762,"ĠNODECLASS":13763,"ĠProduct":13764,"Resource":13765,"HeaderFEC":13766,"udp":13767,"Apprtc":13768,"ĠTHROW":13769,"ĠTHIRT":13770,"ĠPOSITION":13771,"ĠPOSIX":13772,"ClientHints":13773,"Ġbpad":13774,"ThisString":13775,"685467":13776,"Ġqemud":13777,"ĠRDH":13778,"ĠRDW":13779,"OfThisString":13780,"ĠMagickBoolean":13781,"ĠCheckP":13782,"Ġformant":13783,"ALLOWED":13784,"38459":13785,"BELOW":13786,"pfn":13787,"ĠRetr":13788,"ĠReportedBound":13789,"crcLength":13790,"castps":13791,"GBL":13792,"faststart":13793,"Ġvectable":13794,"Ġbitmaps":13795,"MOVE":13796,"ReadBuffer":13797,"ahoo":13798,"Ġwindows":13799,"cumulative":13800,"Ġrealm":13801,"VARI":13802,"ĠFAIL":13803,"0538459":13804,"ĠNEW":13805,"Historian":13806,"when":13807,"ĠCreateVi":13808,"BACKUP":13809,"DPCM":13810,"RGBA":13811,"padded":13812,"Functions":13813,"FunctionInfo":13814,"Ġndsa":13815,"Ġpostdata":13816,"Ġpostfix":13817,"RUNNING":13818,"Ġabstime":13819,"Ġlimits":13820,"vpx":13821,"Ġopened":13822,"makeTerminalBroadcaster":13823,"makeMeChair":13824,"inedGravity":13825,"ĠEVBUFFER":13826,"ĠSBHUFFDT":13827,"184979":13828,"ĠFILEGEN":13829,"Ġsavedconfig":13830,"ĠsavedPassword":13831,"mediaPacketization":13832,"Ġlazy":13833,"Ġlauncher":13834,"customPicture":13835,"customPCF":13836,"Ġfragments":13837,"Ġccinfo":13838,"Ġpopsp":13839,"nnmod":13840,"CALLING":13841,"ĠComm":13842,"Acknowledge":13843,"Ġweighted":13844,"ĠTrue":13845,"ĠAppendMatches":13846,"Expanded":13847,"ECPRIVATEKEY":13848,"Redundancy":13849,"frags":13850,"LIBC":13851,"AnnexADouble":13852,"JOBID":13853,"5377":13854,"530479":13855,"Disposition":13856,"Display":13857,"ĠDIAM":13858,"ĠLoop":13859,"ĠLocaleNCompare":13860,"CipherError":13861,"ĠExpectBucket":13862,"MTRRphys":13863,"IRQ":13864,"Ġgetenv":13865,"ĠUNLOCK":13866,"ĠUNINTEREST":13867,"ĠThrowException":13868,"RCV":13869,"acceleration":13870,"docroot":13871,"denominator":13872,"Ġreplacement":13873,"ĠCURS":13874,"quantizers":13875,"ĠTimeDelta":13876,"FieldOrderCnt":13877,"BitRates":13878,"Ġfourmv":13879,"ACTER":13880,"enumerate":13881,"help":13882,"TransportMask":13883,"networkAddress":13884,"ENCODINGBYTE":13885,"BackChannel":13886,"Remove":13887,"sameport":13888,"DENOI":13889,"NONBLOCK":13890,"846246":13891,"ĠINITIAL":13892,"crowsetprops":13893,"ParsePos":13894,"gtly":13895,"existent":13896,"RANDOM":13897,"instant":13898,"extendedPAR":13899,"ĠSetPixelRed":13900,"ĠSetPixelGreen":13901,"CBPCY":13902,"alloon":13903,"ĠUnknown":13904,"EnhancementOptions":13905,"Ġmajor":13906,"Symbol":13907,"Ġtrying":13908,"RIER":13909,"YSADDR":13910,"ĠappendPQExpBufferStr":13911,"ĠOFB":13912,"Ġgranted":13913,"ĠSearch":13914,"ĠunicodeMode":13915,"ĠparseArrayComplex":13916,"Ġmergeable":13917,"EmptyExtensionService":13918,"LZMA":13919,"stdout":13920,"ĠHintNew":13921,"ĠPHYSADDR":13922,"ĠbcpKeyBuf":13923,"separateStream":13924,"GLOBALS":13925,"copes":13926,"Ġkwaj":13927,"ĠLIBFDATETIME":13928,"rfbSetScale":13929,"ĠVirtIO":13930,"mounting":13931,"TempDir":13932,"Ġ1000000000":13933,"Ġreceived":13934,"fractional":13935,"BLUETO":13936,"Ġsuccessful":13937,"gstn":13938,"15966":13939,"ĠquotePairOne":13940,"ĠbcpTypeBuf":13941,"DLERROR":13942,"Deno":13943,"Partition":13944,"otherlen":13945,"innerstatuscode":13946,"ĠCAFChannel":13947,"ĠDownloadCore":13948,"associated":13949,"Increase":13950,"WAJ":13951,"WAIT":13952,"ĠOPF":13953,"additionalinfo":13954,"ĠTransportSecurity":13955,"ĠInitializeEmptyExtensionService":13956,"CRowSeekAt":13957,"guess":13958,"Ġterm":13959,"Ġwaiting":13960,"Ġ8461782":13961,"Ġexisting":13962,"ĠJobID":13963,"SignInDelegate":13964,"ĠStartHttpsServer":13965,"ĠTransferFunctionInfo":13966,":*/\\\"":13967,"SplFileInfo":13968,"ĠisLegalSequence":13969,"ĠNonMalic":13970,"Ġdimension":13971,"ĠEndGetI":13972,"synthesis":13973,"periodic":13974,"040685467":13975,"ĠxmlDictLookup":13976,"DSCF":13977,"WSGI":13978,"bidir":13979,"pulse":13980,"Ġtcpinfo":13981,"synchron":13982,"ĠxsltDocumentPtr":13983,"ĠIsFullscreenForTabOrPending":13984,"ĠATTRIBUTE":13985,"datatmp":13986,"ĠBookmarkBubbleSignInDelegate":13987,"broadcastMyLogicalChannel":13988,"ccolumngroup":13989,"Ġ237530479":13990,"AnnexCCapability":13991,"SkewIndication":13992,"EBX":13993,"Ġpassed":13994,"utofill":13995,"ALIASING":13996,"ĠUSAGE":13997,"ĠColor":13998,"ĠSameH":13999,"NAVIGATION":14000,"DOCUMENT":14001,"Ġhyperv":14002,"ĠProtocolHandlerRegistryTest":14003,"ĠArchiveHandle":14004,"caggregspec":14005,"ĠCoderError":14006,"APTitle":14007,"Binary":14008,"BARRIER":14009,"PAYLOAD":14010,"pvfs":14011,"Ġsmatcher":14012,"OPERATION":14013,"velope":14014,"ĠMSKWAJ":14015,"ĠrfbProcessFileTransfer":14016,"PRESENTATION":14017,"ĠExitFunction":14018,"4136373206":14019,"Associ":14020,"BADIP":14021,"CADENCE":14022,"Dimensions":14023,"HORZ":14024,"HFGen":14025,"aerobic":14026,"ccontentrestrict":14027,"dconly":14028,"dCBW":14029,"gtlx":14030,"ioport":14031,"iiratio":14032,"jisx":14033,"scenes":14034,"ximity":14035,"inheritance":14036,"ĠmBytesPerPacket":14037,"ĠmChannelsPerFrame":14038,"Ġreversed":14039,"ĠgFakeDebugLog":14040,"ĠusrIdent":14041,"Ġhugebuf":14042,"harmonic":14043,"CTableColumn":14044,"cellaneous":14045,"ĠACMatches":14046,"RECEIVED":14047,"ĠFIONBIO":14048,"ĠUndefinedGravity":14049,"ĠTIPC":14050,"64670538459":14051,"ilineTypeMetrics":14052,"UNDECODED":14053,"ĠSIXTY":14054,"ĠgetNextDynamicWindow":14055,"ĠgetDynamicOffset":14056,"ADVANCED":14057,"ĠtmpJobID":14058,"btavdtp":14059,"107992781":14060,"ĠGetMultilineTypeMetrics":14061,"ĠGetDomainState":14062,"ĠGetWebUI":14063,"RTPPayloadType":14064,"TOMULTPOW":14065,"5420171864670538459":14066,"ĠInheritException":14067,"ĠNODECLASSMASK":14068,"ĠTHIRTY":14069,"ĠMagickBooleanType":14070,"ĠReportedBoundsError":14071,"ĠCreateVisitInfoVector":14072,"184979846246":14073,"ExpandedNodeId":14074,"AnnexADoubleFlag":14075,"ĠExpectBucketCount":14076,"ĠUNINTERESTING":14077,"BLUETOOTH":14078,"ĠDownloadCoreService":14079,"Ġ8461782184979846246":14080,"ĠNonMalicious":14081,"Ġ237530479040685467":14082,"4136373206107992781":14083,"#%":14084,"&'":14085,"':":14086,"'))":14087,").":14088,"-$(":14089,"/*!":14090,"211":14091,"280":14092,"258":14093,"355":14094,"467":14095,"4779":14096,"4501":14097,"514":14098,"601":14099,"869":14100,"825":14101,"8398":14102,"8283":14103,"856250":14104,"<'":14105,"=(":14106,"Autocomplete":14107,"Be":14108,"BRE":14109,"Bidi":14110,"BRACE":14111,"Cx":14112,"CCS":14113,"CNAME":14114,"Cancel":14115,"Der":14116,"Dist":14117,"DPTR":14118,"Esc":14119,"EFLAG":14120,"EESCAPE":14121,"ELEMENT":14122,"FET":14123,"Fail":14124,"Ho":14125,"Height":14126,"Htmp":14127,"HALANT":14128,"It":14129,"ICS":14130,"ISE":14131,"JOIN":14132,"LCK":14133,"Lower":14134,"MIF":14135,"NLA":14136,"OIS":14137,"Other":14138,"Opts":14139,"PB":14140,"PF":14141,"PSH":14142,"Printf":14143,"PUBKEY":14144,"RF":14145,"RS":14146,"SL":14147,"Sn":14148,"Sax":14149,"SION":14150,"SCHE":14151,"SIST":14152,"SMC":14153,"SMI":14154,"SCSU":14155,"Tree":14156,"TONE":14157,"Timing":14158,"UCHAR":14159,"Under":14160,"VD":14161,"WIFI":14162,"XSTRING":14163,"YLE":14164,"YNC":14165,"ZE":14166,"ZLIB":14167,"]'":14168,"af":14169,"arent":14170,"bry":14171,"bmodes":14172,"cn":14173,"cion":14174,"cvm":14175,"cstat":14176,"ding":14177,"dated":14178,"eing":14179,"even":14180,"fht":14181,"fwd":14182,"frequency":14183,"fatal":14184,"framerate":14185,"gp":14186,"hit":14187,"hip":14188,"hdt":14189,"ised":14190,"kid":14191,"lq":14192,"lig":14193,"mss":14194,"mkey":14195,"mfb":14196,"nit":14197,"ned":14198,"oS":14199,"pframe":14200,"pcm":14201,"pnp":14202,"ssize":14203,"sIn":14204,"sage":14205,"sched":14206,"tz":14207,"uum":14208,"ulename":14209,"vic":14210,"vrc":14211,"vga":14212,"wchar":14213,"xE":14214,"xl":14215,"xind":14216,"xfer":14217,"yind":14218,"zo":14219,"zt":14220,"zu":14221,"zag":14222,"Ġ$":14223,"ĠITEM":14224,"ĠLOCALE":14225,"ĠVERSYM":14226,"Ġibuf":14227,"Ġilb":14228,"Ġiadst":14229,"Ġsot":14230,"Ġsra":14231,"Ġsft":14232,"Ġsos":14233,"Ġsvbr":14234,"Ġslirp":14235,"rehash":14236,"reinit":14237,"render":14238,"rewind":14239,"Ġcrd":14240,"ntuples":14241,"stt":14242,"stos":14243,"desired":14244,"atype":14245,"atLanguage":14246,"seed":14247,"seckey":14248,"lex":14249,"Ġtname":14250,"Ġtprocs":14251,"onJob":14252,"onetype":14253,"inbody":14254,"incoming":14255,"Ġpitem":14256,"Ġplease":14257,"ĠpBcpKey":14258,"Ġbias":14259,"Ġbanner":14260,
[...]
