#version: 0.2
Ġ (
Ġ )
Ġ ,
; \
Ġ ;\
Ġ -
Ġ i
Ġ =
Ġ s
r e
Ġ c
Ġ- >
Ġ *
n t
e r
s t
\ "
d e
Ġ {
a t
s e
l e
Ġ t
Ġ{ \
Ġ }
o n
i n
Ġ p
Ġ [
Ġ ]
Ġ} \
Ġ 0
Ġ b
a r
Ġi f
Ġ &
m e
c t
Ġ 1
r o
Ġ f
Ġ +
Ġ m
Ġ \"
Ġ e
Ġ re
a l
c o
s i
Ġ .
Ġ o
Ġ a
u r
A S
Ġi nt
f f
i t
t r
Ġ d
I N
o r
Ġ g
a n
S T
p e
z e
Ġ "
Ġ v
Ġ u
a me
Ġ h
L L
a d
l o
t e
e t
Ġ n
N U
i d
Ġc on
Ġ #
se t
Ġ :
E R
AS N
Ġ B
le n
i c
" :
E N
Ġre t
Ġcon st
y pe
Ġ 2
i nt
at a
Ġ r
Ġ <
re e
NU LL
Ġ NULL
u t
Ġ !
m p
c k
si ze
Ġ ASN
Ġ= =
a s
in e
h ar
Ġ l
Ġ de
ur n
C T
Ġret urn
Ġc o
Ġ _
ff set
t o
a g
c h
Ġ x
co de
a se
c e
re a
Ġs t
O N
ct x
D E
t h
in g
n d
u e
e d
f o
i on
p i
ST R
e x
s s
S S
Ġa v
ar g
IN G
r ame
Ġ |
Ġe l
at e
Ġ A
Ġ+ +
Ġel se
C K
Ġi n
ad d
a b
Ġs tr
3 2
u m
Ġb u
Ġ >
Ġ w
i le
R E
Ġo ffset
" ,
n c
2 4
SS L
l t
STR ING
v b
O P
Ġc har
Ġc ase
v e
rea k
Ġ k
Ġ& &
Ġb reak
\ \
Ġ E
i g
Ġh f
i ze
Ġ F
e ct
O F
Ġ# #
v er
st r
A L
I T
o id
P E
Ġ U
y te
Ġm b
Ġu n
ex t
Ġt vb
Ġs k
ST A
1 6
p t
Ġde f
v al
t ype
o de
24 5
t ree
Ġt ype
Ġ 4
an d
Ġ C
Ġ H
d ata
M B
Ġ len
Ġv oid
O R
t x
ab le
j ect
p ro
OP EN
Ġ+ =
Ġ! =
IN T
L E
0 0
i f
Ġs ize
F I
OPEN SSL
Ġ OPENSSL
e l
Ġdef ine
g th
Ġp ro
Ġ y
Ġf or
b u
ro r
t er
in fo
e y
Ġc tx
Ġ q
i s
u p
STA CK
V P
a p
p tr
h as
lo ck
Ġ T
Ġ 3
at ic
Ġ arg
o t
Ġbu f
si g
i st
Ġd ata
a ck
6 4
M E
Ġav ctx
Ġ j
r y
f rame
s er
Ġ 8
C S
Ġc ur
e m
Ġe x
Ġ %
I G
sig n
L O
u re
A T
e n
u lt
o ur
A N
I n
g et
S E
n ame
has h
ĠA V
i l
Ġ er
our ce
s p
c on
Ġpro to
o p
Y PE
ĠB N
i p
Ġ M
u b
MB CS
1 2
i de
Ġo ut
sign ed
de x
m s
U N
L MBCS
Ġun signed
ff er
ER R
me nt
si on
ag e
at t
Ġ S
p ut
DE C
m m
Ġ| |
T YPE
Ġu int
pro ject
} ,
Ġ{ "
d i
r a
Ġ '
Ġc h
Ġ P
NU M
e s
Ġc pi
FI LL
ĠF T
ĠE VP
p r
E S
s h
ĠH FILL
AS E
e w
c a
Ġo p
C I
Ġv al
l ag
h t
u nt
Ġ} ",
ro w
ĠB ASE
ar t
EN C
i m
CT X
ERR OR
a x
C o
r c
Ġb yte
Ġi s
rea m
n o
it em
p y
A R
Ġs ource
ON E
ĠB IG
ĠBIG NUM
o b
Ġn ame
e nt
me m
Ġf rame
l ine
L A
e st
C on
I ON
Ġ G
C har
N ONE
Ġre f
f ile
D I
o f
re ss
u n
Ġf i
Ġm i
Ġg o
Ġe nd
Ġs te
b i
C O
lo c
12 8
m v
ct ure
nt ext
ver ter
Ġste p
s k
u nc
t p
re d
re nt
DE F
Ġv p
Ġgo to
b it
E D
Ġk ey
f i
a st
Ġp i
or t
it y
at ion
Ġarg s
er t
Ġ1 6
e ad
m b
Ġst atic
Ġre s
lo g
u s
o ffset
q ue
Ġer r
p ar
de f
Ġg ctx
Ġt ree
lag s
U T
i me
ic e
Ġd st
n um
Ġ< <
Ġc m
len gth
arg et
P H
o w
Ġn um
Ġ ?
Ġ> >
co l
2 2
Ġt o
p l
re f
Ġb lock
Ġg et
Ġval ue
st atic
n v
R O
Ġm y
f unc
Ġ I
Ġy y
de bi
debi an
CI PH
Ġp tr
al l
Ġl ine
f ree
IN E
f t
b o
C H
V AL
Ġp ar
add ress
R A
a y
I Z
c m
ig ht
I D
N O
u ct
Ġcur rent
M P
ch e
Ġm v
Ġn ext
Ġ> =
Ġs e
k ey
mp le
Ġsize of
I ME
te n
ead er
q u
p o
Ġ STACK
in dex
ss l
ry pt
m ode
Ġ L
Ġ D
Ġ le
e nc
Ġ ENC
er and
U R
Ġg b
a c
id th
A D
ro m
Ġlen gth
Con verter
Ġi d
bu ffer
R e
an g
u l
C ON
DEF INE
Ġt arget
C E
Ġo ssl
Ġ 6
A X
ack et
er ror
CIPH ER
E X
r it
Ġ 5
in line
Ġ_ _
re ad
u int
B IT
e ight
st ream
a nt
tr a
B LE
b lock
as k
b yte
Ġco de
str ing
o l
bu f
LO G
bit s
Ġt mp
u nd
im it
Ġl ast
In fo
or m
pr int
Ġw h
U E
in d
Ġend if
o d
i ve
co unt
B U
Ġstr ide
b t
F F
Ġd i
b er
a m
Ġt h
r d
val ue
o ut
Ġc l
Ġb ase
Ġstr uct
Ġb s
t able
bt att
Ġs ub
E T
as s
Ġer ror
Ġp r
lt er
Ġin fo
at h
Ġs rc
or d
re s
on g
r ror
d r
Ġ DEC
G S
g s
Ġs h
CT ION
U INT
Ġ SSL
an n
s ub
al loc
Ġex tra
Ġf lags
Ġ< =
pi cture
LO CK
LA RE
t t
Ġc b
ĠDEC LARE
IT E
n ew
Ġs a
N A
ro up
v ice
le ment
k t
F L
Ġout put
F UN
Ġwh ile
Ġ mem
Ġd o
ca le
co d
co mp
P T
U n
D ata
ĠE X
que st
at us
Ġin put
Ġ 7
Ġp info
Ġe tt
Ġs c
er r
ch ro
S t
m l
D AT
V ER
A BLE
e mp
if t
te d
S R
enc rypt
S IZ
e pi
SE T
el d
ĠU LMBCS
Ġn ew
B O
a il
p u
Ġun i
ct or
s c
Ġco l
E rror
Co ntext
m age
Ġ R
Ġ att
A ES
lo ad
s a
Ġle ft
Ġ /
Ġm s
Ġop code
Ġbyte s
e nd
x el
chro me
L S
c mp
i v
m i
E G
S ER
w rit
l ist
ct ion
O B
Ġb it
SIZ E
an e
ann el
Ġextra Info
Ġr c
A r
n s
ve l
Ġp ic
FUN CTION
C h
22 5
Ġ z
ITE M
ang e
f orm
Ġint er
e lement
a ult
In dex
Ġres ult
o st
Ġa d
Ġf f
n ce
3 8
b r
Ġ O
at ch
1 0
con st
U L
Ġw idth
B yte
c f
Ġbu ffer
STR FL
STRFL GS
Ġ DEFINE
p red
Ġe n
Ġp l
ot ion
Ġst ate
ms g
Ġt emp
T IME
a in
c l
a ce
Ġa ss
ame ter
Ġuni Char
Ġu ser
c py
Ġp re
T T
w it
print f
ten sion
on e
v m
co py
3 1
s pi
Ġ Y
E CT
s y
Ġl ong
Ġco spi
C ap
l k
Ġt r
Ġf ile
C M
sh ift
OB J
Ġde st
Ġi v
T R
Ġop erand
K E
or k
c s
L I
PE CT
Un i
DAT A
Ġm ax
F O
ar ch
DI AN
Ġx d
M AX
O DE
Ġc nv
lo w
ĠEX PECT
5 5
EN DIAN
Ġline size
m in
L imit
Ġm ode
C ode
p acket
Ar gs
Ġq u
Ġass ert
an s
pt ion
i o
Ġh eight
Ġst ream
EN T
Ġco unt
A LL
Ġ VP
Ġg roup
str ide
Ġb est
T E
Ġco nt
o k
H E
p kt
o g
u id
Ġ me
H AS
BO O
Ġ \\
ra y
RA ME
e re
Ġs er
OBJ ECT
Ġi mage
p er
Ġl h
cod ing
Ġd at
ca che
EG ER
y n
ĠU Converter
Ġj ob
st ate
2 6
LE AN
KE Y
x t
sp on
BOO LEAN
val id
FUNCTION S
0 4
h eader
Ġ V
in it
Ġsk ip
P R
Ġ1 2
f b
Ġ N
a v
m t
Ġa s
A P
U RE
spon se
st art
ab il
Ġth is
Ġg cm
de v
ĠG et
Ġbyte stream
5 6
Ġf ree
G EN
de code
po s
c p
Ġ1 0
r i
INT EGER
Ġg uint
Ġst art
T H
t ime
Ġco mp
p h
ro und
BU G
Ġd is
HAS H
F RAME
Ġpl ane
wit ch
l y
x y
Ġs br
L EN
f ig
Ġr d
P ro
r st
w sp
st at
abil ity
nt ry
00 00
IN VAL
pe nd
ob ject
Ġ\" %
int er
1 1
8 0
ms wsp
GEN ER
a ms
l d
l i
p ath
UT F
Ġ- -
ff ff
Ġmb mi
I S
d o
fi lter
2 0
3 4
Ġid x
Ġa bo
Ġav pkt
I O
i al
q l
at or
E x
Ġ al
Ġstr ing
op erand
Ġabo ve
Ġp o
Ġs witch
g ment
Ġ- =
Ġinter n
Cap ability
ere nce
TT P
Ġk s
m ax
Ġ row
Ġo ff
Ġt ime
r ate
Ġ X
Ġs et
AL SE
R L
v c
Ġx ml
ide o
UN D
re ate
a re
Ġ' \\
1 3
1 9
P I
Ġ INT
5 0
k e
O W
d up
Ġe nv
at tr
Ġp LMBCS
u st
GENER AL
Ġtype def
Ġm otion
m ask
p s
ar ray
lo b
Ġmem cpy
en gth
B u
re quest
Ġe nc
Ġ 9
or ted
Ġpr int
L IT
se d
T o
p re
8 4
Q U
f lags
er o
INVAL ID
ĠA ES
Ġ| =
v ar
Ġ 32
Ġ RE
Ġh eader
R Y
1 4
Ġl ist
Ġpi xel
PR INT
e ff
ss age
ay er
mple s
id x
l u
st em
e g
u uid
si t
Ġt able
al se
Ġh b
ul l
CT IME
Ġf rom
UT CTIME
b ig
di r
ĠB LOCK
T ype
Ġdef ault
w ord
en er
ĠAV ERROR
ht tp
Ġu l
m od
che ck
p ert
Ġa p
Ġfi eld
s l
Ġc pu
r p
re sh
le an
s rc
m ult
Ġp a
IN FO
Uni code
RY PT
S ource
ES C
Ġde code
t tp
M ode
u ff
Ġcon verter
I L
Ġre ad
r tp
Ġs f
Ġoffset s
ĠF F
S P
Ġif def
EX T
c b
Ġg ot
Ġs l
er y
Ġv er
ic k
V al
o ff
Ġp b
ent ry
A C
F LA
an ce
DE BUG
Ġin it
T LE
Ġst atus
if ic
LIT TLE
or y
ig h
form at
at ure
ig n
A G
y nc
se ct
Ġst d
mb cs
D e
ur l
I V
k en
ĠB IO
con v
num ber
NO T
qu ant
Ġ Q
Ġst ack
Ġin dex
t s
Ġ loc
Ġo b
Ġs pl
7 7
ct ive
ver sion
IZ ED
Ġ MB
de c
Ġdi r
qu al
ĠY Y
co ntext
pe n
Ġbu lk
Ġw mem
il d
RYPT O
d ate
ĠC RYPTO
s co
Ġ LMBCS
Ġt ag
Ġp h
Ġt op
Ġcon n
ce ss
m ain
Ġ W
B LOCK
c har
w idth
c u
f e
ĠU Char
Ġco ntext
ON G
FF ER
8 9
d vm
writ ten
GENERAL IZED
GENERALIZED TIME
un k
NA ME
ve nt
lo se
FI G
BU FFER
Ġs p
pe c
writ e
G CM
H TTP
o o
p ack
it ion
Ġw ork
it h
len ame
Ġr r
byte s
Val ue
ut h
h and
Ġ lo
le vel
sk ip
UR L
1 7
R P
R T
Ġp d
Ġm ask
int ra
T LS
m ap
Ġul mbcs
d b
ile d
Ġfi rst
ow n
i ax
a iled
di ff
S U
p c
Ġr ate
ĠC HE
ĠCHE CK
Ġp s
Ġco mm
Ġpi cture
O K
Ġpar am
sy stem
TR UE
Ġp Args
no w
p ort
6 6
e p
C C
ĠM AX
i r
CT RL
M ODE
ind ow
Ġb size
bu g
Ġpar se
1 5
b s
Ġo pt
Ġbu ff
Ġpre v
C AT
s cale
00 0
Bu ffer
t ag
l at
Ġu v
h er
sit ion
3 9
Ġfi lter
cf g
Ġtr ue
F rame
b ase
G RP
S et
Ġms g
l er
Converter Index
2 9
W AES
Ġv ar
Ġh as
ĠH WAES
Ġsource Limit
B IG
Ġt x
Ġf alse
Ġvp x
Error Code
Ġt est
ro l
Ġe ntry
Ġpi ct
INVALID DATA
D U
g cm
l s
M V
p orted
f lag
AN D
ENC E
v oid
Ġj big
f ind
le ft
pe ct
F A
l c
o nt
c ip
in ue
ĠF ALSE
row ser
ĠI S
V I
) \"
L o
I P
O CT
S PE
b ack
Ġx y
s ql
t vb
de nt
Ġyy v
OCT ET
8 7
fi eld
3 5
6 9
re ct
d ns
i es
Ch annel
E n
Ġi ptr
add r
comp func
Ġf d
te xt
ap pend
es sion
Ġnum ber
Ġbit s
M LS
e ck
l imit
ĠT SR
fi x
stat s
ĠTSR MLS
= %
co rd
il l
arch ive
4 0
Ġr fb
CO DE
Ġyyv sp
U S
AS T
now n
A d
h eight
Ġint ra
Ġcont inue
o ck
s b
UN I
re sponse
se c
Ġe i
lo at
Ġdis sect
a ke
Ġe v
3 0
i ed
FLA G
T O
Ġ J
Ġsa ve
C UR
de d
Ġdefine d
rom a
3 7
P ar
Ġb o
no const
par ameter
o re
F OR
con n
Ġf lat
Ġmy sql
5 9
d is
i ent
Ġm in
co nt
co eff
Ġu p
T r
m at
u le
Ġs ession
ser t
Ġser vice
Ġo f
Ġ archive
pe g
Ġpr iv
Ġver sion
SPE CI
5 4
b e
c ry
g e
u v
u di
Ġ Z
Ġa c
CON ST
udi o
O ffset
re q
Ġcode c
E Q
Ġse gment
p ic
p art
in valid
Ġo ld
r ag
val s
9 31
Ġt ot
block s
Ġp acket
S tr
Ġs um
ub le
ĠS K
ord er
Ġsc an
2 8
Ġ VAL
Ġ1 5
dec rypt
L HASH
f d
g ist
ac ity
T est
n ode
Ġs y
ser ver
M T
Ġd ct
CT URE
VER S
L ist
Ġ AS
Ġn ot
Ġp red
Ġm x
AS K
res ult
Ġ K
Ġco py
Ġstr len
Ġex pert
Ġre q
Ġyy ch
CON T
cod er
ption s
PI CTURE
I E
O L
P i
a ve
Ġi t
CE SS
SPECI AL
ĠSK M
P RE
l ayer
read able
Ġf loat
te m
Co nt
Ġms r
CO MP
D O
Ġch annel
CH E
S H
Ġs vc
ĠT R
h dr
Ġ attr
co st
Ġh ost
ĠC ur
con fig
ener ic
Ġc ctx
Ġt ile
CON FIG
2 7
G ET
Ġa ctive
ay load
Ġle vel
o pt
Ġpar ams
x cf
Ġc a
Ġo xcf
file system
f a
te st
lt a
OP T
de st
RE F
W O
ĠCur Byte
t te
ze nd
EN D
AN Y
I nt
if y
ĠM V
Ġad d
W AR
f mt
u ser
Ġx ctx
gist er
N um
Ġ In
Ġf mt
ĠE x
Ġex tension
SE QU
SEQU ENCE
i z
Ġ zend
S e
f er
L og
L ength
v i
v ideo
L H
Ġe si
Ġr tp
us age
/ /
Ġu se
pi xel
CH AR
oo th
Ġc tr
ĠT YPE
con d
ĠL HASH
ok up
st atus
at ed
ar d
ĠUConverter Data
qual ity
5 8
: //
F MT
in str
Ġp ath
Ġb t
ri pt
ĠTR UE
et ooth
lu etooth
G E
M ASK
\\ \"
C P
j o
le ase
Ġh dr
Ġ2 4
m o
le ar
op cu
opcu a
U P
le tte
Ġg cry
b l
f or
Ġs ort
ME M
Ġfi lename
rit e
C R
C CESS
Ġ1 1
un ction
par am
Ġqu ant
26 3
0 2
l v
co m
able d
RO UND
SER T
ĠTYPE DEF
P OW
u se
Ġa bs
ĠT X
Ġser ver
sco pe
A CK
B MP
E L
M ON
z ero
Ġi tem
st ore
Ġst p
Ġqu ery
S ize
c i
EX P
T WO
i b
ĠT S
Ġtot al
F ile
Ġt i
Ġd ist
Ġsa mples
Ġp kt
Ġv i
ing le
ms r
S OR
Ġf z
pe d
pt G
Ġsource Index
CO DEC
par ams
ĠO ptG
ĠVAL S
5 7
f c
in k
Ġr s
STA RT
Ġsh ow
g i
Ġ NOT
Ġt w
in c
OF F
main ing
Ġ1 3
Ġd cfg
ip le
par ser
VI CE
l l
Ġ alloc
Ġp p
ch ange
BIT S
POW ER
de sc
op ass
C AP
Ġp art
Ġf ailed
Ġh ttp
que nce
PRINT ABLE
6 1
Ġn ode
a mp
se arch
Ġu pr
Ġupr v
t tr
ect ion
ra w
Ġen code
Ġph p
Ġ 64
Ġ ROUND
nt p
Ġb luetooth
Ġh and
Ġn b
nd ic
Ġstr cmp
Ġctx t
Ġcont ent
6 7
c ur
l ing
x ffff
AT E
par se
Byte s
IL URE
ĠAV Frame
Ġfree func
Ġf printf
Ġr v
Ġcb p
M AT
n def
Ġc f
def ault
D ING
d y
tr ans
INT ER
all back
bo dy
am ic
sa mples
yn amic
Num ber
0 7
_ _
ro y
free func
D ER
c Context
Ġ1 4
lo okup
ol d
Tr ans
G et
g att
j ob
Ġarg v
UL ONG
Ġuser id
cp m
cip her
g o
g uint
Ġ) ",
Ġre quest
mp t
ĠA R
ork er
Ġsl ice
M S
m otion
ic al
ĠC H
I B
a ct
e k
Ġif ndef
ic es
St ate
1 8
F i
U Char
d ist
m atch
o s
Ġi ter
AS S
Ġex t
row s
Ġto ken
Ġcol or
O S
Ġ log
ver t
DI R
pl ane
ĠVP X
Ġps z
d own
Ġp g
STA T
up ported
VAL UE
Ġz ero
DU MP
ĠUConverterData LMBCS
d c
u dvm
Ġb er
Ġg s
Ġtarget Limit
fa ctor
CAP ABLE
0 8
Ġa es
AT T
SER VICE
o und
Ġ at
Ġs ign
Ġto UL
Ġdo uble
Ġtw opass
A nd
c nv
m an
Ġx dev
Ġse g
UL T
ly ph
I C
P RO
s u
Ġ1 7
Ġm atch
Ġch ild
Co unt
n ot
re t
ct r
Ġad dr
Ġlo cale
c r
Ġn o
Ġst at
ĠA VP
ĠCHECK ED
W indow
f l
ar y
ct ype
Ġpo s
M ENT
T h
n ing
p p
r ap
Ġ\" \"
Ġst name
UN K
225 3
fe ature
W N
f rom
th od
di ctor
Ġpa rent
a es
r b
Ġg rp
Ġarg type
eg er
Ġs i
Ġp c
SU CCESS
rag ment
C A
I A
W orker
b in
p ass
to col
Str ing
Ġ( %
ĠH B
all jo
Ġmem set
Ġob j
alljo yn
N E
P L
Ġa ctx
Ġcomp are
p a
v ed
Ġ ~
re maining
Ġb e
sp ace
ĠM AC
var s
ĠYY CUR
ĠYYCUR SOR
9 7
Ġs cale
Ġp ass
Ġl f
OR T
ĠM SR
que ue
Ġdo c
St atus
ĠtoUL ength
m alloc
Ġb io
al t
Ġpro file
Ġob ject
b est
e pu
p op
Ġo ver
ĠAV Code
Ġmy Source
s pec
Ġ array
Ġb rowser
ra m
Ġen coding
Ġcomm and
B Y
k nown
r id
Par ameter
h igh
Ġ2 0
ĠS et
Ġas n
OFF SET
S A
t ing
Ġs b
to p
ry p
ĠAVCode cContext
6 5
C L
h ost
n ext
Ġe vent
Ġstr nc
Ġw rite
en v
Ġref erence
. \"
Ġc reate
Ġf ail
RE AD
res sion
hand le
Ġcf g
L IN
v lc
Ġt p
Ġb and
tr ied
Ġlast ConverterIndex
Ġgroup s
F rom
ĠB IT
M e
m ac
o m
Ġp ErrorCode
Ġ1 9
LO W
I M
Ġd b
as on
Ġfor mat
DI S
FO UND
lean up
E ntry
t ail
Ġi o
Ġs ql
Ġch eck
ĠP y
bi o
Ġsh are
Ġre c
Ġu dvm
ĠG ATT
ref erence
BIT NAME
2 5
s lt
se ctor
ER O
Ġk vm
ser vice
ĠL IB
Ġme ssage
Ġpa lette
3 3
I d
P tr
Ġre cord
ĠC ON
im age
b and
Ġ IN
Ġ SE
Ġs ig
se gment
ref s
Ad d
( )
i er
n f
Ġ\" \\
Ġd c
code c
OR Y
BMP STRING
L T
O b
c at
Ġs co
le te
it er
Ġcur r
line size
pl an
Re quest
Cont ent
I ST
Ġe ob
ce ption
FI LE
do all
A M
M ult
ex ctype
Ġex change
iple x
c ap
Ġd sp
Ġg int
th read
L AST
u te
x ml
Ġ1 8
Ġo r
Ġu cnv
Ex tension
l f
n al
p g
p age
t ab
ct et
Ġf ill
Ġre sponse
po sition
PRINTABLE STRING
C l
m it
Ġ& =
Ġu t
if ier
Ġbyte code
2 64
m is
ar k
Ġpi x
col or
TE ST
Ġ12 8
var i
cont rol
i mple
Ġa uth
ch annel
NO WN
PI X
- -
i e
th is
frame s
Ġfi lt
sa mple
pre dictor
IV E
Ġloc al
F ALSE
H ttp
S Y
a w
RO BLOCK
uff man
ĠMAC ROBLOCK
C B
I mage
P P
S er
c reate
c lear
} \
Ġc info
Ġm od
Ġv c
to ken
ex p
bu ff
cl ass
Ġstat s
UNK NOWN
M A
d u
o ice
re ction
le ct
Ġd mv
Ġto U
ĠI nt
po int
T arget
Ġ ^
as h
To Unicode
B it
c y
m y
Ġt s
Ġ\" |
Ġh ave
Ġde c
RO W
sub s
ĠAS SERT
H EX
S O
a udio
ĠP I
Ġuser s
f ace
n e
Ġs ock
Ġc ert
Ġp w
AS M
ic ation
mm and
DI RE
ĠLMBCS Con
r ange
le d
in sert
Ġtvb uff
9 9
S W
W ith
g eneric
l ast
Ġ low
se q
dest roy
D i
x ff
Ġi ndic
Ġt l
Ġ2 56
ĠU ErrorCode
T RA
l ic
s ort
on ly
Ġp e
ur i
Ġde vice
Ġav io
En coding
H and
N ame
Ġi p
Ġp ad
Ġb n
ro ke
Ġco eff
IT Y
encrypt ing
ALL O
li b
P ath
w w
Ġ ro
Ġi m
th resh
ĠA ttr
str i
AN GE
Ġsa mple
av g
li ent
0 1
4 4
F or
c nt
Ġs r
in ation
str dup
up date
Ġcb c
min al
FA ILURE
Ġbo ol
I s
P C
T UR
b le
se nt
Ġm ot
Ġn e
ag ick
Ġq scale
up er
Ġch roma
wit h
Ġiv len
TUR N
{ \
it le
Ġth e
Ġcomm on
I F
N ext
Ġx slt
Cap acity
50 9
G TH
I LL
V E
g en
p th
st ep
de lete
se nd
Ġa pr
ce pt
value s
LEN GTH
ust er
write able
F E
O UT
e c
l ate
ch roma
Ġyy val
Error Buffer
dis sector
Ġp t
te mp
ab el
Ġmb fl
CHE CK
DIRE CT
B LIN
K ey
f s
o ver
Ġ EN
Ġl ib
INT RA
em u
Ġuv linesize
Ġfd ct
UNI VERS
ical Channel
UNIVERS AL
x p
me ssage
Ġde bug
CO L
AD M
Ġsh ift
DAT E
sco re
CAT ION
BLIN DING
2 3
8 8
B o
I LE
M IT
e b
r un
ĠM Y
ĠS B
mem cpy
Ġwork p
OPT ION
t m
Ġf name
Ġm ap
AR G
mb d
LI C
ific s
ĠInt eger
UNIVERSAL STRING
. \\
C OR
T S
a uth
Ġc all
is h
LA Y
CO M
Ġcl i
Ġstrnc mp
A ULT
O VER
n printf
de tail
ut o
ex tension
Ġcpi o
DEF AULT
AG E
ĠAVP acket
P O
se quence
Ġp ort
size s
nd er
Ġk rb
WAR N
F LOW
L e
P AR
R ate
Ġg lob
pe l
PT R
ĠK ADM
T AG
g roup
an sp
Ġl ayer
RE Q
ĠC O
Con fig
av ail
Lo ad
part ition
Parameter s
S ync
i x
l ay
n r
o pen
se lf
ur m
Ġ2 7
LO B
Ġframe s
Ġtarget Capacity
Ġsh ort
Ġpart ition
A B
C lose
M IN
N ot
d st
Ġ ar
de bug
Ġv a
pro xy
Ġex it
im um
Pi cture
Ob ject
c ert
f erence
x FF
se g
ER T
as ure
Ġst roke
ed ge
ĠC OL
ĠI s
Ġth resh
EG AL
Ġpo sition
pect ed
ILL EGAL
0 9
Ġi ax
ree n
ize d
col s
Ġcl ient
Ġad b
ĠCH AR
4 9
D B
s gi
t itle
Ġs z
re gister
Ġd one
Ġw ord
ĠH A
en coding
MP LE
Ġtr ans
Ġhand le
E nc
H AND
c lose
f p
w d
Ġp dev
Ġf p
Ġm er
Ġ\" ,
or iz
Ġx ts
ĠG URL
ort ion
ul d
layer s
mis sion
I FI
Z ERO
g lyph
u al
Ġc leanup
de ep
lo op
ENC ODE
copy func
Ġcopy func
OVER FLOW
E AD
S h
Ġcon fig
sub tree
St art
ific ation
Ġvar data
S K
s orted
Ġs ync
se xp
Ġd q
Ġch unk
Ġse nd
1 00
c al
p har
t arget
Ġa e
arg s
end ing
f name
s upported
Ġt ra
add ing
ynamic Window
C STRING
Ġ LOG
ar ning
me asure
ĠA TT
IT ION
LI MIT
Ġstd err
Me ssage
measure ment
5 2
m c
Ġm p
Ġret val
ĠC P
di v
ĠtoU Bytes
3 6
R ST
V ideo
Ġp rc
Ġm ac
pl y
uct ion
E ST
U ST
Ġm d
Ġ2 6
AT ED
RA Y
VERS ION
Ġchannel s
Ġlocale ConverterIndex
Hand ler
2 56
4 5
E qual
L ONG
O M
s um
Ġp ut
Ġre mo
int s
ter n
Ġ' %
rp Converter
version Worker
CAT ED
ĠOptG rpConverter
ĠLMBCSCon versionWorker
Le vel
i se
Ġ NO
LL O
Ġn s
Ġ2 8
Ġr b
is er
en code
en abled
mem ory
AD D
Trans fer
T ES
V IS
l im
r int
s z
in ish
Ġb ack
Ġ2 9
pro file
CI I
loc ation
Ġsc r
sl ice
Ad dr
ĠEx tension
Add ress
COR D
' \"
Ġp ack
Ġf unc
ver s
di ameter
ĠCHAR TYPE
R ITE
e f
re ser
Ġd ns
ĠP ro
Ġcode d
ryp to
A l
G F
R es
c allback
g ion
i bu
t mp
st amp
me thod
Ġ2 5
ĠH TTP
ĠM IN
9 8
= =
T OP
d ig
s r
se s
ad j
Ġj pc
ht ml
qu ery
St ream
low ed
Pro tocol
Ġpd f
BY TES
C N
H INT
Ġc rypto
Ġp at
Ġde comp
th er
OP Y
Ġ3 1
fi lename
cb c
MON T
CA CHE
ĠCON FIG
ibu te
H eader
u d
u cture
Ġs to
ue ue
um my
sign al
ctor y
Ġdis able
WAR D
A p
f ragment
si ble
tr y
Ġd raw
Ġg f
Ġr ange
mp i
Ġde lta
OP CODE
ĠT H
ip her
ĠM ODE
cl ient
L INE
V L
o h
s ad
s ing
ic s
ex pr
NUM ER
fi rst
Ġvalue s
Ġ\\ \"
Ġ10 24
Ġvi ff
ĠAR CH
WARN ING
Ġt t
Ġt ab
Ġp x
Ġu sb
id ate
Ġ2 2
um a
ast er
Ġcm d
RO UP
Ġmy Target
Ġdi ct
sub title
Ġsc su
Ġor ig
Next UChar
ĠCP U
ĠARCH IVE
6 0
q index
u pt
Ġm c
Ġv ideo
Ġh ist
ss h
ĠC h
ĠC url
ĠP R
ĠP OS
Ġpl an
Ġsave Source
Ġiter ator
rid able
ALLO C
HINT S
/ \"
C lient
I BLE
O D
a red
e si
f req
n et
n ut
p b
Ġs sl
Ġb p
Ġf ont
Ġu dev
pro to
up le
Ġget Value
mple te
sc an
Offset s
Log icalChannel
ĠOptG roup
Th is
nut ls
/ '
R B
f ail
u sed
ure d
Ġ' /'
Ġinit ial
FOR MAT
G ROUP
f et
g ed
r ight
Ġ\" -
Ġn on
Ġn ull
ver ted
Ġ3 0
IG N
ĠP AR
es c
Ġto o
ten ded
ul ate
Ġz bin
FLA GS
Ġmer ged
6 8
C LI
P er
T er
T able
u g
re cord
Ġc nf
Ġp al
Ġ\" .
or st
ut t
Ġde sc
Ġav ail
pro c
di ct
cm d
Ġcb lk
Ġdest ination
av ig
Unicode Status
instr uction
ansp ort
Ġdq coeff
A UT
M atch
P G
r fb
re ported
Ġc p
Ġd yn
un pack
Ġblock s
Ġbit stream
Ġinter p
Http Config
VIS IBLE
ridable HttpConfig
VISIBLE STRING
D o
U SER
b n
Ġs sh
re c
se cond
Ġp ayload
IN IT
pt ured
Ġq emu
Co mp
Con verted
pl ication
Re ject
Ġcode page
ĠR D
unk nown
pixel s
act er
Ġpg lob
Ġover ridableHttpConfig
CLI ENT
M em
P re
p ayload
s vc
at ial
Ġp y
Ġb l
Ġm m
Ġ2 3
Ġw rap
SSL v
Ġarg c
HE LLO
Pro file
Ġtest flag
Get NextUChar
COM MON
HAND LE
) \\
U BLE
o lean
Ġs pec
se lect
Ġt y
in al
Ġo ctet
Ġ2 1
Co mmand
bo olean
FUN C
HE AD
Pro cess
dent ifier
Ġextension s
7 9
C ERT
O f
m ark
x ed
re ason
Ġt bl
con vert
ĠM agick
ca ptured
Ġref resh
Ġdi ff
off s
Ġup date
Ġim g
SK IP
ĠCh eck
a pe
p date
de n
Ġfor m
ĠM peg
AR GET
CO OK
Ġptr diff
ener al
Bo ol
A EAD
H U
W IT
Ġs s
re lease
Ġg l
if ied
Ch ange
Ġassert Equal
hand ler
ting s
Ġ\\\" %
G ENC
M C
U B
g b
q r
in put
Ġf n
Ġde v
Ġse cond
ĠD BUG
ALL OW
ĠRE G
Ġlf m
M ask
e vent
Ġ url
to h
all sizes
UR CE
38 4
og ram
lu sh
ĠQ ueue
limit er
Ġsave bytes
DO ALL
opt s
GENC B
4 8
Q u
m d
Ġc nt
nt h
nt oh
le toh
Ġb ad
Ġd ummy
Ġr aw
ag er
ĠT est
mode l
orm at
ust om
Bu f
Ġsl urm
CONT EXT
Ġencode d
STAT US
Cl one
ĠMACROBLOCK D
6 2
: %
B E
N ew
a ctive
b y
l ong
p f
s ingle
Ġ Re
er n
Ġh int
ang ed
Ġrow s
ific ate
UNI CODE
lv l
CL ASS
Ser vice
SO URCE
Enc Context
ĠMpeg EncContext
D esc
T ext
l if
o te
Ġt ext
me di
ur ation
Ġg nutls
RE CORD
ĠC URL
IG H
pl ace
UE ST
og le
Ġprint f
Ġdist ortion
gi str
c c
c rc
s or
Ġ KEY
Ġp refs
Ġf ind
Ġf ound
Ġd ynamicWindow
Ġr fc
ĠA P
Ġex pected
AT AL
In valid
ca pe
ĠG LOB
Ġvp aes
CE PT
ĠYY DEBUG
Ġscr atch
1 38
de vice
de lta
Ġf unction
STA TE
el y
ca st
VER T
Ġrd mult
De f
ĠJ BIG
Ġremo te
G B
T EXT
d p
f ast
l ace
z val
Ġ1 00
Ġe p
Ġo ptions
ad ata
ĠA d
type s
and idate
bu ild
Ġj as
pu sh
Mult iplex
N ode
g ain
i ant
s ource
Ġt f
Ġd x
Ġu id
str ucture
FI EL
bo ost
qu i
Ġne ed
gistr y
FIEL D
C OPY
t ls
Ġn do
ed i
ab ac
and ard
AN E
Ġch an
ĠP Q
Co l
Ġcl uster
Ġsrc ptr
cont ent
OPTION S
F ree
a it
d ay
n ull
Ġs se
Ġm utt
Ġre gister
Ġv ect
Ġr un
Ġl k
RE E
ve ctor
MB C
AN DI
ĠM I
ĠS ync
mem set
Re sponse
ol ic
Ġbit map
conn ection
COOK IE
HU FF
2 00
G eneric
M O
M AR
R ead
a h
q p
u sh
Ġs rtp
re port
Ġc lose
st ack
Ġn g
Ġde no
Ġw indow
ME TH
12 3
22 3
Ġcl ip
Ġsc ript
sa ve
cl u
DO UBLE
Ġca f
HEAD ER
ĠAP LOG
MAR K
METH OD
4 00
7 6
> \"
P AT
P UT
c um
m a
n one
o se
t l
Ġf op
Ġe num
Ġw ith
pr iv
loc al
Un known
ĠR T
Ġad j
Ġen coder
19 8
SP L
Ġca che
Fi lter
DIS ABLE
8 2
A t
A IN
B ASE
E AM
L UR
P ASS
S C
c cm
c pu
o ve
re g
Ġb w
Ġre al
Ġre lease
Ġco ap
ce s
SS H
Ġse q
ĠD T
55 4
ri es
GENERAL STRING
ir t
Ġev http
ĠTH R
LUR M
G H
T ER
V AR
h ci
h uffman
t d
w ap
Ġc cm
ro p
Ġd l
or al
um ns
ĠF A
CS P
Ġ>> =
Ġnew LMBCS
Ar ray
oo lean
Ġhost name
Ġadd ress
MEM ORY
ĠIN LINE
Ġtrans form
Ġtra il
ud it
A CE
F ATAL
u ment
Ġ one
Ġm ul
Ġe sc
Ġd y
Ġu sed
as n
ate g
Ġin dent
sig comp
SE VER
CON VERT
orm ap
Ġsub tree
form ation
Content s
SEVER ITY
0 5
M ax
O US
P ER
P os
V C
X ED
c all
m ul
Ġ ST
Ġs nprintf
de pth
Ġb si
Ġf lag
Ġm ult
co mplete
Ġo ther
Ġa udit
AS CII
ch unk
Ġx str
ce nt
Ġw sgi
ver ify
Ġ4 4
bit mask
Ġdi rect
err upt
13 7
pert ies
Cont rol
iter al
uper vi
LIC IT
Ġglob al
F ailed
a pt
e ature
r r
Ġ on
Ġb lk
an it
te ct
Ġchar ErrorBuffer
Ġk f
Ġex p
ĠP RO
ĠG PG
Ġpre fix
ĠRE TURN
Int er
Ġtoken s
NE W
eb Contents
upervi sed
M ap
f str
w er
Ġg eneral
ch r
fo o
Ġav g
um n
AR D
CO UN
bo und
ul ator
Uni Char
ok ie
ĠV FF
ĠN E
Ġhas h
parameter s
ript or
Ġut f
imple ment
ĠEN O
Ġty p
9 4
A udio
F S
H ist
O ne
U GH
w h
w eight
Ġi e
Ġt c
Ġt lv
Ġp k
Ġp n
Ġb y
set up
Ġin sert
Ġhf x
ide nt
ĠS WIT
ĠD e
out put
sy nc
mod ule
own load
EXP LICIT
ĠassertEqual Int
ĠSWIT CH
6 77
D R
F C
F ormat
U OUS
h ints
k ely
n on
n eg
o q
r ptr
r fc
u do
Ġi Offset
Ġ\" <
Ġh el
Ġde coder
ver y
Ġq index
pr inc
Ġse c
ĠD P
Ġme thod
A MB
M D
T Y
T ITION
o me
s se
u mp
Ġp ending
Ġre gistry
EN S
Ġx new
add s
pt s
ĠC reate
ĠH igh
SE D
ĠS PL
Ġkey len
ow Ch
Ġmy phar
ĠL owCh
gs m
Ġbytes Converted
Ġme t
Ġenc lo
ĠJ big
MS B
ared Data
Mem ory
ĠHigh Ch
B ACK
C a
D C
D P
m all
x f
me d
Ġn ow
ut il
pro b
pr ime
ĠG ET
RO M
ay be
header s
mult iplex
Ġdecode d
SP ACE
band s
ROW SER
anit ize
7 5
P ACK
c ase
d t
i as
s ure
t b
Ġc andidate
se udo
Ġb lob
tr ics
ĠF ile
pro g
Ġproto col
Ġdst ptr
ang le
SER VER
ĠSWITCH ABLE
4 6
F ALL
R GB
U pdate
l ap
p ad
t y
at ive
le g
Ġt ls
Ġm id
co mm
Ġu sect
ER N
Ġl c
Ġq coeff
ĠT ag
sh ft
Con n
xt s
0000 0000
li kely
Ġlo op
Ġev con
Ġnull ptr
Ġng x
Ġusect s
M R
S end
S ingle
re rror
Ġ\" /
or age
code d
ĠC ANDI
ĠT ARGET
DI SP
Ġerr no
bo se
SR C
ĠVP AES
ri x
ph a
eg in
check ed
conn ect
vi ew
go ogle
not ify
PL ANE
From Unicode
IST ER
ute x
vers ation
Ġdyn str
ĠCANDI DATE
B lob
B ROWSER
F unction
T ag
U ser
a ad
m aybe
r l
x F
Ġs el
Ġt e
an ager
Ġh igh
Ġn d
Ġr ule
to m
ĠA H
ver se
put s
RO UGH
enc b
ĠR ead
cl ip
TH ROUGH
word s
Ġopt list
mpt y
Ġpe ek
MBC SS
Ġaudit log
COUN T
FALL THROUGH
B rowser
E vent
F T
c if
f ill
l hash
p du
r and
ro ot
Ġm quant
Ġg boolean
ĠB S
as c
Ġde limiter
DE PRE
ĠT EST
64 7
Ġex tended
IG UOUS
name s
Ġto UnicodeStatus
ĠI x
Ġpar ser
Ġcb pc
Ġrfb Log
spec ifics
stri ct
Ġlib c
Ġpat tern
Ġsto ps
ĠREG ISTER
AMB IGUOUS
DEPRE CATED
. .
B AD
R ow
S I
V ar
s o
s br
s ock
Ġs ad
Ġp ost
Ġu vm
Ġin st
pro cess
Ġpro c
Ġex ception
ĠL D
ĠN D
Ex ception
Ġap pend
sec ure
Ġmsr s
PRO C
REQ UEST
3 69
E NUMER
I dentifier
O pen
R UN
f low
m peg
o int
u x
Ġ ERR
Ġs size
Ġt xt
Ġp id
Ġa b
Ġl imit
OR DER
ĠL og
Ġtmp zval
inter nal
ll able
IFI CATION
Sh aredData
AUT H
ĠENO MEM
ĠLD AP
ENUMER ATED
A ttr
m ont
o ptions
v p
in cip
Ġre nder
al ign
NU TLS
ĠE C
ĠF I
ĠU Bool
Ġ4 8
ĠM ake
Ġop acity
mat rix
OL D
Pi xel
ĠLIB SSH
Ġro ot
Res ult
sr li
Ter minal
incip al
$ (
' %
' t
0 3
C CM
F IN
M SR
O r
S anitize
c g
i or
n er
Ġ OPTIONS
re ce
re ctory
Ġt b
al g
co r
Ġo ption
ER ENCE
Ġco d
PE G
ter minal
Ġ3 5
con f
Ġis c
CO ST
pl ay
sa mp
hand ling
PRE D
iz er
Ġband s
avig ate
ĠCheck Sanitize
Def ault
olic y
Ġdeno iser
ĠPRO TO
ĠBS AES
ĠCheckSanitize CSP
9 5
E lement
P DU
V M
f m
f inish
p ing
r m
r x
Ġ DISABLE
Ġc al
st all
ar r
Ġm is
Ġo pen
it ype
Ġg lyph
Ġr gb
12 7
Ġout ptr
pl File
bo ol
St andard
ĠV T
Ġrd div
Ġxml Char
Ġap p
sl ices
mult itype
ance l
rect angle
cost s
feature s
Ġio v
UST OM
reser ve
CN V
ĠFA ILURE
' ;\
B lock
H ash
V ERR
a si
g er
w orst
y le
in f
Ġb pp
Ġn values
AL T
ĠU CNV
ĠH V
AT ION
Ġch ange
un shift
key s
ac cum
Ġdi v
OK EN
fix ed
Ġsign ature
ret urn
Protocol Handler
ĠAd d
M I
c nf
e cu
l iteral
p adding
Ġ lock
at io
Ġp ush
Ġb ot
tr ing
Ġd up
Ġh uffman
Ġcon d
Ġr lvl
ch ed
Ġw ant
RE TURN
str uct
Ġpro g
LO AD
mv s
read int
ĠEX IT
Ġen queue
Ġspl it
cu ment
SU B
And Level
ryp ted
lib ssh
mission s
profile AndLevel
dig it
Ġ\". /
ecu te
: \"
B y
a mple
h e
m ake
t w
Ġc in
Ġc lear
Ġ* =
Ġf ull
co very
Ġo score
an cy
Ġh al
Ġr f
ine d
LE FT
AR RAY
ĠG NUTLS
Ġmy Converter
ac cess
und ancy
Ġsub size
ann ot
ffff ffff
ĠINT ER
pre sent
59 9
File Transfer
MAT CH
Ġpass word
SA FE
ww w
9 0
H ED
b lk
i an
i cture
m aster
Ġc e
Ġc ipher
Ġt m
et ime
Ġde quant
Ġco info
ch ip
ss ing
ĠE V
str ip
AL ET
Ġun ion
Ġq p
ptr an
ĠP N
ent ries
mb ol
ow er
MP I
Ġid ct
ant um
res sed
Ġdo main
Ġdir name
stri ction
COL OR
ĠSB HUFF
tm x
MPLE MENT
VL C
4 7
R D
R ange
S ub
l ink
v d
v s
w ork
Ġp har
Ġp ub
Ġp olicy
Ġm peg
AS SERT
32 58
IT o
Ġun likely
AN T
ĠS IG
CI ITo
im er
Ġis o
qu ick
FL G
LI ST
QU O
FOR M
Ġsync er
ALET TE
1 84
H CI
I PT
I ndic
f ull
g n
Ġ DEBUG
se ek
Ġf inal
si ve
Ġo id
Ġn id
ĠF ILE
IG NO
ĠS tring
Ġres ource
Ġget This
che me
Ġid y
Ġdi rection
Ġsub mit
Ġsa ved
sc ript
Ġsp atial
ĠAS CIITo
LT ER
ĠCO DEC
medi a
Ġsel f
QUO TE
IGNO RE
ĠASCIITo UTF
A V
B G
U LL
W RITE
Ġ1 22
Ġf ace
Ġe s
or r
Ġl a
Ġin valid
di ag
Ġuv src
OPT GROUP
cr x
imple GetNextUChar
CB C
avail able
lay out
ĠHA VE
scan f
AIN ED
MBCSS impleGetNextUChar
ĠFI RST
4 2
A RE
D F
M L
U MENT
b num
c ustom
i ew
x d
re n
Ġb h
Ġf ragment
Ġm alloc
Ġm ust
Ġre gion
al lowed
it ies
Ġg pg
Ġv lc
ĠE INVAL
ĠF LA
LE CT
LO C
Ġsource Char
mb mode
22 39
enc rypted
EX CEPT
BU F
Ġcol umns
ns wer
Ġen abled
0000 000
channel s
ĠMY F
ses sion
5 1
C ED
L Y
O T
O n
U PT
W ebContents
n u
o c
p able
p ick
x B
Ġs ame
Ġc c
Ġp op
ro block
Ġe d
Ġe val
Ġd min
lo t
as se
FI LTER
age ment
Ġ<< =
ID ABLE
ĠO VERR
cf b
ĠY i
ĠX i
Ġver bose
pect r
Ġit l
fmt cat
ĠIn dent
cpm get
65 2239
vari ant
ĠPI CT
uto complete
DOUBLE OPTGROUP
Ġxstr fmtcat
DISP LAY
369 123
3258 652239
Ġ122 3258652239
ĠOVERR IDABLE
Ġ1223258652239 369123
F alse
R FC
d n
f unction
h ist
n n
s g
Ġc mpt
le s
si d
CT R
Ġx ps
ot s
UN SAFE
ca use
us b
ang es
ol ve
orm al
sy s
TR Y
ĠN ID
pos n
Ġcomp ression
ĠLMBCS Clone
FOR WARD
Ġalloc ate
STAT S
ĠLIB C
vari ance
Bit Context
sock et
accum ulator
7 8
N T
O RE
V R
h len
Ġ only
Ġs ingle
le c
Ġp Start
Ġm db
IN K
Ġu i
Ġn n
EN ABLE
ut ion
Ġco m
DE X
fo re
nc y
Ġk ad
In put
ĠP icture
ac cept
Ġmem cmp
ĠUConverter Load
Ġpixel s
test er
61 10
pa lette
ĠMagick False
cg m
ĠpStart LMBCS
ĠUConverterLoad Args
2 14
8 000
E VAL
O ST
Ġ @
er sion
le m
or ith
ER Y
Ġde pth
Ġchar acter
AL IGN
Ġ3 8
Ġex ecute
ĠS LURM
Ġres len
Ġ6 0
Ġmem ory
ĠN avigate
ĠGet BitContext
ĠINT RA
Ġps nr
Ġhist ogram
ĠRD COST
ĠFLA G
/ %
A ll
C ALL
F lag
L U
L en
Z IP
e ces
l it
u ate
w ard
Ġ SET
re al
Ġc x
me ss
Ġm ain
Ġre ply
Ġa q
ch anged
pi x
ex tra
Ġk db
ĠC o
ĠC ont
tx fm
FI RST
Ġpro cess
Ġq tm
ĠT h
ob j
ĠI M
ĠI AX
Re ference
Re striction
Ġtarget UniChar
rd er
Ġz val
Ġqu ote
ok ies
ĠUConverter ToUnicode
ĠV C
Ġstring s
Ġset up
pre fix
De vice
NOT IFICATION
Ġfirst Byte
CAT E
Buffer Size
Lo cal
Pi eces
CR IPT
Ġsco red
DIRECT ORY
PO ST
Ġplan es
letoh l
ern el
ĠRead Blob
asi c
asse mb
ĠUConverterToUnicode Args
4 1
7 24
8 22
= \"
A ck
G ATE
M sg
O ptions
S pec
T ime
d at
x or
y s
re order
st ag
Ġf eature
Ġm gs
Ġe lement
Ġa n
IN V
ĠB INK
Ġr nd
Ġr layer
ĠA p
vb u
Ġk id
ĠF RAME
ĠS plFile
ĠP RE
CO E
po inter
ĠD O
Re ason
err no
ĠO HCI
TR UN
packet s
Ġser ial
max imum
pert y
Ġsl ices
Ġstack Args
ĠW RITE
87 0
Ġac cept
IF Y
fet ch
384 554
Ġvect or
FIN IS
Ġbot tom
undancy Encoding
orith m
0 17
3 64
C RE
D ynamic
S ING
a ir
b reak
h ex
u age
Ġc re
Ġp age
Ġm t
Ġd size
Ġg char
Ġv type
Ġh e
Ġr t
Ġw e
INT ERR
Ġ3 599
ist ic
SE LECT
di an
ENC O
item s
RO GATE
UR ROGATE
ang uage
load l
20 6110
QU ERY
Channel s
ĠJ PC
CONT AINED
pass word
cy cl
TRA CE
LAY ER
lif e
Ġexp and
Ġcod ing
ĠLIBC ERROR
Ġnn z
DIRECTORY STRING
384554 647
FINIS HED
INTERR UPT
Ġ3599 206110
Ġ3599206110 384554647
! \"
2 55
6 3
9 19
T uple
a que
d sp
r s
s nprintf
s qr
w ide
Ġp er
Ġb v
Ġe nt
Ġe st
id ct
ag ed
ĠA utocomplete
32 07
ig in
ĠT r
In it
sh ake
file s
Ġpar ameter
ĠO T
cl uster
Ġal ac
ust o
Ġtop ic
PRO TO
iter ator
Ġcert ificate
ARG UMENT
Ġmac roblock
ĠPAR TITION
BACK WARD
ĠLog Error
rece ive
ĠAp pend
8 89
9 6
D T
Q L
b size
f ra
n ist
o ctet
s pe
Ġs mall
re set
re mo
er ator
Ġm ip
Ġa nswer
ST E
STR EAM
Ġbu ild
Ġw eight
ĠC S
pro perties
Ġ3 7
Ġname s
Char s
VAL ID
ass word
20 7
Ġpo ol
Ġxml Str
Ġxml Hash
De lta
Ġsy s
ctr l
Ġscale d
Ġcfg t
unpack lo
Ġmult i
ior ity
samp ling
Ġeval uate
DISPLAY TEXT
usto dian
L ong
N on
T F
T OKEN
W arning
c ateg
o i
p at
s n
u i
y v
Ġ round
Ġs ection
Ġc an
er p
er red
Ġb mi
Ġb cp
me t
Ġm ake
Ġint errupt
Ġd s
Ġn eg
ER E
Ġl uma
Ġx free
RE CP
ĠU SE
ĠC LI
Ġq s
AN G
sh ape
AR Y
Ġcb arg
Ġskip ped
start s
11 7
Ex p
ĠRE AD
ick et
Set tings
ĠIn it
su med
rint f
fet y
Ġmm r
Ġenclo sure
Ġcandidate s
Indic ation
7 0
B ase
E C
R ed
S ign
Ġi a
Ġc ap
Ġg r
Ġg uid
ST ORE
size d
ON LY
Ġk x
ĠE rror
ĠU TF
op code
ca y
emp ty
Byte Mode
ain s
Ġfile gen
IS CONTAINED
Ġph dr
Lo cale
coeff s
SH OW
Trans form
ĠPy Object
ĠSE G
With AL
TRA IL
AB S
== ==
Ġmm co
ĠDe bug
A Y
F B
I ter
S END
f rag
m ag
p ower
r ide
Ġ uri
re verse
Ġc s
Ġc allback
Ġp adding
Ġe mpty
co mmand
IN DEX
ic h
RE SS
pro bs
In formation
ip v
Ġse quence
mode s
LI B
TE MP
ph p
FRAME S
Ġal t
Ġfrom UChar
En g
02 3
Ġmod ule
SO CK
ose n
comm on
Var iant
nn ex
Iter ator
7 2
A nnex
C all
F REE
N S
P acket
S c
U a
b pdu
i a
i val
p m
t bl
re ph
ro me
co gn
si de
pro p
LA CED
Ġerr Source
col umn
ĠI MPLEMENT
po lic
Ġdo all
comp ress
38 9
ĠO pc
Ġme trics
time out
ial ize
Ġul ong
CTRL OFFSET
Ġbo und
Ġquant s
INTER LACED
ĠCH R
Ġlog ger
Ġcurr len
Desc riptor
leg ate
RUN TIME
Ġcbarg type
Ua Type
polic y
ĠOpc UaType
A KE
C LO
H ost
J OB
M anager
M PEG
P K
S B
a ch
c cess
g rid
h b
m utex
r atio
t ml
v q
w indow
Ġs d
on it
Ġl abel
Ġw rit
ĠU INT
is at
pr incipal
im g
Ġfi xed
Ġkey frame
Ġyy ss
Re f
Ġsh a
31 919
ri ptions
TH ROW
Ġpo int
13 6
84 0
SP ON
Ġtag len
89 017
field s
ĠZ IP
Ġsy nth
\\\" \"
Ġmatch es
97 023
BY TE
52 31919
IGH T
ĠSync Change
Ġ44 89017
onit or
5231919 97023
Ġ4489017 523191997023
( %
2 1
5 3
9 3
D is
D ownload
G RAY
I AL
U SE
X T
a ction
c re
g f
g no
g encb
l sp
s rtp
v a
Ġ DI
Ġb mv
Ġ1 000
Ġ\" _
co ef
Ġd py
Ġd tls
Ġr and
as sert
Ġl erp
Ġel if
Ġstr dup
Ġstr chr
Ġun known
Ġ3 3
ot al
ĠS co
Ġch osen
AR GS
Ġres ync
Ġline len
Ġse p
ĠL o
ĠD ata
Ġdi e
Ġsub sampling
Ġpr inc
iv ed
Ġmode l
inter face
path v
Ġconn ection
ition al
Ġup load
ĠVAL UE
Ġvi sit
Ġalloc ptr
cur rent
Ġsco re
Ġeob s
fail ure
apt ive
tect ed
LOC AL
8 6
C ipher
I f
L ayer
M AN
M TR
N EXT
h v
h ance
w sgi
Ġs u
se xt
ar m
Ġf lush
Ġ\" --
al og
it e
Ġu wsgi
as ses
ĠF ind
PE L
ter nal
op y
ĠS U
ĠS t
Ġis al
est roy
Ġgo od
ĠL AST
ĠD o
Ġ5 12
ind ing
count down
Ġsc reen
sa fety
Ġpixel Filter
Ġsp ace
pack ed
ĠEx pect
ĠEx ternal
ard p
ĠAR MV
Fi rst
Count er
pa ir
lic ate
UB KEY
PAT H
TRUN CATED
break out
categ ory
MTR R
: '
B oolean
E K
F a
H P
H ERE
I R
N AL
N ET
W rite
X Path
c leanup
c abac
l abel
Ġi r
Ġs qr
Ġc fb
Ġc abac
de lay
Ġp BufferSize
Ġint eger
Ġd princ
IN D
Ġg e
an sa
Ġh w
Ġcon versation
ut ine
ck et
fo nt
ĠC LU
ĠH tml
Ġ3 6
Ġ' :'
sh ort
RO L
Ġsrc Y
ĠR V
10 66
26 1
Ġrd stat
inter p
inter val
Ġheader s
ĠFF ABS
EXT RA
De code
char acter
Ġcontext Char
30 6
iz ation
amp ling
Ser ver
Table Entry
Pre view
lace d
Ġneed le
Single ByteMode
Ġrule set
Ġlibc notify
Ġkad m
SING LE
Eng agement
ansa ction
9 69
A uth
I CE
N o
P CM
S k
S ampling
d yn
j peg
m ail
n i
n sion
q scale
t uple
v id
at um
Ġt v
ar se
Ġf puts
Ġ\" $(
Ġa nd
Ġd ate
Ġh p
ad b
ĠB U
ut f
Ġl l
RE S
ĠU N
Ġ3 4
en able
ation s
ĠD TLS
04 8
time stamp
Ġxml List
ener ate
NAME SPACE
ĠZ END
Ġsy m
Ġsy stem
CONT ROL
Ġattr ibute
REF ERENCE
Video Capability
Ġdecomp ression
ĠTh row
vbu ffer
ĠSplFile Object
ĠAppend ASCII
Ġbmv type
Ġvisit s
Fa ctory
A A
F P
F ull
H OST
P ayload
R C
R eader
S URROGATE
T L
T otal
W idth
a al
f ter
Ġt ask
ar ith
ct ime
Ġm ic
Ġe code
Ġo red
Ġo hci
Ġn mv
Ġco okie
Ġst yle
Ġin line
Ġk ernel
\\ '
data base
LE T
SE P
ĠM ock
di rect
Ġch rome
sh a
Ġmv d
res ource
load SharedData
Ġtemp oral
Uni que
Ġcount er
Ġal ias
Ġstack Pieces
Ġprev iew
39 0
vi sible
for ce
store l
EXP ORT
factor s
mbd a
reser ved
rfb Process
ntoh s
clu ded
Browser Test
Ġcal c
Dynamic Offsets
cycl ing
ĠSU CCESS
Ġored Chars
D Y
V EL
X TS
b ad
b lob
d ct
d uct
k s
l uma
p w
u char
Ġ STR
Ġ load
Ġ STATE
Ġc orr
er ated
le ss
Ġre p
Ġre sp
Ġg ef
Ġh t
set tings
ctx t
Ġ4 0
Ġ4 09
ject ed
Ġto k
CH ANGE
ac ce
count s
Ġsh ape
ĠEX T
emp late
ĠO ld
sy mbol
Ġfile Transfer
Ġskip pable
do c
ust ed
ĠRE F
EXT ERN
db g
SU PP
FA ILE
cip safety
Lo op
54 04
Ġcodec par
cur ity
Ġcolor s
vari able
SY S
MA IN
LIC Y
PO LICY
Qu antum
clu de
Ca che
SPON SE
FAILE D
A F
I RE
L ink
L VL
N DEF
P age
P ORT
S QL
W D
c les
d log
g g
g ol
g round
h al
m x
w arning
Ġs name
st orage
de no
de block
on ent
Ġp ts
Ġe vbuffer
Ġre set
Ġre place
or rection
SS ION
arg ument
ĠA D
pro tocol
Ġy v
ptr s
Ġarg ument
ob server
Ġkey words
Ġcm ap
ĠI D
ĠI mage
Ġse lect
ĠD estroy
Ġoutput Bytes
VER IFY
encrypt ion
load u
Ġmax len
55 5
av p
56 9
round ing
path name
Ġintern al
Ġhb s
ĠFF MIN
cb p
quant ize
dis able
Test Is
INTER NAL
Ġdb name
audio Sampling
Load able
Ġspec ifics
pf ul
ĠassertEqualInt A
Ġhel pful
ĠFile Path
ĠmyConverter Data
Ġes cape
Ġonly TestIs
ĠonlyTestIs Loadable
7 4
8 84
= '%
C ur
C ustodian
H A
H T
O ID
P ending
S IGN
U Int
Y U
h f
l p
p seudo
r t
r ation
v ance
w ar
Ġi sp
Ġb c
Ġb oolean
Ġb asic
Ġf h
al go
Ġ. ..
Ġa uto
Ġv o
et ch
set iv
Ġl y
Ġl ink
ex ample
24 8
ĠC UR
ip oint
ĠS vc
di ction
Ġop aque
Ġval id
Con ference
Ġnext Source
ol ution
ĠR ANGE
Ġen able
TR AN
low er
55 677
Pro g
Ġal low
Ġal lowed
Ġtime stamp
84 4
Ġpa ir
quant izer
Value Warning
66 214
Ġpriv ate
ĠZ ERO
CONT ENT
ĠIn secure
Ġ13 66214
xffff ffff
Ġsco pe
over lap
rint Preview
vers al
Ġtt mb
lif etime
Ġmet a
FORM ADD
ENABLE D
969 5404
ĠnextSource Index
ĠInsecure ValueWarning
Ġ1366214 9695404
Ġ13662149695404 55677
* !
0 6
1 000
A ME
L F
P ut
P CTX
P PTR
c alloc
h oriz
l shift
o u
o us
o sition
t imer
w ay
z ip
Ġs upported
re alloc
re store
Ġc name
Ġp ctx
Ġb mp
ct ld
Ġf rag
Ġm an
Ġm pi
Ġm ont
Ġv oice
Ġv irt
ĠB MV
Ġst g
able string
is o
ap p
ĠT ime
Ġex pr
ĠM S
ĠP UBKEY
CO VER
22 31
free p
CON N
res sive
ĠEX TRA
Ġuni versal
ĠR S
225 4
Ġass oc
55 35
Ġqu al
TH READ
Ġxml XPath
19 2
Ġenv line
attr ibute
Ġprint ablestring
pack us
MODE S
CUR R
Ġreq body
27 33
Ġvi sible
57 0
Ġrs v
Ġhand ler
Fi eld
cr t
alt y
Cl ass
Ġut ctime
Bit Rate
Ġsock et
Di rect
IF T
temp oral
Ġlib ssh
ized time
Ġtra ce
Ġback up
Do cument
Ġenum erated
ĠcharErrorBuffer Length
Ġgeneral string
Ġgeneral izedtime
util s
Or igin
tw o
Ġbmp string
Ġuniversal string
Ġvisible string
' ,
D ial
F lags
J UST
S l
T ING
T ab
c lean
g cry
h o
Ġs ps
se par
Ġt fs
in v
Ġp ps
Ġb ig
Ġo s
tr ansport
Ġd xy
Ġr buf
Ġl pc
Ġco re
ex it
Ġin file
Ġw orst
and not
ap er
ĠT FS
ĠS UB
DEC REF
ĠP DF
Ġref s
mb a
bo x
po c
po st
ĠD C
sub mit
Ġcb py
comp ressed
BO TT
Ġz ip
Ġal ign
Ġfrom U
sl urm
char set
ĠUChar ErrorBuffer
ont al
VI DE
Ġnumber s
Ġpacket s
SH IFT
bl ah
ĠmySource Char
ĠCON T
ark er
exp and
extension s
ĠCO MP
Ap pro
ug h
Multiplex Entry
Ġmet adata
prog ress
Ġed ge
gol den
Ġqual ity
BOTT OM
N B
S upported
S LT
W MV
_ %
a j
e red
m k
p atch
s uper
u me
Ġ DEFAULT
Ġi data
Ġs rp
st op
se en
ct able
Ġe free
Ġre maining
Ġd ig
Ġu fmt
Ġu php
te nt
Ġl name
CT P
Ġstr result
str buf
16 4
up port
ent er
ĠG B
Ġres v
UT E
IZ E
Ġcurrent Offset
Ġse lec
Re lease
EX STRING
Ġbit num
io us
TE LET
ok mark
Ġme mm
ri ption
Ġconverter Data
Ġstd out
own er
Ġnot ification
ĠK RB
UP DATE
Ġat oi
IC STRING
Ġrecord s
For Profile
over ride
NUMER ICSTRING
Col or
Ġuvm y
pectr um
Non Standard
Ġbound s
dbg msg
CURR ENT
ĠCONT ENT
TELET EXSTRING
2 198
7 22
C reate
F unc
M agick
P W
P assword
S CTP
U Args
b b
c ancel
o uld
r ong
s ra
Ġs ide
re ment
Ġc chip
Ġb ink
ro ad
ro id
Ġf our
Ġm ore
Ġre m
al led
si st
Ġa ct
Ġd t
Ġd quant
set n
Ġr ight
Ġde coding
Ġx hci
DE LT
ex ec
Ġav t
Ġstr to
Ġw in
ĠF ROM
Ġpro b
up ted
up per
Ġex tr
sp lit
LMBCS GetNextUChar
col ormap
po l
ĠD atum
Ġ5 0
ann er
sub set
SET TING
sa fe
ok en
Ex tra
Ġtop left
scale d
COMP AT
SH ORT
Ġquant um
ĠAVP ALETTE
IM G
Id x
PIX EL
cy cles
xFF FF
ĠPro tocol
ĠsaveSource Limit
second s
qui red
Ġrun ning
Hist ory
dt or
Ġinst ance
Ġhal f
Ġitl q
ĠNavigate To
ĠPRE DI
ĠBU F
ĠOld ConverterIndex
Appro val
sra i
road cast
LMBCSGetNextUChar Worker
1 31
2 19
4 20
B PDU
C USTOM
C opy
E nd
E xt
I X
P S
S upervised
W ord
] \"
d l
d rop
f lush
g a
g y
g ra
l ation
m onitor
p wd
Ġ DEPRECATED
Ġs len
Ġs buffer
Ġc r
le ction
Ġt cmp
ur face
Ġd ump
Ġ2 55
as l
Ġl mbcs
Ġde lim
ch an
ab s
ter m
Ġq pel
ĠT ype
ĠT ile
ME SS
LMBCS Uni
Co okies
Ġis SingleByteMode
red History
Ġyy n
MP V
Ġse arch
rypt ion
ĠL TOP
error s
Ġcl amp
Ġdo es
St at
Ġcol ormap
Ġtr unc
Ġtime out
for ward
SOR T
dist ortion
vert Uni
DIS COVER
Ġdc diff
color s
Ġstats Tuple
ĠLMBCSCon vertUni
Ġxslt Transform
ADD R
inish ed
ĠPN J
Ġcom ment
ĠCont ains
ĠSco redHistory
ĠExternal ProtocolHandler
Ġcorr upted
CONN ECT
ĠDEPRECATED IN
ĠScoredHistory Match
A U
A CT
C lock
M ULT
P AD
V ersion
c it
f ailed
x A
Ġs in
Ġs vq
Ġc alloc
Ġt res
in x
Ġp ref
Ġb egin
Ġ\" (
Ġre get
Ġre con
Ġa udio
Ġd own
IN PUT
ST I
Ġv t
et a
ĠB rowser
DE D
ex pected
Ġw th
RE SH
STA LL
FI XED
ot i
en um
op s
LMBCS Open
ĠS C
Co uld
ent ic
ĠG ST
log icalChannel
Ġwh ich
Ġth read
SIZ ES
TIME OUT
pend ing
path c
Capability Set
Ġinit rd
Ġdir len
pen alty
Ġvar iant
ule s
ci sion
Ġhand shake
trans fer
DIS C
IFI CATE
Hist ogram
Ġuvm x
nu TLS
Exp Buffer
YU V
ĠNavigateTo URL
MESS AGE
cit ation
A PE
B und
N ER
O TH
b egin
d raw
g orithm
h m
h el
i ss
l cpy
p k
t ask
u de
Ġc d
de compress
Ġp cp
Ġf c
Ġa st
Ġa coder
ur ity
it ch
IN STR
Ġg ic
Ġg ss
an ch
Ġn et
Ġcon vd
ut down
Ġl sp
Ġx cnv
Ġstr i
and ing
ĠH ttp
Ġpro jected
Ġq x
Ġq y
ser ved
Ġ% \"
SE XT
12 0
LMBCS in
ĠP arse
es cape
no ise
AR CH
un supported
CH O
ĠD BG
od y
Ġcl one
ĠSSL err
comp ound
Ġuni que
sc reen
ĠR es
ĠR un
packet bb
http s
check s
SP LIT
Ġver ify
number s
FA CT
sec urity
Tr ansport
Ġpp LMBCSin
IM ER
token only
run ning
partition ing
Per mission
Pre sent
Ġhint number
ident ifier
TY P
Ġdup licate
Ġprog name
ĠSIG COMP
Ġpop ulate
cpmget rows
ALIGN ED
reorder ing
PROTO COL
fra c
ĠDebug Log
CLO SE
ĠcontextChar ToUnicode
nsion s
ctable column
DISC ARD
2 35
7 1
7 26
A AD
A ctive
C AST
D S
F ROM
G A
G nuTLS
H DR
N ormal
P AGE
R ANGE
U M
U U
a uto
d er
g u
l av
m f
m g
o ption
p gsm
w rap
Ġi gno
Ġs top
re strict
Ġ* /
at ib
Ġp ent
Ġb ody
Ġf ps
Ġe lem
Ġd max
Ġg uchar
Ġu s
ck ey
Ġl t
Ġde n
Ġco mple
Ġx fer
arg e
32 3
OF ILE
ĠU RL
ext ern
16 51
ĠC USTOM
LE AD
ter ance
ĠT LS
sh ow
un n
Ġpar sed
Ġ6 5
Ġ6 6
Ġsub pel
UINT EGER
BO XED
Ġms b
10 94
Ġpre dictor
Ġpre dict
04 7
ĠV ar
GENER ATED
Ġal pha
Ġoff s
ĠX p
13 5
Ġfrom UnicodeStatus
Ġap plication
Ġac count
ĠIn stall
Se quence
cur sor
ORT ED
With Offsets
PAR AM
Not ification
iser ver
ĠExtension Service
net work
AUT O
Ġssh buf
Ġadj ust
EAM DISCOVER
ĠST EAMDISCOVER
Ġpost size
cor rection
ENCO DING
hance ment
ĠSt art
TableEntry Number
ĠThrow Reader
ĠThrowReader Exception
3 37
4 1066
8 1
8 5
B M
B ack
C W
C ustom
D ONE
D ynamicWindow
F ULL
L C
M U
M AL
M ake
R em
W IRE
b len
e ar
e ch
f ac
f alse
g lu
m ime
o ted
q s
r k
s in
s ame
s chro
t lv
w e
Ġ ER
Ġ INVALID
Ġ AST
Ġi mp
Ġs exp
re si
re tr
se l
Ġt icket
ar f
Ġf Width
Ġm tr
Ġre ject
Ġre store
co se
it el
Ġg x
an k
te ll
Ġn p
NU SED
int errupt
Ġl sb
nd up
Ġav codec
Ġav priv
Ġin Direct
RE C
RE P
RE SPONSE
Ġk Http
ĠE OF
ect or
LE VEL
ist Cookies
In st
get c
SE C
bit rate
par m
par ms
Ġwh itel
Ġbs aes
BO UND
Ġcol s
Ġcol on
ĠR AND
Ch eck
Ġad aptive
do main
Ġ'\\ \\'
29 4
PRE SER
Se c
Se gment
jo in
Ġcolor space
Ġmatch ed
band width
cap ability
Ġ^ =
ALLO CATION
OUT PUT
ĠMY SQL
ĠPro cess
98 36
Qu ery
ah ead
local host
ĠST D
Ġhel lo
PACK ET
Conn ection
Red undancyEncoding
SOCK ET
ĠExpect Total
ĠHtml Put
Engagement Histogram
Sk ip
TL SEXT
doc ref
ĠEXTRA CT
DELT A
WIRE TYPE
glu cose
ĠinDirect Mode
Ġwhitel istCookies
ĠExpectTotal Count
) ,
4 84
4 35
6 5535
> \\
A VP
A IL
D EN
F LO
M AC
N ON
P Q
R IGHT
U NUSED
V ector
[ %
b k
b rowser
b order
p line
q cif
s of
v t
x C
Ġ LOAD
Ġi j
Ġc rc
st e
Ġb k
ar ies
Ġ1 0000
Ġf list
Ġf Pos
it ude
Ġg pgsm
Ġv ert
Ġu iserver
Ġn i
Ġn numbers
set zero
ic ast
pi ration
ĠU D
FI X
Ġ3 9
AT A
ĠM ST
ĠM ASK
DEC O
un i
Ġmi ssing
CO ME
bit map
pl x
ID X
NO DE
qu it
Re covery
Ġ6 3
buf len
Ġdi rectory
Ġsub type
Ġsrc U
Ġsrc V
St ack
element s
38 0
10 10
ĠY V
min q
ĠGet ForProfile
Pro perty
80 724
Ġal value
84 6
ĠRE T
FA IL
CONT IN
Se q
Ġno ise
CL NT
ĠIN IT
Ġword s
oriz ation
dig est
ĠPAR SE
handler s
medi ate
priv ate
neg ative
ome try
ĠFIRST PASS
COE FF
CRE ATE
Ġmulti buffer
389 89
Ġrand om
MTRR fix
Custodian Approval
Ġrsv ph
41066 80724
9836 38989
PQ ExpBuffer
4106680724 983638989
* \"
- '
C annot
D Q
H Z
S cheme
c d
c row
l a
l x
p ub
t ap
w ait
re l
re gion
Ġc seq
at ing
Ġt ar
Ġt len
Ġp sec
Ġp itch
ct m
ro pt
Ġm res
Ġ\" ;\
Ġre try
si mple
Ġv s
Ġh y
EN TRY
Ġr ropt
ag g
ch oice
Ġx strdup
ase cmp
ĠA MR
Ġstr info
Ġbu cket
Ġw s
RE MO
24 6
ĠE S
64 3
AT TR
SE SSION
con versation
di a
Ġ' -'
pr im
Co mm
Ġis Extra
ĠG SS
Ġpi v
Ġerr p
ĠD i
ĠD CT
Ġle ave
Ġcode set
Ġcl ass
Ġsh aper
SR VR
Ar g
ECT OR
abil ities
ĠGet URL
Ġcomp onent
Ġxml Free
QU ANT
ĠRE CON
ESC APE
Ġstack Buffer
Ġpd ay
15 3
39 2
Ġrfb Close
Par se
COMP RESS
27 38
dest ination
com ment
MS G
match ed
match es
Ġstrnc asecmp
Ob server
-- --
SY STE
Enc ryption
second ary
ntoh l
qui re
edi a
Inter nal
Ġpn g
ENS ION
Ġab ort
Ġsame h
Ġcmpt no
ĠIM AP
Ġcoding set
Ġmacroblock d
PK T
acce l
Cur sor
Ġvo ices
ĠProtocol Handler
ĠTile Info
PAD DING
Bund le
Ġstri ct
Ġmtr r
PRESER VE
DQ COEFF
ĠisExtra Local
ĠrfbClose Client
' \\
1 10
C re
F ax
I tem
L abel
c lock
d w
d val
f rm
g t
g enerate
m id
p reference
t cp
w b
Ġ ERROR
Ġs pectrum
er ge
de l
de red
Ġp q
Ġp list
Ġb S
Ġb ps
Ġf close
Ġm ag
Ġre or
Ġv k
ad ing
lo or
int en
Ġr a
ex ist
Ġun def
Ġbuf size
64 04
Ġ8 3207
sign ature
sp atial
ĠS pline
ca ped
ENC RYPT
Ġis digit
bi as
ĠI F
CH UNK
CH ANG
MP TY
ĠEX P
iv ity
Ch unk
Ġz stream
Ġcont rol
ĠUConverter FromUnicode
34 184
ĠX SLT
To Write
Ġloc ation
skip ped
Ġopt arg
Ġbo ost
DO MAIN
Trans mit
cpm set
act ual
rap h
Ġut terance
Di ct
thresh old
Ap plication
Ġmc d
ĠPR I
LogicalChannel Parameters
Ġspec ified
Ġlk New
MARK ER
Audio Capability
Ca use
Ġla mbda
ARE ST
ĠAutocomplete Match
ĠUSE S
Ġir q
Ġhw accel
SUPP ORTED
248 34184
ĠfromU DynamicOffsets
1651 24834184
ĠES LURM
Ġreor dered
Ġ83207 165124834184
CHANG ED
ĠUConverterFromUnicode Args
Ġ83207165124834184 15
7 55
7 89
8 77
A CTION
C D
D IG
K EX
M AND
M ALLOC
M edia
N C
O UND
O rder
R AND
S F
S CRIPT
T REE
V i
W IN
W EL
e ded
g uid
h ead
i able
o ci
t ile
Ġs pe
Ġs ent
re cs
Ġc mp
nt ed
st rerror
at H
se cs
Ġt ex
on ce
in st
Ġb fd
Ġm at
Ġm os
Ġ\" [
Ġre st
co uld
it s
Ġg st
Ġh ome
Ġn ntp
Ġr ice
Ġl i
Ġx off
ex port
ex tended
ss lot
ĠA c
RE US
ve c
str ndup
16 1
ĠC SR
ĠT M
Ġbuf len
Ġbuf sz
ser v
Ġex citation
In stall
att stat
ĠS cale
ĠP K
un signed
Ġend loop
mb mi
offset s
def ine
ft one
CH WEL
Ġpar ity
RA M
ay stack
Ġerror Code
end ian
Ġinter laced
LI CE
Ġ12 7
AP I
AP P
ĠGet Cache
Ġstart ing
Pro p
li ct
Ġph ase
ĠW ait
89 3
RT P
Ġrfb Encoding
Par ams
Ġhttp s
67 889
Th e
spec ific
ĠSet Pixel
LIN K
tail s
25 6404
ĠSE EK
CB PC
Ġlow er
Ġip video
Ġro le
FE C
temp late
Sync Data
Start s
record s
content s
PAT CHWEL
ĠRT P
cent er
677 82
Ġsec ret
Ġ\"/ *!
Ġlibc error
SI DE
SI MPLE
ĠPN G
ren gth
WebContents At
air T
Ġhe v
remo ve
Ġcap acity
Ġpoint size
Ġly r
570 67889
UU IE
Sec ure
inten ance
ĠEXP FILL
REUS ABLE
attstat sslot
256404 67782
PATCHWEL COME
57067889 25640467782
! \\
7 04
7 29
B l
B and
D el
E P
G O
G T
G ot
G OLD
L V
M arker
U I
a ined
d f
e ob
i mp
i lt
o ot
p cp
s w
w ner
Ġi dentifier
re try
in s
Ġp seudo
Ġp chip
Ġb r
ar ter
Ġf t
Ġf ast
Ġf open
Ġm thread
al lo
Ġd file
Ġd uration
Ġg res
Ġg encb
Ġv br
Ġh ex
Ġ2 00
Ġr md
Ġde cay
to t
fo und
Ġin packet
ab ic
Ġw as
ĠU n
Ġmb a
ap sh
ĠM ax
ĠS ource
est im
un ication
ref resh
Ġmv p
ĠD B
buffer s
Ġ5 8
Ġwh ere
Ġpr iority
Un it
Ġms pel
ction ary
ĠO n
sy llable
Ġcount s
PR IV
ĠGet WebContentsAt
Ġdis sector
80 2
rp c
ĠFF MAX
cb ase
Val id
AC CEPT
ĠQ u
Ġconn ect
lat ive
rol l
En hancement
fd ct
58 884
com ing
Ġlog in
Ġfail ure
Ġsco ped
Ġpe er
Ġlayer s
seg feature
Protocol Capability
Per missions
avig ation
reason s
Ġab fd
BUF SIZE
Ġcre ator
Ġent ity
Ġparameter s
spe ed
ĠDo uble
Ġattribute s
Ġ409 6
ĠPREDI CTION
DECO DER
Ġra ctx
4 3
7 11
A s
C orrection
N R
P refs
U ID
U sb
c ist
d ynamic
f n
g raph
n g
p video
q i
r ad
Ġs id
Ġs mb
Ġs uper
Ġs asl
Ġc rypt
st or
at m
se ns
Ġf l
Ġm anager
Ġm aj
Ġre assemb
co w
si x
it o
tr ansaction
Ġg t
Ġh s
Ġn a
Ġr am
ut able
rea ms
ĠA r
ĠA CTION
Ġin l
Ġin p
Ġw arning
Ġk wd
Ġun packed
245 435
ĠH EAD
LE TE
Ġfor ce
is ual
Ġarg i
Ġdata base
64 2
Ġ8 0
AT URE
age nt
ĠS wap
ĠS VC
Ġop erator
Ġbyte Index
ĠG Bo
un used
Ġkey info
Ġto c
ĠI pvideo
Ġpar sing
cm pe
ĠL C
enc p
Re gister
Re nder
comp ute
iv ate
38 58884
Ġuser Length
ok ahead
Ġal ine
mask s
pre c
pre v
AG NO
AG IC
66 62
FA CE
sec ret
30 5
59 6
Ġmin st
Ġof s
be fore
Ġsy llable
Ġdct block
List Entry
result s
SH AKE
Ġbt a
CR ow
inc rement
cpm cist
host key
Me trics
xff fe
Ġpe hdr
Hand le
Ġtrans fer
HAND SHAKE
Ter m
138 3858884
Ġep ctx
198 392
Control ler
Ġ38 870
Spec ifics
Ġcan on
Ġwrit er
If LE
Ġge ometry
219 6
Ġ*/ ;\
unn el
quit to
Ġmos quitto
sens or
245435 2196
ĠGBo xed
ĠIpvideo Context
6662 2454352196
cpmcist ate
1383858884 161
198392 1383858884161
Ġ38870 66622454352196
1 56
3 00
7 28
A Q
C md
E E
E OF
G LOB
H IGH
P error
P OS
S y
T ARGET
W ME
b x
b mk
c x
d uration
f loat
g lob
i od
l m
l pf
l anguage
m ux
n l
r lvl
s ar
s low
Ġs src
re get
Ġc q
Ġc at
er ic
er ate
at ar
le ms
Ġt ry
Ġp bi
Ġb eta
ct f
Ġre order
Ġre lative
al ias
co ap
Ġo k
Ġd dst
Ġv ga
Ġu nder
lo mb
Ġn one
ĠB Y
EN V
Ġr p
Ġx size
Ġstr lcpy
Ġk queue
IT H
Ġ4 1
ĠH ost
ĠT ABLE
Ġarg Converted
Ġj pg
ser ial
il ink
Ġ' ,
pr iority
ĠG C
un lock
un ref
Ġend p
CO RE
Ġse ek
Re ce
Re gion
BO DY
br id
Ġpre sent
31 57
ĠUConverter SharedData
Ġxml Node
pre cision
De cContext
conv olve
Ġsp printf
write int
66 8
54 569
Ġctr l
CR X
Number s
cpm create
plan es
Ġro utine
PAR TITION
Not Supported
cert ificate
ĠPro file
ĠHTTP POST
ug in
79 59
CONTEXT S
Desc riptions
tl sext
ĠrfbLog Perror
Ġdiv x
he art
Ġpub lic
hist ory
Ġelement s
ĠTr ans
cogn ito
ĠDestroy Image
way s
Dial og
mba ff
VIDE O
ĠCOMP OUND
ĠxsltTransform Error
OTH ER
Ġlsp s
FACT OR
ilt in
cbase stor
cpmcreate query
cbasestor variant
) :
0 12
4 29
B ET
B IO
B roadcast
C F
D ir
E F
F eature
G o
H ARD
P lace
P ALETTE
R I
S ENT
S VC
Y S
d one
n ic
n op
q mf
s witch
v no
v irt
x e
Ġs o
Ġs urface
re code
re que
Ġc Cipher
er min
st ick
de coding
de quant
se ction
Ġp ErrorBuffer
Ġb g
Ġf e
Ġm o
al ert
Ġo rder
IN DI
or ing
Ġg state
Ġg fc
Ġg encp
pe at
Ġu sl
Ġn rd
set g
len o
Ġde tails
Ġco ord
Ġco uld
ag ma
ed ch
ed Stream
STR LEN
ab c
Ġstr str
Ġw mv
RE SET
ĠE CHO
ĠF rame
ĠU pdate
Ġun blen
Ġ4 6
OR K
00 9
Ġpro mpt
Ġy off
ME DI
LO OK
AN CE
ĠAV DISCARD
LMBCS Close
di me
no st
ob ile
line s
Ġref erred
Ġerr msg
Ġblock size
Ġvalue len
Ġline ar
Ġcurrent Delta
Re set
Re cord
Ġ6 8
EX CP
byte u
Ġsub frame
Ġerror s
Ġpr agma
Ġ7 7
Ġsc f
Ġsc al
ĠR STRING
ĠR el
ĠR ATE
Ġz ret
Byte To
Ġfile s
cp us
34 00
Ex act
ĠX D
Ġxml Link
Ġprint ing
To Quantum
84 3207
ĠRE CORD
mod ified
number Of
77 7
Ġprev ToUnicode
Ġprev ious
000 1
29 5
rect s
En abled
40 7959
fd d
gist ered
config uration
Se ek
CHAR SIZE
CP Name
lv ls
MAT ION
INTER P
07 54569
cpm query
Ġover flow
Ġ19 2
Request Cre
audio Layer
with out
COM MAND
Sync Change
Close Manager
Ġar abic
cal c
Video Mode
45 2738
ĠOptGroup ByteTo
FUNC ARG
mark er
Col umn
Ġlk Place
HUFF MAN
Ġpk alg
non Standard
neg oti
Conn ect
MR ANGE
Ġnd x
Row s
Ġappend PQExpBuffer
Ġ35 843207
Ġrlvl no
ĠmyConverter Array
136 840
ĠREF ERENCE
ĠAD JUST
war n
ĠCUR LE
Ġmemm ove
Ġextr adata
ĠRET V
CONTIN UE
SYSTE MRANGE
ĠAc quire
642 136840
cmpe q
Ġ', '
Ġunblen ded
ĠprevToUnicode Status
0754569 407959
RequestCre ator
452738 0754569407959
ĠOptGroupByteTo CPName
Ġ35843207 642136840
Ġ35843207642136840 62
A c
C an
D et
E V
I dent
P ic
T ra
W ID
Y P
e fs
h uff
j mp
r w
s on
s cheme
u sec
v ity
x c
Ġ OF
Ġ all
Ġ INFO
Ġs wap
re v
re place
re cogn
Ġc i
Ġc y
Ġc ct
Ġc ancel
de s
de cay
se p
Ġf g
Ġf Skip
Ġm on
Ġre cp
Ġre main
Ġre vs
al ts
co efs
Ġa re
Ġa fter
Ġd h
Ġg ra
Ġu a
Ġu nc
Ġh oriz
Ġh aystack
LL ONG
te nd
et urn
id s
ic ient
Ġr params
DE VICE
ing er
fo ur
Ġin clude
RE L
ĠF LI
str len
Ġsk ey
Ġ4 5
Ġ4 9
ĠC C
FI R
FI LEN
bu gs
ap r
Ġcur sor
Ġex port
SE G
il y
il ity
con ference
UN SUPPORTED
ĠS e
put c
Ġch oice
ĠP UT
ĠP HP
sh oot
ĠG S
red undancyEncoding
Ġkey s
func s
ĠD UL
EX CH
Ġwh at
am ily
comp ression
comp osition
PT YP
ĠEX CP
Ġuni code
Ġatt type
Ġinter face
Ġtemp late
Uni From
Ġme dia
04 34
ĠGet UniFrom
TH RESH
Ġdis play
Ex cluded
Ġal ert
lu te
ĠFF SW
Ġtop right
17 2
Ġparse Array
Ġparse Pos
Ġopt im
base d
29 17
IP v
ĠJ AS
37 9
37 50
Ġsegment ation
Test Extension
ĠIn valid
Se curity
xffff ffffffff
trans mit
go od
go lomb
pa rent
IM AP
Content Settings
Mult ipoint
SY M
MA PTYP
du mp
Ġdec im
ĠSB R
Ġmer ge
Client Normal
CERT IFICATE
Generic Error
Max imum
Map Factory
Ġpn str
util us
Ġisc an
keys alts
On ly
COE F
Ġhe ap
Ġsection s
Sc reen
LOCAL E
Ġisal pha
gg reg
Ġman y
Sl ave
clean se
Ġbink b
sist ent
pol lute
SETTING S
LMBCSOpen Worker
Permission RequestCreator
Ġadjust ment
AVP ACK
Ġvert ical
ĠPRI u
AREST MV
DIG EST
Ġspe ed
unication Mode
ĠHEAD ER
Ġkqueue op
ĠHost ContentSettings
ĠxmlNode Ptr
Ġctrl src
reque ncy
ĠfSkip Arg
Ġhoriz ontal
ĠGetUniFrom LMBCSUni
ĠFFSW AP
ClientNormal Message
ĠHostContentSettings MapFactory
8 3
A v
A FF
D SA
E mpty
H ints
I ES
M y
N ull
P o
P r
S OF
b ar
b pp
b inding
f value
h a
l b
l size
m obile
p id
p buf
r Def
s mall
z one
Ġ NONE
Ġi te
Ġs upervised
Ġc flags
Ġc lean
at ML
Ġp UniChar
Ġb limit
ar ound
Ġf nc
Ġf Is
Ġf loor
Ġre ph
al Band
co re
si te
Ġa pi
Ġa gain
AS H
tr ic
Ġd rop
Ġv st
Ġv ir
Ġu uid
LL OW
Ġn written
Ġn args
Ġr int
CT L
ion Descriptions
ex pect
ĠA C
Ġoffset Num
OP E
Ġk q
ig no
AL F
ĠC FB
MB D
00 04
Ġpro ps
bu iltin
Ġq pix
Ġq cow
lock s
Ġex pect
ĠS pectr
ĠS LICE
mm r
Co ll
LA CE
ĠG L
un ch
22 2
Ġmy Offsets
Ġptr Value
Ġline buflen
CH INE
ay out
ĠL BO
Re plication
Ġ6 7
EX IT
Ġ5 1
Ġ5 6
Ġ5 400
BIT CHUNK
tra ce
Ġdi ameter
am aged
Ġpr im
Ġsh lsize
VER BO
Ch at
Ġuser name
ENT ER
Ġdat name
ĠGet Active
ph ead
stat use
do uble
OW N
mult iple
Ġread Command
Ġindex ToWrite
ĠW ebContents
Ġwork around
Ġlo okup
ĠMAX BITCHUNK
Frame s
Set ting
US H
UNI COMPAT
Ġev signal
54 2917
CONST TIME
Ġsy stick
vi sion
\\\" %
Ġquant izer
Ġquery tree
Ġnode s
Ġrv a
ound Text
man ager
Ġchild ren
Th rDef
-- \\
ie ve
predictor s
Ġpad len
lib c
TS C
Ġar f
Sh ort
TOP RIGHT
Comp oundText
Reject Reason
Ġcluster s
Ġclose socket
PER F
46 3750
rand om
ĠAdd ress
tw opass
COLOR S
ĠSBHUFF RD
met adata
==== ====
TEMP L
arm cap
Ġisal num
Full screen
rfbProcess ClientNormalMessage
Ġgef x
Ġdown enc
SEC URE
484 463750
ATTR IB
ENCRYPT ION
ĠQu antum
LOOK UP
cpmquery statuse
Ġdecim ation
alBand Replication
ĠSpectr alBandReplication
ĠLBO T
Ġ5400 542917
VERBO SE
UNICOMPAT ZERO
cpmquerystatuse x
Ġ5400542917 484463750
2 34
8 00
B S
B cp
D M
D TLS
E LS
G RAM
H IST
L Z
M alloc
M IS
O ut
P AL
P oint
P rintPreview
S IG
S ENS
T CHECK
V oice
c rop
d h
e ed
e rent
f init
g est
h i
h s
i P
m ar
o Unicode
t c
Ġ `
re o
re pair
Ġc dir
st d
at al
le l
Ġp name
Ġb i
Ġb ut
Ġ1 89
Ġf etch
Ġm Chunk
Ġre ason
al lel
ur ing
or ig
an mar
Ġh ad
et Filter
Ġn lm
Ġconst val
Ġr ptr
Ġl ang
CT YPE
Ġco st
ON T
ex piration
SS ECTOR
Ġbu s
\\ \\
ĠE D
ĠF ailed
ĠC l
ĠC lient
ĠH int
MB s
Ġy max
ĠT O
ĠT emplate
CS U
Ġch anges
ĠP H
Co mb
Ġis cnt
Ġframe with
ĠG T
Char Marker
CO W
Ġpi comp
length s
Ġnum result
Ġyy msg
CH RO
po ol
ĠD ATA
CON FIR
Ġ5 5
tra il
count er
Ġth an
out ch
sub size
Ġextra ct
Ġdo apr
St orage
Ġcol lection
ĠR MD
pred A
pred C
cl asses
Ġqu arter
Ġcont ain
ĠV IR
init ialize
80 80
ld ap
Ġpo c
ĠX TS
Ġset ting
50 6
50 38
uff ix
ĠW av
17 6
VI R
Ġrfb Send
Ġev t
FOR CE
28 5
28 34
Ġcontent type
pp p
ĠIN STALL
Add itional
IST IC
Ġpix etFilter
PIX ELS
Ġlocal Clone
Ġmod ifier
du al
range check
send real
Ġdebug log
fragment s
Ġnon rd
Do c
Comp ression
Ġslurm ctld
Text Chat
ĠPQ get
ces sed
ĠNE ARESTMV
wh at
so on
process or
alg orithm
cor rect
finish ed
Ġmis match
Ġfeature s
ENCO DER
Ġbcp Key
hal ftone
separ ate
Ġact ual
Word Starts
atib le
Ġus bi
Ġmissing CharMarker
GLOB AL
ermin ation
dime nsions
SOF T
Ġiscnt rl
Ġframewith pts
CONFIR MATION
sendreal soon
* .
1 12
8 10
8 19
A I
D CT
E MU
F N
I AX
J OR
M ONE
M FB
M CBPC
N s
R ules
T AP
T CP
T ARY
V T
W B
W R
X Y
X ML
Z VAL
a k
g pg
i ot
k vno
l kt
p ct
p ress
q delta
r v
r sl
s ct
Ġ END
Ġ LEFT
Ġi dent
Ġs scanf
re p
st mt
de pen
se lec
Ġp do
Ġp Tag
ro sk
Ġm aster
Ġm ove
Ġe strndup
Ġre quired
co pe
Ġa ction
Ġg ue
pe ar
Ġv b
Ġu pack
Ġh len
lo cale
et h
Ġr x
mp rintf
ch ain
ĠA LT
32 4
Ġk w
ĠF i
Ġsk b
Ġy ou
Ġq mat
ap ply
ĠT oken
Ġdata len
ĠM K
ĠM GS
ĠM DB
Ġch anged
ĠP G
ĠP MV
Ġop j
Ġval s
row variant
ĠG if
Ġkey word
Ġnum rows
22 1
pl us
ĠI B
Ġyy state
all no
Ġline s
Ġ5 00
Ġbs l
Ġmem ber
Un able
Ġ7 0
SET UP
Ġnew p
sa ved
ane ous
Ġtr r
CM D
Ġmax imum
ans wer
per ms
26 24
0000 0
IS AM
Ex tent
ps nr
pre ce
cb lk
ĠQ COW
ĠW AVPACK
Ġsp f
66 0
rol ling
sb y
TO O
node s
node id
Ġattr Buf
57 6
Ġtw o
Ġcf rm
ATT ERN
fl ate
bin ary
97 5
Ġover lap
ĠSet Image
SA MPLE
ĠLIB F
MA CHINE
MA JOR
Bit Count
Ġtl cb
Ġtl sext
Ġar ith
Picture Memory
ĠIs Origin
49 6
Ġtt f
rfb Set
ĠRe f
MO T
ĠNE WMV
User Input
Default S
Ġcal led
Ġfull Path
Ġrt mpt
sqr t
remo te
ĠxmlStr Equal
ĠDI SSECTOR
Decode Context
Payload Stream
force d
rfbProcess FileTransfer
variable s
ĠSvc Context
ĠUCharErrorBuffer Length
ĠHttp Header
ĠParse Rules
Custom Picture
fac s
resi lient
AIL Q
ĠUD VM
Ġhy brid
prim aries
Usb Device
Ġna utilus
Ġunder flow
ĠGC RY
virt io
Ġmo unt
negoti ate
Det ermination
WID TH
rw ptr
recogn ition
Ġbi BitCount
ĠWav pack
MONE TARY
iot ap
rosk a
ĠIsOrigin Secure
1 89
2 38
2 17
7 31
8 26
B C
B R
B ER
C tx
D H
I nd
I CK
J ob
K VM
M AGIC
N L
R ect
S ort
T BIT
T IMER
U se
U pack
Y M
b j
d d
d s
h p
i et
l den
m ery
r ule
s si
s du
w o
z z
Ġs n
Ġc sub
Ġc annot
st andard
\" '
Ġt z
in ux
Ġp ht
Ġp atch
Ġp asses
ro utine
Ġ\" &
Ġ\" '
AS SE
IN C
Ġg ld
pe er
Ġv id
lo sure
et ype
Ġn c
id i
ĠB lock
mp cpy
Ġl hash
Ġde l
ch k
ce eded
th row
nd or
STR U
ĠA AC
Ġstr buf
RE G
STRING L
Ġchar set
ve ndor
ĠE n
str ong
Ġun supported
STA G
ĠC IN
ĠH EX
if rame
ĠT D
ĠT LV
ack s
64 0
AN ES
name space
sp rintf
ĠS RP
ĠS CRIPT
ĠP ACK
no s
ent ication
LA BLE
LA MBD
ĠG CM
ĠG SPL
Char ToQuantum
Ġgo lden
sk top
bit Rate
us pend
col lation
ref ptr
bo ok
VAL S
RA CE
qu oted
ĠD SA
Ġle ad
CON V
Ġ6 9
Ġ5 3
buf s
Ġwh en
table s
ET IME
Ġpr incipal
ĠDEC ODE
ann ex
Un supported
Data Application
Ġ7 2
Ġms ys
Ġbit offs
ĠO UT
vm c
per missions
ĠV irt
ĠV ersion
decode d
time base
Ġdis abled
Pro perties
19 7
ĠRE Q
Ġsl cf
NOT ICE
Set up
Ġhas match
DU Size
cont inue
Ġup per
SPECI FI
mo unt
desc riptor
go mery
STAT IC
MENT AL
Ġpc nt
NE CTION
Ġbe fore
IM AGE
Mult iple
ĠPI CK
ĠSB NUM
49 67
DB CS
Ġfp inf
LogicalChannel Number
Do uble
Of Profile
ĠRT MP
At Index
Ġxstr cat
ĠDP B
mont gomery
rectory Iterator
By Id
AV AI
Ġes caped
ĠReadBlob Long
ĠBINK B
Ġyyss p
EXTRA CT
Ġargument s
patch es
Clock Recovery
ech o
retr ieve
FLO AT
cpmset binding
Vi sible
ĠScale CharToQuantum
allo ca
PRIV ATE
glob al
son ant
igno re
ĠGT K
ĠALT REF
ĠPACK ET
LAMBD A
ĠGSPL ANES
DataApplication Capability
Ġmsys log
AVAI LABLE
. '
8 29
< /
A K
D OWN
H igh
K PASS
L ine
M od
Q ual
Q PEL
S imple
T emp
U Converter
U sing
U SED
a fe
a use
c ard
d g
d m
g ine
g ing
g ob
k f
m r
n ormal
r al
s f
v printf
v dp
w bio
Ġi memory
re cp
Ġt key
Ġt ctxt
in ance
Ġp From
Ġp letoh
Ġ1 00000000
Ġ\" :
Ġe mprintf
Ġre l
Ġre ce
Ġre gs
Ġo c
it ter
tr unk
Ġd ot
Ġd ca
Ġg fi
Ġg rid
Ġg rr
Ġn checks
EN CTYPE
EN VIR
Ġr lc
Ġl rc
Ġl anding
Ġl arge
Ġde block
Ġde lay
Ġde legate
to o
to re
ase s
ON MENTAL
ex pert
ex tend
ss less
ĠA sn
Ġin cre
Ġw ww
Ġw ckey
vb p
Ġk Pro
ĠE nt
ĠF N
ĠF S
ĠF orm
245 380
ĠC on
MB ER
pro ps
Ġsize hints
Ġq os
ĠT IME
ĠT AILQ
frame d
AT IVE
en coder
op acity
op ulate
ĠM SP
12 2
ĠS H
ra ise
Ġ' }\
Ġ' .'
ĠP L
ĠP rintPreview
ĠP opulate
Ġval idate
unt ime
Ġbyte One
Ġis lower
AR MV
mem dup
128 364
fi lt
Ġpi rlvl
Ġerr code
par allel
PH A
col late
col umns
Ġmy Byte
RA W
Ġcurrent State
Ġmv s
Ġse curity
ĠL P
Ġgb at
od d
FL USH
Ġ7 8
Ġ7 07
ĠR SA
mi ssing
225 0
ĠO pen
10 1
10 6
cl ut
sy ser
Ġtr ansport
per sistent
KEY S
ĠV p
ĠV AR
ĠV GA
init ial
ĠN um
ĠN ot
ĠGet Render
ph ys
11 9
11 172
Ex pr
Ġxml Malloc
13 69
LIT Y
14 364
PRINT F
Mode Parameters
uff icient
ĠMB FL
Ġdir s
ĠW TAP
hand shake
RT IT
system Iterator
66 048
ir q
Ġopt len
Ġvar s
87 59
Ġrfb Read
Par ser
Ġit name
Se arch
status code
Ġbt vdp
CP U
mo ve
Ġitem Length
Ġalloc ated
Ġnode set
ĠAR G
And C
And roid
Ġsb len
Ġauth ctxt
ne ss
Di ag
Ġip v
Ġim aged
FE ATURE
ec x
Ġcall id
PO INTER
ansp ose
oriz er
Ġmd ct
Ġback size
Res ume
ĠHTTP REQ
ĠCPU State
Ġhist ory
Ġnon ce
Ġavail Data
WIT H
ĠTest Browser
ĠCURL FORM
connection s
82 1094
cent ral
ĠCreate ProtocolHandler
Attr ibute
Ġprog ressive
LAYER S
fra ction
ĠFind Visible
306 245380
Ġll buff
RES ULT
ĠMock UsbDevice
duct Name
ĠEXT ENSION
ĠSvc Internal
ĠZERO MV
ĠSUB PEL
MultiplexEntry Reject
safe free
mg r
Ġigno re
047 00
ĠVar iable
ĠInstall CRX
Notification ById
Ġimp ort
ste am
Ġcomponent s
wb xml
Ġmag ic
Ġmcd params
Ġmat roska
Del ay
roll up
ĠxmlLink Ptr
Ac cept
EV ENT
FILEN AME
xffffffffffff ffff
ggreg Set
Ġprim ary
SENS ING
ĠED GE
ĠTemplate URL
5038 844
ĠPQget value
gpg me
press ure
prece des
uspend Resume
KPASS WD
ĠpFrom UArgs
ENVIR ONMENTAL
ĠkPro ductName
ĠMSP ACK
128364 821094
14364 04700
ĠrfbRead Exact
Ġimaged ata
ĠTestBrowser CloseManager
ĠFindVisible NotificationById
306245380 1436404700
128364821094 5038844
, \"
- %
2 33
2 048
3 16
4 55
8 0000000
9 17
9 33
< %
= '
A CH
B L
G TYPE
G roup
G OB
J PEG
L D
L eg
L BMP
M CO
M utex
P ort
S ample
U p
V iew
W E
X vp
_ \"
b v
c db
e er
e ap
g q
g ex
i rd
i ator
i ated
i hs
l n
l cl
n itude
p ace
p mod
s me
s upport
t le
u Length
x D
z h
Ġ NAME
Ġi row
Ġs w
Ġs chro
Ġs alt
Ġs bio
Ġs lot
Ġs uffix
er gy
de ncy
de sktop
le v
le ave
Ġt d
Ġt sig
in formation
in clude
Ġp em
Ġp ol
Ġp To
Ġb fi
Ġm mem
Ġm pa
Ġm ark
Ġm rk
Ġe os
co okie
co okies
Ġa rea
tr ue
Ġd v
Ġd name
Ġd sa
Ġv stem
Ġn bits
NU MBER
id c
id ump
Ġcon vert
Ġr le
Ġr value
Ġ< %
ine l
Ġl inux
Ġreturn rate
to Unicode
pi pe
ab ove
um ts
ĠU C
Ġun able
Ġun pack
16 9
Ġ4 7
able space
Ġy q
Ġbuf Idx
LO DE
AT TEMP
ip ped
ĠS ize
Ġch at
sh utdown
Ġref count
CO LL
ED GE
Ġkey seg
def ined
Ġto Base
Ġmy anmar
ĠI P
qu ote
ĠL ist
Ġ6 1
rit er
Ġ5 9
ind ices
Ġbs wap
Ġsa v
Ġnew buf
Ġnew tvb
Ġz s
38 8
ĠO id
Ġen ergy
Ġbest sme
per bit
04 38
ĠV oice
start ing
Ġcomp ressed
20 59
Ex pect
Ġal gorithm
14 75
mod ify
AC CESS
ance llable
Ġinit iator
De legate
ĠQ EMU
ĠW indow
skip pable
Ġpd uLength
db a
39 8
29 66048
SPE C
35 79
Channel Close
40 7
dis play
dis covery
Ġup coming
PRE FIX
Ġca use
ĠUConverterData HZ
IM UM
ĠSE P
segment ation
Ġauth entic
Ġsock addr
seq no
Ġtl sc
For One
eb x
PAR ENT
Ġ27 1369
52 04
Ap pend
ĠPR INT
ĠPR Id
Do main
Process Host
ĠassertEqual String
letoh s
Desc ription
boost ed
Ġrun code
ĠSync Data
SC AL
ĠST P
Inter val
case cmp
orr upt
ĠIM GTYPE
Init iated
Settings ForOne
mag nitude
72 31
Ġsu ccess
character istic
Pending CustodianApproval
slurm ctld
Supervised User
gra de
Ġtcmp t
Ġtcmp ts
Inst ance
sof t
pub key
ĠAutocompleteMatch Type
Ġsent inel
Ġlyr no
intenance Loop
Permissions TestExtension
429 4967
INDI CATION
nost ic
Ġscal ing
inger print
Slave Determination
Ġite ms
ĠGL RO
oUnicode WithOffsets
Storage Variant
UserInput Capability
STRU CT
ĠEn coding
ĠREQ UEST
syser ror
ĠGetRender ProcessHost
8759 2966048
central ized
ĠEXTENSION S
LBMP DM
ĠpTo UArgs
ĠVoice Data
Ġ271369 87592966048
SettingsForOne Type
Ġ27136987592966048 55
. %
0 77
4 22
4 04
5 77
A ggregSet
B ub
E nt
F D
H I
I LITY
L iteral
M AP
N eg
O id
P ref
S ession
S NR
S tore
T P
T ri
U DP
V MC
W h
a pi
a ded
d x
f un
g st
g ate
h cursor
m jpeg
m ni
n sit
o cs
p df
q os
s qu
v l
v ices
v oice
w s
w orker
Ġ DIRECTORYSTRING
Ġs rec
re j
re gs
re assemb
se nsit
Ġt sc
on y
on State
Ġp f
Ġp state
Ġb len
Ġb order
me an
ct ivate
Ġf a
Ġf b
Ġf ur
Ġf inished
Ġ\" \\\"
Ġre d
Ġre rr
Ġo ob
tr ate
Ġd n
Ġd p
Ġd r
Ġg row
Ġg fs
an ded
ST D
Ġv q
Ġv ma
Ġh start
Ġh step
ad vance
lo sing
te nv
set ting
Ġr sa
Ġl p
Ġl fi
Ġco mplete
to pic
ch anges
code point
rea ch
Ġst rerror
ĠA LLO
Ġin c
Ġstr ucture
32 56
RE J
str size
AL ERT
AL PHA
ĠU CM
ĠU FILE
16 7
ĠC AT
data value
data WithAL
pro tected
Ġpro xy
Ġy dst
ap Identifier
ap phead
Ġcur l
ĠS A
ĠS er
ĠS upervised
ĠS HA
Ġuint ptr
Ġ' {\
row set
no inline
mem ber
LA IN
un matched
Ġfi x
ert ificate
22 08
Ġmy Mem
all y
ĠL PC
ĠL uma
Ġtarget Byte
error Correction
EX PECT
read y
Ġcode point
Ġtmp str
Info Vector
Ġth r
Ġdo cument
ĠR em
Ġ/ =
Ch anged
Ġass ocs
Ġuser Info
55 99
min us
valid ate
ĠN SS
Ġcomp r
FRAME NUM
inter n
inter vals
80 1475
34 56
Ġxml GenericError
Ġ9 2
Ġ9 6
sit InfoVector
mult ipoint
Ġread er
Ġstd in
ts apIdentifier
ĠMB s
oo se
15 9
Ġopt s
Frame d
Ġrfb Stat
UNI X
54 49
part ial
video WithAL
:// \"
store u
ci i
Ġnb d
trans form
guint var
OS ITION
vert ical
Ġsign al
And Transmit
Th read
NE ON
Mult ilink
Extension Install
my sql
audio WithAL
01 00
Is Valid
ĠEN ABLE
Ġlib fvalue
PO INT
AB ILITY
cert ification
ĠIs PendingCustodianApproval
Ġchunk alloc
Ġback bytes
60 65
ug ht
INIT IAL
Reject Cause
Ġwrap per
138 18
Node Set
Read y
Ġdeno ise
Ġwith out
Inter le
Map ping
ĠNE ARMV
wh o
Ġpn len
ident ity
Ġ\"< /
ĠFile systemIterator
conf lict
Default Value
ĠPROTO BUF
Ġ60 801475
lit tle
ĠCont ent
Ġquote P
receive AndTransmit
erred Encoding
Ġbcp Type
Dis able
Ġsu f
306 2624
ĠxmlList Ptr
Ġnmv sad
ĠMock PermissionRequestCreator
Ġinfile size
hel per
ĠRes ource
337 10
MAC RO
qcif MPI
crow seek
REMO VE
MALLOC ED
Ġvbr anch
tot al
802 11
Ġreassemb le
156 33710
BET TER
Go ogle
Record Message
four Channels
THRESH OLD
ĠGetActive WebContents
ĠCl one
Additional PictureMemory
ĠRTMP T
Ġ707 2059
Ġslot id
Ġchat net
orrupt Image
4294967 295
ĠEncoding Mask
Bub ble
mni box
Ġgrow n
Ġhstart col
ĠSupervised User
ĠtargetByte Unit
EXPECT ED
ĠrfbStat RecordMessage
5449 15633710
Ġ60801475 3062624
Ġ7072059 544915633710
Ġ608014753062624 6065
' '
0 11
1 87
2 24
2 50
2 84
2 89
6 39
7 99
7 117
: :
B I
B AT
B LOB
C Y
D L
D en
E val
E MPTY
N OR
O p
O ff
O IN
P MB
P art
P MODE
P ATTERN
R EN
R aw
T e
T ABLE
U D
a ver
a ac
b limit
c sub
f ul
f amily
i ation
m art
o ther
p ression
r sa
s val
s EngagementHistogram
s uspendResume
w n
x fe
z y
z bin
Ġ NU
Ġ DE
Ġ STAT
Ġ OPTION
Ġ ORDER
Ġi map
Ġs x
Ġs printf
Ġs mart
re ply
er mission
st it
de coder
de tected
le nt
in ch
in ner
Ġp gs
Ġm Channel
Ġe mail
Ġre alloc
al low
co ord
tr unc
Ġd id
IN STA
Ġg eneric
Ġu md
Ġh h
Ġh stem
ad v
te red
ĠB u
Ġr conv
Ġx max
ce ne
DE L
STR VAL
arg v
ĠA F
ĠA uth
Ġin buf
vb lock
ĠF ormat
ĠF PMB
ĠU PACK
Ġ4 2
Ġ4 3
ĠC A
ĠC AF
ĠC orruptImage
LE MENT
Ġq type
ap pear
ĠT OKEN
Ġcur ve
Ġ% .
SE EK
Ġer ase
con su
con sumed
ĠM T
ĠM AP
ĠM PC
Ġch oose
ĠP CP
ĠP assword
ĠP ermission
AR GE
mem cmp
un decoded
Ġnum bytes
Ġmy self
INE T
RA DI
ID ENT
Ġse en
ĠL ength
ĠL BER
ĠD ownload
Re served
ang ing
string s
Ġtmp Target
Ġdi alog
Ġsub Args
ass oci
Ġinfo p
sub frame
Data Type
SR P
Ġnew expr
Ġatt ty
Ch anges
Ġresult s
pred B
Ġpre stream
Ġtr ansaction
Ġme mpcpy
per m
ĠV al
PR OFILE
ĠN ull
inter laced
80 6
IS CII
filter s
34 0
34 555
pre t
var int
Ġfrom len
ener gy
check headers
IL DE
igh b
AG AIN
De bug
77 9
ĠW HERE
Ġlo ssless
ĠIS CII
35 197
69 6
En able
En coder
Ġmin imum
Ġup stream
part y
Test ing
Test Supervised
Ġca ched
tte mpt
\\\" \\
bl ur
for w
CR C
Ġrs z
down load
dc ert
Ġsign value
PRO XY
not set
Ġpass wd
queue s
malloc z
25 131
Request Id
pg p
SY MB
Load Metrics
Sync ing
Sync Changes
DB G
Ġremo ve
Al gorithm
98 192
adj ust
Ġsto re
ĠPR OFILE
This Source
Ġinitial ize
Match es
Comp are
Ġsecond ary
Multiplex edStream
Ġreal path
wh ile
Ġtlv Flags
multiplex Parameters
prog ressive
Ġappend At
ĠMake Unique
Terminal Broadcast
MI SS
Ġla fe
FILTER S
ĠxmlHash Entry
pat tern
Sign ature
ĠSyncChange List
vid er
Ġcalc ulate
THREAD S
inv f
NonStandard Parameter
Ġdt or
wrap per
ĠExtensionService TestSupervised
ENCODING MASK
sin ce
ĠkHttp EngagementHistogram
ĠkHttp sEngagementHistogram
ĠProcess SyncChanges
846 35197
Ġcseq met
ĠAMR WB
ĠSpline Point
704 933
Tra il
ĠparseArray Simple
My LogicalChannel
ĠMK TAG
496 0438
ATTEMP TS
quote s
Expect ations
ĠNU V
ĠCorruptImage Error
ĠtmpTarget Buffer
Ġattty pmod
ĠNull S
34555 84635197
Encoder Config
25131 98192
TerminalBroadcast er
704933 3455584635197
4960438 2513198192
49604382513198192 37
, %
1 24
1 50
2 39
2 37
2 18
5 0001
7 66
7 97
D X
E num
F ac
G NU
H int
I nc
M IC
M MR
O ption
P KEY
P osition
Q OS
R c
R ATE
S V
S up
T ILDE
U MP
V ED
W A
W CS
W rong
X C
Z ero
a ched
b lo
c v
c andidate
c annot
d k
d key
d ts
e ph
f inal
h our
i ht
i ssing
n p
n name
n sec
r ing
r lvls
t sc
w as
w ant
x digit
Ġ OP
Ġ DISPLAYTEXT
Ġi nd
Ġi cc
Ġi vec
Ġs ect
Ġs of
Ġs buf
Ġs cene
re ject
re tent
Ġc ms
Ġc group
Ġc orrection
Ġc ancellable
st ype
de limiter
le ph
le ading
Ġt buf
Ġp val
Ġp ntoh
Ġp stype
ro ken
Ġf di
Ġm info
Ġ\" #
Ġ\" '%
Ġe cb
Ġe lems
Ġre size
al len
Ġo ct
Ġo sp
Ġo fb
Ġo wn
Ġd ownload
Ġd amaged
Ġg size
ST IC
Ġv dev
Ġv Type
ad ow
lo ur
te ction
te xp
Ġn r
ER AL
ĠB T
ĠB AD
mp dm
as cii
Ġl fe
Ġde tect
CT F
Ġreturn ed
to bj
Ġx ch
ce d
Ġst ub
Ġst rength
Ġst reams
ing Information
nd le
pi ct
Ġin ner
Ġin flate
add itional
Ġw pc
ĠE P
ver bose
str act
ĠU SER
Ġmb n
ĠC lose
ĠC ERT
ĠC eph
data file
MB AFF
00 87
Ġy size
Ġy ear
Ġq mode
Ġq ps
ap plication
ĠT WO
ĠT CTF
Ġ3 55
Ġex ec
Ġex tern
con sonant
Ġproto buf
ĠS im
ĠS CSU
DEC ODE
di rection
ĠP CN
ĠP LAIN
sh adow
Ġval ign
im in
Co okie
Ġis graph
no ugh
ĠG OLD
DI FF
of b
un ct
Ġste reo
fi ve
Ġto trate
Ġget Trail
Ġmy Data
ĠI ARD
Ġyy error
Ġline no
ĠL M
Re q
Ġ5 4
Ġ5 7
Ġtmp State
Ġth ird
out len
Ġbs se
Ġsub packet
ass oc
Ġsrc port
Ġsh ould
Ġsa fe
comp are
Data For
Data ProtocolCapability
Ġz z
ĠO mnibox
Ġpl ace
Ġass u
Ġuser Key
Ġmax band
55 17
Ġcont ains
Ġjob id
04 68
ĠV er
56 6
11 506
Ġpo six
Ġtime lib
13 0087
50 731
To o
check sum
Ġfield s
Ġread ing
cb py
igh texp
ĠQ MODE
77 29
width exp
Ġlo okahead
her it
35 130087
Par am
dis sect
Tr ue
ĠZ VAL
Ġtot dist
COMP LETE
SH ARE
27 8
Se cond
Ġuse DynamicWindow
\\\" :
Ġhttp req
cpm fetch
UChar DBCS
Ġsign ed
Ġmatch freq
pa u
ĠSet Boolean
Ġevent s
Ġmessage s
ĠSE ARCH
SY MS
Ser vices
Ġmod ified
token s
Target UCharDBCS
Ġip addr
ec c
temp ts
Ġkrb error
open pgp
oriz ing
mc vs
Ġpack ed
sr v
FORMAT ION
Ġssh key
Text Extent
138 19
MBC ST
Generic Capability
76 576
ENS URE
multiplex Entry
leg al
DISP OSITION
so a
Terminal Label
alg name
present ation
cpmget rowset
Ġcharacter istic
Ġexecute Query
obj core
ĠAutocomplete Result
ĠTr ansport
Init ial
cluster s
Ġ37 2834
ĠInit ialize
ĠInit Services
Ġwrit ten
IND OW
mail to
ni ffer
resource s
TRAN SF
Ġscope s
horiz ontal
Ġvirt io
ĠRS b
ho ok
separ ator
NB D
super frame
Ġstrto k
gra nted
Ġsin pi
ĠExtensionService Sync
BOUND S
uni que
643 35130087
110 50731
877 11506
airT oken
Ġfast Single
apsh ot
ĠMax TextExtent
Ġaline len
AGNO STIC
CRow Seek
ĠcurrentDelta ToUnicode
ha usted
ĠmChunk Size
cblk s
SPECIFI ED
ĠSBNUM SYMS
afe Clone
Ġincre ase
ĠEnt ity
ĠFS b
MultiplexEntryReject ionDescriptions
Ġauthentic ated
ĠSyncData List
2208 87711506
ĠRem ove
helper s
7117 0468
ĠTOKEN EXTRA
LoadMetrics BrowserTest
MISS ING
blo od
retent ion
allen ge
Ġ355 220887711506
ĠSCSU Data
ĠGOLD EN
ightexp n
widthexp n
cpmfetch value
cpmgetrowset notify
Ġ372834 11050731
TRANSF ER
AGNOSTIC INFO
71170468 64335130087
Ġ355220887711506 893
Ġ37283411050731 76576
' s
) )
0 16
1 0000
8 16
9 10
B P
B ad
B ABILITY
C allback
C GROUP
C ANDI
D ig
F Y
F IT
F AST
F etch
I MPLEMENT
J o
K IND
L anguage
L ANG
L ayout
L ARGE
M ock
M aster
O I
P ho
S p
U nt
V DP
] \\
a fter
b p
d sa
f r
f x
f list
g l
g ue
g op
g nutls
h q
h or
l ab
p sprintf
r nd
r ules
s lot
t ar
y ze
y ear
Ġs mp
re quired
re peat
Ġ* ;\
er ived
st ation
st ime
at er
at tempts
se ss
Ġt er
Ġt ts
Ġt gq
in qu
Ġ0 777
Ġb in
Ġb qp
ar ing
ro pp
Ġf tl
Ġm jpeg
Ġ\" *\"
Ġe q
Ġe nough
Ġre loc
Ġo tr
Ġo buf
Ġo gg
tr an
Ġd ash
Ġd pb
IN SERT
or igin
Ġg a
Ġg ob
ST IMER
Ġu dp
ad aptive
et o
Ġcon v
ER VER
len ce
ic u
Ġr qp
ine ment
Ġl st
Ġl anguage
Ġde nd
Ġco ef
ch anging
Ġx min
code book
ase StorageVariant
DE PT
th ree
fo l
ex cluded
ĠA LLOW
Ġstr ptr
Ġstr cpy
Ġw ait
Ġw rk
24 07
24 90
Ġk Excluded
ĠF or
str ib
str uction
ĠU DP
ĠU SB
ĠU RI
tx t
tx size
el l
Ġpro perty
Ġ8 20
Ġ8 46
Ġex ist
LO OP
con verter
op p
ĠM e
ĠM erge
MBCS From
12 100
ERR NO
ĠS G
ĠS ort
ĠS YS
DEC L
Ġch r
Ġch pw
im b
Ġis default
no te
ĠG Type
Ġend ian
unc iation
RO ID
bo xed
Ġmv cost
mple ment
ĠL XC
ĠD CM
AD B
CE IL
byte count
Ġlast seq
FF F
Ġth at
Ġth iss
ann unciation
new able
Ġ7 9
DAT ES
Ġnew pic
load ing
iv ing
EG OT
Ġz pad
Byte Context
sy m
Cap abilities
TR OPY
LI FE
Ġme an
04 00
04 48
ĠV DP
ĠV LC
ĠGet ByteContext
ph an
Pro xy
IS DIR
Ġ'\\ ''
19 69
19 54
Ġ9 7
To UTF
14 0
14 58
Ġap ps
ĠFF ALIGN
EXT END
NOT IFY
ĠW IN
ĠW ORK
vent s
17 09
Ġcomm it
Ġpicture s
ĠMAX IMUM
Set Present
Ġvar c
AND ROID
Ġrfb FileTransfer
30 7
ĠJ ob
CUR ITY
Ġsy mbol
OL C
Ġca ught
jo int
EXP LODE
msr s
ĠNOT IFICATION
Ġ13 00
desc r
desc riptions
Ġcontent s
cur r
xffff ff
MS C
Fi lename
Ġext cap
PRO BABILITY
CA USE
NE SS
spec ified
ram erate
Me tric
Ġsql buf
segment s
color space
control ler
CB R
CB aseStorageVariant
Di ctionary
lic it
Encoding s
44 1954
Ġne ighb
88 3256
COR NER
ish Magick
seg data
Ġchunk want
tern ate
Al location
dig Pho
60 6
esi s
ĠPAR T
Ġcblk no
Match ing
PG P
Ġssh pkt
Ġpayload len
ĠTest Parse
cast si
Node Id
vector s
reg ulator
bound s
Audio Mode
Update Request
ĠTEST BUFSIZE
ĠMake SyncChange
Pixel s
Ġlock ed
ĠEV CON
media Channel
ULL ONG
OT AP
ĠFRAME FLAGS
ĠDO UBLE
Ġcre ated
Sign In
Packet ization
CLO SED
ĠLo ad
ĠLo ading
Ġcookie host
DY N
Ġht on
SYS MACRO
xffffffff L
Ġbig num
Transport Address
gu ard
Ġigno red
Notification Observer
ĠStart Http
Back ground
REC V
Inst alled
Scheme s
la mbda
---- ----
755 883256
sw ab
As pect
ĠTrans fer
ĠDestroyImage List
MEDI A
ĠRel inqu
calc ulate
Connect In
379 441954
ĠInvalid Oid
ATTRIB UTE
ĠPH AR
Ġcontain er
sct p
eth od
Ġmember s
826 12100
Sort AggregSet
Ġnc and
640 58
455 82612100
Leg al
COLL ATION
Tri al
ĠrfbStatRecordMessage Rc
ĠSTAT ISTIC
Ġdid send
consu me
RADI OTAP
ĠVal ue
Sup pression
ĠPCN ET
CANDI DATES
FIT NESS
VDP AU
lence Suppression
DEPT H
2407 0448
ĠkExcluded Schemes
MBCSFrom UChar
Ġchpw fail
EGOT I
Ġzpad len
ishMagick Memory
digPho to
regulator y
ĠMakeSyncChange List
SYSMACRO S
755883256 379441954
ĠRelinqu ishMagickMemory
45582612100 24070448
ĠrfbStatRecordMessageRc vd
1 77
3 3157
6 27
7 07
: *
: \\
A E
A lter
B IN
B PP
B IND
C Restriction
E rr
E DED
F R
F ragment
F requency
G ra
G Type
I MP
M in
M STI
N D
N ING
P SW
Q MFB
R SA
R untime
S plFile
T ry
V ia
W OR
W AY
X X
Y ou
b ps
c le
c ms
c string
d name
d ash
e e
e qual
f g
f ro
f ed
f tp
g object
h ref
i br
k ick
l um
l aw
l arge
n x
n ative
o ct
r u
r at
s q
s v
s Engagement
t ctf
u ccess
v type
w ind
w ill
x slt
Ġ ur
Ġ PE
Ġ ath
Ġi count
re ase
re gistered
re lev
re newable
Ġc v
Ġc ch
nt ax
er rc
st yle
st rength
at of
le ted
in ct
in spe
Ġp Value
Ġp blocks
Ġp ci
Ġb a
ar n
Ġif debug
Ġ1 50
Ġf r
Ġf offset
Ġf ol
Ġf inish
Ġf atal
Ġf ingerprint
Ġm lu
Ġm pc
Ġm utable
Ġ\" /\"
Ġe vb
Ġe of
Ġre v
Ġre le
Ġre code
Ġre use
Ġre qui
al ic
al ways
co rr
Ġo ur
Ġa nal
Ġd erived
or s
or ity
Ġg reen
pe t
pe ek
Ġv ol
Ġu q
Ġu size
Ġu vc
Ġu sing
Ġh it
Ġh ead
lo st
Ġn bytes
Ġcon sumed
ER S
ĠB o
ĠB FP
Ġr si
ut ing
as pect
Ġl data
ch apt
Ġst ar
th r
ex ception
ĠA T
ĠA ss
ĠA ttempt
Ġin Bytes
Ġin formation
ab stract
um d
um eric
Ġw w
Ġw eb
Ġw rong
Ġw tap
RE TRY
vb r
Ġk k
ĠE IGH
ĠE MPTY
Ġhf s
AL WAY
ĠU P
Ġmb type
Ġmb skip
Ġun match
Ġun hex
Ġun compressed
16 17
Ġ4 00
ĠH ALF
ĠH eap
data Type
MB V
MB LE
is ing
Ġ3 69
ist ics
64 28
frame src
Ġ8 2
Ġex pi
AT IAL
ĠAV S
op aque
ĠM OS
ĠM AKE
ĠM MCO
ĠS V
ĠS CHRO
di alog
ĠP DU
ĠP eer
Ġis f
Ġis Legal
Con sumed
un loadSharedData
Ġend l
mv mask
mb s
mb ed
mb olic
log ical
log ging
par s
col l
22 26
ref l
CH AN
UR I
ac l
AD JUST
CON NECTION
CE L
am ped
Ġcl abel
res olution
gs niffer
alloc ate
Ġ7 6
Ġsc seq
Ġnew val
Ġnew count
Context Ptr
ĠR K
ĠR eturn
Ġms zh
EG ORY
Ar q
225 668
Ġff lush
38 88
ĠO CSP
UL ength
Ġpl ain
Ġpl ugin
TT AP
Ġdest port
Ġdest roy
cs v
FO RE
Limit Error
ENT S
ok e
Ġme th
ĠUConverter Name
26 390
04 5
ĠN on
ĠN ode
ĠN ET
Ġas f
Ġcomp ress
Ġdis card
stat p
11 5599
20 2
34 1094
Ġal imb
Capability TableEntryNumber
ĠX WD
ke ep
Ġenc Buf
Ġ9 0
To ULength
pre diction
Ġap ply
Ġfield mv
sl ash
mult icast
Mode Element
SP ATIAL
AG GT
IV LEN
ĠYY STACK
fe c
db name
SU M
GRP SIZE
Lo c
87 5
87 04
AST ER
ĠJ OB
dis k
ient ific
ĠZ MBV
Ġold ToULength
28 6
fd part
PRE CI
Ġattr ib
Ġactive h
Ġactive v
fa ction
Ġalloc ator
Ġpart ial
67 54
INTER FACE
ĠtoUL imit
And Close
Ġlocale Name
Ġobject s
65 1458
host set
ĠSE CTION
Ġsig action
cap len
ute s
Ġor s
ne ed
Ġro pt
Key word
ĠEN TROPY
message s
COL GRPSIZE
fp q
cal ibr
Ġmac inf
45 14
ĠNO TE
Ġns v
Ġback ing
ĠExtension ListEntry
ĠExtension Specifics
Al loc
oh ci
Ġnull frac
Per Frame
Table Ptr
utt on
Ġavail able
Ġbl ue
Ġ23 35
select ed
Free Func
DISABLE D
SC OPE
reg ex
Ġbw l
Ġseq no
Memory Allocation
mont h
align ed
Terminal ID
Ġdup p
ched ule
Ġhal fpq
ĠINTER FACE
FileTransfer Message
Ġpub keys
BG R
ĠFIRST SOCKET
function s
Ġkad min
ĠNavigate In
Ġqtm d
air One
Ġper iod
Ġbcp Value
Ġneg ative
Descriptor s
ach ine
Ref inement
Download s
ĠDI AGNOSTICINFO
If Ready
hance d
Ġhw addr
1066 1709
Auth entic
Ġll str
Ġsym code
Ġsym buf
Page LoadMetricsBrowserTest
deno ising
HA VE
Ġisp rint
AME TER
ĠRS L
Ġdig it
Ġdig est
Ġmemm ory
Ġstrto l
Copy Func
Stat Data
ACT IVE
MULT I
ĠHttp sEngagement
ĠRes olve
Ġlt id
ĠURL Row
Sequence Numbers
Rem ote
Comm onState
COMPRESS ED
airT wo
ins ufficient
estim ate
estim ated
Ġsuper block
Ġsasl serv
Ġfl ipped
ĠGBoxed FreeFunc
ĠGBoxed CopyFunc
0434 225668
Ġoptim ize
Av atar
Ġkq op
Bcp Key
PrintPreview DataFor
finit e
Ġ189 1617
ĠRMD S
810 341094
Ġkw args
ĠLIBF VALUE
Ġtlcb lkt
MOT ION
ASSE MBLE
ĠAAC Context
iframe src
OfProfile AtIndex
ĠPL ANE
ĠVGA CommonState
AndC ull
ĠVariable StatData
Group SortAggregSet
Ġtlsc statp
SCAL E
ĠResource LimitError
NOR MAL
Op acity
Ġassu an
ĠVer ify
MBCST oUnicodeWithOffsets
ĠEntity Specifics
fol low
strib ution
Ġ820 651458
ĠSort AndCull
ĠDCM NET
phan umeric
Matching Voice
lum inance
rat i
relev ant
inspe ction
Ġevb ase
Ġrequi res
Ġuvc bp
ĠEIGH TTAP
ALWAY S
Ġunmatch freq
ĠHeap Tuple
Ġ369 115599
ĠMOS Q
unloadSharedData IfReady
ĠUConverterName Pieces
AGGT TYPE
calibr ation
MemoryAllocation Failed
10661709 0004
ĠHttpsEngagement PageLoadMetricsBrowserTest
PrintPreviewDataFor Index
Ġ1891617 106617090004
Ġ820651458 0434225668
Ġ369115599 810341094
2 0000
2 870
3 67
A DI
B AND
C URL
D GRAM
F G
F ast
G X
J itter
K F
K RB
L ead
L MBCSS
L MBCSToUnicodeWithOffsets
M QUANT
M ethod
N CS
O ctet
P A
P ad
S cale
S IL
T W
T MP
V isual
V NCS
b g
b is
b ot
b ort
b asic
c ustodian
d len
d ummy
e q
f ax
g libc
h d
j ust
j big
m erge
n bio
p ted
r bio
s alt
u fa
v info
w ht
x a
y es
Ġ NUM
Ġ RA
Ġ OBJ
Ġi c
Ġs upport
Ġc t
Ġc row
st p
at s
se gs
Ġt a
Ġt mv
Ġt ick
Ġt ctf
on d
on u
in u
in len
in ject
Ġp col
Ġp Filter
Ġp Pos
Ġp Var
Ġp Pr
Ġ[ %
Ġb x
Ġb count
Ġb rd
Ġb ail
ar ant
ct l
ro py
ro tt
ro ugh
Ġf allback
Ġf wd
Ġf ach
Ġf Pad
Ġm sk
Ġm oi
Ġe context
Ġe refs
Ġre port
Ġre served
si red
Ġa ad
Ġd ime
Ġd uring
or ian
Ġg ain
Ġg pointer
ze nx
Ġv shift
Ġv fp
Ġv isual
Ġu mv
Ġh uff
ad r
ĠB DR
Ġ2 000
Ġr i
Ġr l
Ġr te
Ġde mux
Ġreturn distortion
ch ive
ch ild
Ġx c
Ġx an
Ġx offset
Ġx vp
Ġx vid
Ġx vinfo
ON YM
Ġin s
ab ort
Ġstr tab
Ġbu ndle
24 13
ĠE nd
ĠE lf
ĠF rom
AL TIME
Ġun used
245 47
Ġ4 04
ĠC LA
ĠH as
00 90
bu s
bu ted
Ġq sort
ĠT CP
ĠT RACE
ot pl
64 9
Ġ8 8
ult i
AN SP
In GroupSortAggregSet
il led
ĠM y
ĠM ulti
MBCS Is
Ġout buffer
UN SPECIFIED
LMBCS FromUnicode
LMBCS Locale
att ablespace
mm a
di stri
di rectory
ra c
ht onu
Ġis TargetUCharDBCS
AR M
Ġname server
Con d
Ġref l
DI O
DI VIDE
un it
un able
un pred
un likely
CO SE
cture r
bit stream
pl ugin
ĠI A
Ġyy err
Ġyy char
ID DEN
Ġmv count
ĠD CA
ĠD NS
buffer f
Re gistry
Re configuration
rit h
Ġ5 2
block ing
Ġtmp stream
Ġtmp conn
Ġtmp Status
und er
Ġbase line
Un expected
Data And
Ġsc ientific
err al
BO M
Error Factory
SER VED
Ġbit rate
Ġz rv
ĠO K
Ġbuffer list
31 7
sy nth
cs rc
LI F
55 9
Ġqu oted
Ġqu iet
Ġme nu
BOO L
per cent
per iod
04 0
ĠN o
mt u
ĠGet Prefs
ĠGet Dictionary
ĠGet MatchingVoice
Ġstart p
Ġcomp parms
GENER IC
IS O
Ġxml New
Ġxml Dict
request ed
Ġ9 1
mult i
Mode s
ign oring
De pen
De coder
IV ITY
Ġob server
ĠW rap
Ġlo co
URL Row
db stmt
15 726
39 6
39 9
IP S
69 5
En code
limit s
Ġev sel
37 5
Ġup x
mat export
Ġac cum
ĠK VM
ĠTR ANSP
Ġfmt Consumed
Se lect
:// *.
02 80
Ġpkt buf
raw Info
Number Format
Get Bool
18 893
Ġlog cat
Ġ17 4
fl ash
NE ED
ĠmySource Index
ĠSet Max
65 32
65 27
Ġstrnc py
Ġcheck sum
Id le
cat alog
Ġpix ptr
ĠtoU DynamicOffsets
Bit s
Ġts d
Ġcert ification
DIRE CTION
Ġtl vblock
ĠAttr ibute
For Tab
temp lace
CHECK SUM
88 26390
LAY OUT
Ġglob free
Ġpartition ing
Ġar nr
xFF C
seg counts
ized Text
Ġword stream
IFI ER
Ġconfig uration
Start Syncing
Ġsend ing
45 127
Ġ29 305
Ġfunc form
Res olution
Ġsto red
ĠmyTarget Index
Ġdict s
Ġorig inal
ug gest
Ġdesc riptor
Profile s
Process or
Mask ToUnicode
event s
Ġscratch pad
ĠPQ finish
Col ormap
ĠSync ErrorFactory
TER MIN
Ġdl handle
ident ify
ident ities
ĠDe code
prog ram
comm unicationMode
Ġloop s
so le
ĠMake URLRow
Ġpub key
media Control
Ġcc d
ĠCo ntext
Time stamp
DT CH
Annex A
Ref Count
ĠData ProtocolCapability
ĠFind LMBCSUni
ĠFind LMBCSLocale
Ġ409 0
ĠAD D
diction ary
TRAN S
Prog ress
Ġttmb f
ĠMS G
Dial ingInformation
Sl ice
Ġtrunc ated
secondary Encoding
exist s
NC ES
SF R
Ġcmp func
imp l
apsh ots
increment RefCount
Sy stem
Rece ive
Rece ived
Ġpresent ation
3157 87
Ġgra vity
ĠGS VALS
Multipoint Capability
TEMPL ATE
HIST ORY
ĠHint Mask
Multiple PayloadStream
PRIVATE KEY
ĠSH OW
ĠPopulate WordStarts
ĠNot ification
917 13819
3579 218
5204 315787
Initiated ExtensionInstall
SupervisedUser InitiatedExtensionInstall
sensit ivity
who has
BI DIR
BAT CH
Te leph
INSTA NCES
appear ance
IDENT IFIER
MultiplexedStream Capability
progressive Refinement
candidate s
hour s
Ġyear num
ĠMerge DataAnd
33157 91713819
707 6754
Alter native
fro zenx
Ġrele vance
Ġww ctx
6428 33
2226 8826390
8704 4514
Ġ2335 22268826390
ĠHeapTuple IsValid
Lead Byte
LMBCSS afeClone
SIL ENT
ufa cturer
ĠpPr iv
arant eed
rott le
ĠfPad Char
Ġumv plus
ĠBDR V
24547 3579218
ĠCLA MP
0090 5204315787
otpl ug
MBCSIs LeadByte
distri buted
ĠWrap Unique
45127 642833
Ġ29305 00905204315787
ĠSyncErrorFactory Mock
ĠFindLMBCSUni Range
ĠMergeDataAnd StartSyncing
3315791713819 18893
7076754 245473579218
Alternative CapabilitySet
87044514 45127642833
Ġ233522268826390 6532
' .\\
* *
0 87
1 32
2 87
3 10
3 04
4 69
5 294
9 2
? '
A AL
A sn
A ctivate
B AL
B EG
C nt
D ate
D SC
F RA
F loat
H O
H W
I CT
J P
L ast
M en
N et
O per
P ri
Q P
R el
R VAL
R atio
S PR
S DUSize
T emplate
U sed
U law
W S
W eb
W ANT
W HERE
a rea
b w
b id
c red
c agg
e a
e val
f lict
g ent
g rp
i ases
j or
k ad
m arg
m ms
n b
o ugh
p ul
r f
r le
r ms
u dev
v out
x b
x n
y uv
z ing
Ġ STRING
Ġ DIS
Ġ LOCAL
Ġ MESSAGE
Ġ( \"
Ġi ss
Ġi mem
re size
re ncy
st reams
de legate
de mux
at LL
at ter
Ġt ail
Ġt min
Ġt cp
Ġt max
Ġp sk
Ġp buf
Ġp Data
Ġp Offset
Ġp thread
Ġb roken
ar ity
Ġ1 35
ro ute
Ġf tag
Ġf ci
Ġf expr
Ġm idx
Ġm arker
Ġm achine
Ġe ch
Ġe mbed
Ġe mms
co seconds
Ġo th
ur bo
tr ial
tr usted
Ġd len
Ġd im
IN FORMATION
Ġg if
Ġg ive
Ġv no
Ġv sz
Ġh gb
ad len
ad iotap
lo okahead
Ġn subs
Ġn matches
set s
Ġconst r
Ġr adiotap
Ġl len
Ġl ut
Ġl value
Ġl list
to Level
ch em
Ġx t
Ġx id
Ġx cf
Ġst orage
DE S
DE LIMIT
DE LETE
nd n
fo reach
arg er
Ġel ist
ab ling
um otion
Ġw ill
Ġw arn
RE T
24 9
Ġchar s
Ġk file
ĠE OB
ĠF unction
ĠF FUNC
IT ERAL
Ġmb b
Ġun it
ext cp
ĠC CM
tx m
if desc
Ġpro perties
Ġfor ward
is dn
VP OW
Ġarg count
ack Message
Ġj tbl
Ġ8 4
Ġcur frame
Ġcur rency
em it
AT ER
AN ONYM
SE ARCH
il Idle
con sole
12 9
Ġout l
ĠS Q
ĠS URROGATE
ĠS QL
TYPE D
ra st
Ġ' ?'
ĠP T
ĠP PC
sh ould
Ġop proc
CI ST
Co re
Co er
Co mple
AR RVAL
ĠG F
DI AGNO
DI VPOW
of inished
un quantize
un safe
red frm
Ġkey no
fi fo
ity Level
Ġres ume
Ġerr func
par sing
UT DOWN
Ġnum h
Ġnum rlvls
RO MA
Ġyy size
bo ard
ID Response
NO CHECK
NO SPACE
NO MATCH
NO ESCAPE
MP atH
Ġnext tvb
po ly
ĠL ITERAL
ĠD ef
Re sp
Re alloc
ang ul
ol c
bt gatt
Ġcl ut
table lim
Ġsub system
res olve
dr v
comp atible
Data base
Ġ7 3
Ġ7 4
Ġsc allno
St roke
St yle
SR TP
sc r
Ġms mpeg
cmp ts
writ er
annel Type
Ch airToken
Ġz coeff
Ġinter val
38 3
38 64058
Ġpre diction
sy n
sy nic
Ġtr anspose
KE EP
Ġmax q
min imum
min mx
min utes
Ġdat etime
26 207
KEY FRAME
spon der
ĠV i
ĠN GX
av a
Ġrd sp
stat istic
inter pret
11 4
20 1
ĠX PR
Ġset jmp
reate Query
Ġ'\\ \"'
request Mode
request ChannelClose
Ġ9 5
QU AL
ĠRE C
alse l
Unicode Set
rtp Payload
AG ES
De fer
77 64
Ġph ys
Ġsp adlen
HTTP S
map ped
Ġprev frame
39 3864058
Ġvar Rel
lc id
Lo ck
US ING
TO C
Par ms
Ġbo m
59 5
Ġup d
54 4
Ġold val
Ġtot alsel
28 8
fd s
node class
ĠK ey
ĠK nown
Ġca a
Ġca ption
user s
ĠEx ception
Ġuse s
pixel Aspect
ĠUConverterData ISCII
CP MC
for now
Ġabs diff
Ġtotal p
Ġrs vp
Ġshow filename
cur ve
trans late
cpm rati
ĠCH ROMA
Ġiter ations
cr ash
cr ank
Ġpc sp
CA F
Ġbe cause
Status Code
Ġover ride
ĠSet File
ĠSet Content
ĠPy Dict
ĠLIB VNCS
ĠSE EN
IST S
Extension Service
Ġut il
PP ER
Bit map
Ġpw tmp
range bound
44 4
Ġsr ctx
Ġxslt Document
CHECK S
88 8
Rate Mode
open LogicalChannel
edge v
edge cv
ĠIs Fullscreen
DB AGGTTYPE
Ġdone fornow
ĠATT R
ĠExtension SyncData
Al aw
Al lowed
Ġ25 00
ĠMIN US
Ap ply
Ġgf u
Ġrange redfrm
ALLOC Z
Ġnon extcp
cmd line
Ġpy state
Of Screen
Ġdiff erent
den ied
COOK IES
Ġep dp
ĠAd dr
qui et
Free ze
ma intenanceLoop
ma jor
Ġenum erator
Ġesc Seq
Ġother freq
chunk s
Ġpk blob
Ġby pl
Update s
cif MPI
.. .\"
Terminal CapabilitySet
Or Pending
cg a
rece ived
terminal CapabilitySet
95 323
ĠDISABLE D
MI SSION
Ġprog ram
master SlaveDetermination
42 393864058
VR C
VR FY
Ġquote Window
dat at
dat dba
vbu f
ĠSplFile Info
cycl ic
ĠxmlHash TablePtr
ĠInit SupervisedUserInitiatedExtensionInstall
Ġcap abilities
mag ic
ich annelType
Annex B
Call Function
lsp s
ĠSco ped
HP atH
Decode Parms
ĠcontextChar FromUnicode
Auth orization
Ġnmv costs
rt it
Ġisp unct
Ġenable Cursor
Prog ression
Ġscope ok
Ġvirt ual
Field Trial
okmark Bubble
cancel Multipoint
Ġmore bytes
ĠDatum GetBool
Ġpref erredEncoding
STI CS
logicalChannel Rate
ĠRun Unt
atib ility
Ġelem type
Rem o
FLO OR
border s
ste ps
Property Set
Ġcseq num
Comm unicationMode
clock Recovery
Ġcontrol ler
CD b
Order Cnt
ĠPK T
GO TO
EE E
SYM LINK
ĠfIs Long
unch er
Setting DefaultS
Ġ` %
ĠClient Hints
ĠrfbSend FileTransferMessage
819 95323
ĠPG conn
ssi mg
ĠOUT PUT
Mod ule
Qual ityLevel
dg ram
ĠTIME LIB
cdb prop
reassemb led
Interle aver
Disable Reason
Ġnmvsad costs
crowseek at
ĠClone String
REN EGOTI
ĠPassword Store
Fac s
Ġdownload s
ĠCERT IFICATE
ĠCeph X
five Channels
Ġposix ID
multiplexEntry Send
ĠExtensionServiceSync Test
Sp atial
repeat Count
three Channels
opp field
ĠSYS ERROR
Runtime Exception
WOR D
Ġfol low
ĠBo okmarkBubble
TW ICE
hd lc
Ġbrd cost
ĠMulti Buffer
LIF ETIME
ForTab OrPending
ĠDecode Asn
frozenx id
5294 14
Men u
Net work
Pri ority
marg in
atter y
Ġech o
Ġembed ded
Ġxcf data
ANONYM IZE
DIAGNO STICS
minmx id
ĠvarRel id
ĠException Info
CPMC reateQuery
cpmrati ofinished
ĠSetContent SettingDefaultS
ĠLIBVNCS ERVER
Ġpwtmp buf
rangebound ry
MISSION S
42393864058 81995323
ĠInitSupervisedUserInitiatedExtensionInstall Feature
ĠRunUnt ilIdle
ĠSetContentSettingDefaultS cope
0 19
3 77
4 34
5 36
5 285
6 58
7 3
7 14
7 30
7 44
7 23
A re
A ccess
A rith
B IDDEN
C InGroupSortAggregSet
D FA
E M
E W
E d
E s
E NUM
E AR
G U
G INE
G LU
I RT
L X
M a
M an
M issing
N e
N EG
N EL
N avigation
O wner
P N
P SK
P AGES
Q UE
R R
R un
R MD
S ID
S uccess
T A
T one
T AB
T ICK
U AGE
b luetooth
b roadcast
c an
c ut
c column
c idump
d qscale
e sp
e of
e ep
f mul
h y
h int
l ut
l ang
l pc
m ize
n a
p al
p are
r chr
s bu
s wap
t sig
u Boolean
v ing
w key
w state
w ks
x form
x object
Ġ Info
Ġ STATUS
Ġ ntohs
Ġ ntohl
Ġ rolling
Ġs ar
Ġs em
Ġs en
Ġs conv
re covery
re negotiate
Ġc cs
Ġc cp
Ġc tl
Ġc losing
de lim
at ile
Ġt ap
Ġt printf
Ġp m
Ġp set
Ġp key
Ġp reference
Ġp DecodeParms
Ġb ind
Ġb inf
Ġf read
Ġf value
Ġf Bundle
Ġm k
Ġm ce
Ġm py
Ġm sc
Ġm agick
Ġe sp
Ġre si
Ġre strict
Ġre negotiate
al ive
al pha
Ġo wner
Ġa fdpart
AS HED
IN SECURE
or ary
Ġg w
Ġg en
Ġg ray
ST P
pe ated
Ġv ms
Ġv ram
Ġu lt
Ġu file
Ġh o
Ġh shift
ad apt
et ite
Ġn gsniffer
ĠB luetooth
Ġ2 50
Ġ2 37
Ġr q
Ġr sp
Ġr rc
Ġr aster
Ġr wstate
ut ation
mp a
Ġx malloc
Ġx vmc
code set
Ġin filename
Ġstr rchr
32 06
Ġw ould
ile nt
RE ATE
RE ALTIME
Ġoffset Delta
nc at
24 99
OP DF
Ġcase s
ig ger
ĠF E
ĠF MT
AL ANT
ĠU t
Ġmb s
Ġun lock
Ġun scaled
Ġun escape
16 829
Ġtype ntry
Ġ4 70
Ġ4 5517
ĠC OPY
ĠC opy
pro cs
INT R
el ine
Ġy et
Ġy end
Ġy min
Ġq dev
Ġ8 80
en force
en hanced
In cognito
ĠAV Format
ĠAV MEDIA
sp o
sp ot
sp rite
sp arse
ĠM em
ub y
UN PACK
UN AV
UN EXPECTED
ĠS h
di e
Ġ' +
sh are
ca a
im ing
Ġis xdigit
est ination
ĠG IF
file gen
Ġend point
loc ated
Ġkey matexport
Ġerr nop
ref cnt
RO OT
ĠI mag
ĠI EEE
Ġyy stack
Ġyy accept
key block
enc losure
Ġgb Converter
Re gistered
Ġ6 2
tra ct
LOG IC
print ed
ind ic
FF FF
Ġdi rp
rd mult
Ġbase name
Ġbase node
Ġbs d
Ġsub dir
Ġsub class
Ġsub Result
sub ject
sub class
sub bands
alloc ator
new mv
Ġ7 5
err set
Ġnew Conn
Ġbytes To
iv ation
Ch ild
Ch air
Ġz rc
Ġz fx
38 234
10 4
const ant
cl ic
Ġuser p
31 975
Ġfile pos
TR IES
Ġmax val
min ator
Ġdat ctype
Ġdat allow
26 2
Ġskip ping
ĠN T
Ġas cent
ĠGet All
ĠGet Instance
Ġ10 1
Ġcomp atible
Ġ\"% *
inter cept
11 407
80 9
do cument
Ġal go
Ġswitch able
ĠX t
are st
13 05
19 9
pre dict
84 87
Ġ32 0
ĠRE PH
ĠRE SPONSE
sit ive
Ġfield tx
resh old
EXT ENSION
ken ame
fe ed
17 60
Ġpd ht
TLS v
Ġps se
Ġps vi
CC ateg
Ġparse Int
15 33
Set Properties
29 0
Ġvar d
Ġtest ing
lc at
Lo okup
IP AC
SPE ED
Ġyyv s
35 28
69 2
30 8
37 1
ore ground
FOR BIDDEN
conn info
conn limit
Ġup grade
be aring
Ġold table
SH A
fa ct
REF RESH
user name
Length Error
video Fast
ĠUConverterData CompoundText
GE ST
mo v
CR ASH
CR ASHED
02 38234
ci rc
Ġvi ew
desc ription
Ġpart s
18 8
Th reshold
space s
97 8
97 9
SA CTION
host name
Ġfail f
Me Chair
33 3
iter s
Ġcurr adv
Ġpix depth
aw ait
ĠInt er
Ġsock path
With out
Di rectoryIterator
ĠEN V
ĠSB SYM
auth orizer
PAR SE
Picture Reference
Ġthresh old
49 16829
glyph s
Ġmp x
Ġprc no
Ġremo ved
Ġns List
ĠExtension Prefs
Al phanumeric
Ġtt l
Ġorig in
Ġmc g
Ġmc sel
Qu it
ĠPQ conninfo
reg ulate
VAR INT
Ġmult y
Ġmult iple
chunk y
Ġdirect Mode
Row SetProperties
Ġsad b
Ġsad pb
Attr VT
ĠPROTO COL
Element List
Block State
asi s
return diag
return Diag
ĠINTER P
Sub Item
Indic ate
ĠString Value
AV T
All Jo
ĠCo mp
spe ech
ĠxmlHash Sc
Ġsys log
Ġmake LengthError
Locale String
Annex C
Ġsd f
136 26207
cre strict
Sk ew
Ġtask s
Ġnmv joint
hal f
deno iser
encryption Update
TRAN SACTION
Class Mask
ĠxsltTransform ContextPtr
AU DIO
STI CK
ĠBrowser List
logicalChannel Number
ĠRun Loop
Ġcomple ted
same field
retr ies
inst alled
APP END
Ġlyr sizes
596 13626207
switch able
Ġfe ats
Ġ77 4916829
INTERP OL
Ident ity
rev olution
Ġcy clic
Ġquantizer s
ĠQuantum Range
LZ O
MIS C
MIS MATCH
TextChat Msg
depen dent
Ġgue st
Ġtz off
ĠVAR I
FEATURE S
Ġimport s
316 59613626207
Ġsw buf
ĠSize Of
nostic Info
FD D
vl cs
worker s
Ġfa kename
ĠALLO C
Thread s
011 54
trunc ated
ĠFormat LocaleString
SYMB OL
124 43
LANG UAGE
Ġga mma
Ġstar ted
ĠAss ert
ĠUP DATE
3888 31975
202 15726
inu ous
Ġiss pace
Ġconstr uct
chem a
ĠFunction Call
Comple x
ĠDef ault
scr atch
QUAL ITY
Ed it
GLU COSE
sbu v
uBoolean Options
Ġccp s
Ġbinf rac
OPDF Read
Ġ470 11407
Ġ45517 20215726
ĠAVFormat Context
UNAV AIL
ĠImag ing
Ġyystack size
ĠbytesTo Send
Ġdatallow conn
videoFast Update
0238234 888
ĠSBSYM CODE
AllJo yn
Ġnmvjoint cost
Ġ774916829 0238234888
31659613626207 12443
388831975 35
Ġ47011407 38883197535
Ġ4551720215726 01154
% \"
& \"
0 99
8 00000000
? \\
A MS
A IR
B N
B LA
B Short
C ase
C ES
D one
D NS
D uring
E B
F FI
F allback
G eneral
G GEST
H al
H el
H uffman
H ALT
I AS
I gno
K wd
L M
L anding
M F
M X
M ux
O CK
O ver
P a
P adding
R eturn
S M
S AS
T ECT
T icket
T unnel
U dp
V AN
V BR
W rap
W ORK
Y C
a ic
b a
b ss
b ject
b ord
b asis
c ar
c group
e v
f in
f ar
g le
g es
h ext
h ave
i sion
l X
l lu
m on
m ip
n ex
n ap
o le
p strdup
q emu
r us
r shift
s mb
s olve
t mask
t icket
u cmp
v o
w in
w id
w ater
x ity
x free
x pos
y si
y rd
y rate
z d
Ġ ON
Ġ START
Ġ SSH
Ġ LLONG
Ġi y
Ġs ct
Ġs an
Ġs chedule
re ci
Ġc g
Ġc size
Ġc src
Ġc scope
Ġc tm
Ġc rx
nt o
de p
le ad
Ġt ctx
Ġt index
Ġt imer
Ġt urbo
in vert
Ġp len
Ġp as
Ġp cm
Ġp path
Ġp Ext
Ġb urn
Ġb inding
Ġb fraction
Ġb drv
ct e
Ġ1 15
ro ff
Ġf Limit
Ġf Pre
Ġm q
Ġm r
Ġm utex
Ġm onitor
Ġe strdup
Ġe mul
Ġre tr
Ġre coded
Ġre direct
Ġre peat
Ġre interpret
si ted
Ġo q
Ġo dd
Ġa h
Ġa i
Ġa printf
Ġa save
or ize
Ġg B
pe m
Ġv info
Ġv dsp
Ġu len
Ġu char
Ġu vbuf
Ġh is
Ġh ref
Ġh ere
ad st
ad ler
ad ded
lo ss
lo aded
Ġn sp
Ġn pos
Ġn ump
Ġn hist
ER ER
Ġret len
Ġr ach
Ġr uby
ut of
mp ort
as si
har d
Ġl stat
Ġl side
Ġl ru
Ġde tected
Ġx mis
Ġx ppp
Ġst res
ON ENTS
DE P
ing To
nd roid
ING LE
Ġel f
ĠA n
ĠA ndroid
Ġin cognito
32 15
Ġw c
RE V
RE EN
RE DU
RE TRIES
lt s
lt ree
ve n
Ġk now
Ġk Landing
ĠE F
ĠE H
ĠF ake
ĠF ONT
ĠF mgr
str cat
AL IVE
AL GO
AL IAS
IT CH
ĠU S
ĠU Data
ĠU PRINTF
Ġmb d
Ġmb r
Ġun es
Ġsk r
STA R
STA MP
pt t
ĠC ol
ĠC od
ĠC REATE
ĠH AS
ĠH eader
data cl
OR ING
pro cal
pro tect
pro perty
pro cessed
pro tection
pro xpos
INT FR
00 7
Ġdefine P
Ġpro duct
Ġy top
Ġy mis
Ġy ppp
bu nd
ap ing
ap sing
ap proxpos
ist s
ist emplate
64 55
ME D
ME DIAN
CS t
Ġex ported
Ġex slt
AT YPE
en gine
In List
il legal
sp n
Ġout data
Ġout packet
Ġout cipher
Ġout cnt
Ġout digest
ĠS ame
ĠS chro
ĠS DX
ĠS INGLE
di vision
ra ch
ĠP AGE
ĠEVP err
pr ior
sh aping
row se
im ate
Co lour
Ġname length
ent ity
ent ropy
line ar
est ack
ĠG R
ĠG File
DI C
of s
un less
128 96
mv c
sk ey
ation Layer
log name
ow WordStarts
22 797
Ġget Window
Ġget ting
Ġmy UChar
Ġyy token
bo pen
bo okmark
Ġse ed
Ġse cs
qu ad
ĠD UMP
ac y
AD ATA
Re assemb
ul ation
ul ong
ul ated
Ġ6 66
Ġ5 11
Ġ5 99
read keys
Ġtmp ptr
table low
table high
Ġsub query
Ġerror perbit
Ġsh ared
NA V
NA MIC
FL EN
FL ICT
ĠEX ISTS
Ġ7 1
DAT ATYPE
ail able
ĠR R
ĠR owWordStarts
LS BShort
Ġff max
38 884
10 50
UL D
Ġbuffer Offset
Ġen gine
TIME STAMP
cl amped
31 5
31 34
31 44
Ġtr acks
CM ode
TR IX
FO UR
Ġbest Idx
ere r
Ġdat frozenxid
Ġdat minmxid
26 7
26 639
04 50
av ed
AP ER
ĠGet Path
ĠGet SettingsForOneType
56 5
Ġcomp mode
object s
11 48
34 31
Ġal ready
Ġpo inter
13 0
19 26639
attr s
84 9
ĠRE S
Ġul pdu
sl ave
uff le
AC CEL
igh ted
De p
De lete
NOT FOUND
dec ision
ĠW eb
ĠW INDOW
ith er
skip u
SU GGEST
Ġps f
now led
ir rus
15 4
15 2499
Ġopt ind
lat ed
29 31
Ġtest s
ls f
ĠIS AT
VI EW
69 8
En abling
US AGE
Ġev util
30 724
ĠJ OIN
37 2
37 3
FOR MED
cont ained
ĠSK IP
node ClassMask
DO C
DO T
SH APER
Ġhost set
27 57
fa ch
REF ERER
UP X
Ġdist ance
Ġvi sited
ll X
Ġcontent Type
MAT H
INTER VAL
cpm compare
Ġrequest s
act ivity
18 3
dist inct
DIR FUNC
Ġsign er
Worker Data
PL AN
Ġdoc root
ĠmySource Limit
rid ge
Ġreference Frames
Ġband no
mac is
ĠLIB XML
image s
Extension Object
Image InList
ĠPI X
99 99
lib tree
Is SingleByteMode
IF REG
509 1926639
step sizes
over flow
ĠEN VEL
Ġmap length
Ġmap ping
Ġshort cut
ĠCOL OR
ĠIs Excluded
ĠIs Try
ized text
MPLE S
Ġfp num
Ġ\", \"
Ġ\", \\
52 1
Ġback ground
Ġpack tmp
Ġfunc id
Header Interval
Ġinitial ized
esc row
ulate CustodianApproval
Per Packet
Ġdesc ription
dict s
avig ations
rfb TextChatMsg
ĠMagick Signature
ĠMagick True
ĠCheck Make
HU MAN
Change Via
Ġrows in
fast test
Ġneed s
save config
PAT S
Ġadj buf
BASE D
TER M
chunk ed
Control Capability
ĠRETURN DIAGNOSTICS
wh ere
Ġpk type
non Coll
DC CH
prog name
comm it
00000000 000
Ġcbpc y
Open LogicalChannel
03 00
Element s
ALT DIRFUNC
ĠAdd Device
SUB MIT
digit s
By Custodian
Ġiso ent
Ġgpg me
cpmget approxpos
ĠReadBlob LSBShort
Ġest imate
ĠAutocomplete Input
ĠxmlStr dup
ĠxmlStr ncat
reverse Parameters
reverse LogicalChannelParameters
NS V
RC VRC
SUPP LEMENT
AF TER
hal ant
ĠImage Info
Cur rent
lp id
CONTENT S
ĠRS VP
super block
Ġextr as
ĠPREDI CT
lation Block
ACT IVITY
Clock Frequency
oti ation
CHO ICE
71 12896
restrict ed
Ġcomple xity
MU X
MAL FORMED
ĠER ANGE
join er
uni code
ĠPARSE DATE
Ġhy per
246 38884
ĠDi rectoryIterator
ĠProtocolHandler Registry
ĠSpline Make
cpmset scope
Ġli bopen
Prop Set
ĠWait For
rad iotap
Ġgt k
ĠAr chive
ĠTrans lationBlock
Ġcoord map
ANCE L
ĠcurrentDelta FromUnicode
SyncChange Processor
ĠAcquire Image
Pic Select
ĠSBR Data
Av ailable
Po six
lb mpdm
mobile Multilink
Ġvir Log
222 24638884
Out put
depen dency
ĠFi eld
DefaultS AX
Ġpht c
Ġ100000000 00000000000
Ġdelay ed
initial ized
119 40
Attribute s
xffffffffffffffff LL
Ent ries
gate way
squ are
ony Event
ĠSA MPLES
ĠENABLE D
ĠquoteP airTwo
ĠbcpType Len
stit ute
perm utation
ĠxmlHashEntry Ptr
GNU C
Ġsof tmask
Ġcms UInt
ced ure
ĠSim ulateCustodianApproval
SHARE D
ĠRemove Device
Dig est
Fetch er
Ġeq proc
ĠFor OPDFRead
ĠMe ssage
mplement ed
1969 30724
Ġneighb ors
Ġhton s
ĠAttempt Close
ĠSV Q
coll id
ADJUST MENT
Ġplain auth
Loc ation
Authentic Pixels
Ġins ns
ĠMy ISAM
Cond ition
mediaControl Channel
Ġpresentation Length
MultiplePayloadStream Element
Teleph onyEvent
HW ACCEL
Oper ation
cagg regs
kad m
rast er
ĠVi sitInfoVector
nodeclass mask
TICK ET
ĠFE AT
Ġ880 196930724
ĠSh ow
Ġ'+ '
1533 5091926639
INTERPOL ATED
800000000 0000000
Hel per
nex us
nap tr
reci procal
ĠpExt Buf
Ġbinding sin
ĠfPre cision
Ġemul ated
Ġlside bearing
Ġstres cape
ingTo Quit
ĠkLanding Page
ĠFake SyncChangeProcessor
Ġunes caped
ĠCod er
Ġ599 15335091926639
nowled ge
152499 41
cpmcompare bmk
ĠENVEL OPE
ĠIsTry ingToQuit
ChangeVia Sync
nonColl apsing
SUPPLEMENT ARY
Ġlibopen jpeg
22224638884 15249941
ĠSimulateCustodianApproval ChangeViaSync
Ġ880196930724 7112896
Ġ59915335091926639 51
0 55
0 29
1 16
2 32
3 38
4 10
6 22
6 37
6 333
8 128
9 1
9 371
> %
> '
@ @
A n
A PT
A nswer
A bort
B in
B ar
B AR
B EST
B ORDER
C AL
C if
C RT
C Column
C ertificate
D rawInfo
E FF
E OB
F orm
F ec
F oreground
G SS
G uid
G AC
G reen
G MC
I mp
I BU
J AV
K DB
L ow
L ATE
M OD
M ASTER
N r
N one
N MI
O k
P M
P el
P AY
P LACE
P etite
S Byte
S witch
U CS
U Write
V A
V B
V BASE
V OID
V ECTOR
W H
W J
W RA
W ARE
X ml
X Context
X SLT
X VMC
Y V
a les
b ly
c name
c xt
c spn
d out
d pau
e cb
e vt
f lt
f allback
g v
g bits
g ray
g eneral
h ome
h otplug
i eld
i wht
j ump
k g
k ernel
m mediate
m vbp
n ss
n il
n es
n avigation
n lpid
p v
p ast
p aged
p ng
q ps
r on
r ase
r ity
r va
s sed
t urn
t key
t unnel
w c
w mv
w rong
x over
Ġ LO
Ġ DEF
Ġ Index
Ġ MEM
Ġi con
Ġi place
Ġs g
Ġs match
Ġs cheme
Ġs ni
Ġc id
Ġc ut
Ġc mv
Ġc db
er ation
er ature
st uff
st imer
de ad
Ġt id
Ġt sec
on sumed
in ing
Ġp ast
Ġb zero
Ġb box
Ġb ridge
ar is
Ġ1 10
ro ss
Ġf type
Ġf get
Ġf cm
Ġf write
Ġf oo
Ġf place
Ġm type
Ġm name
Ġm sp
Ġm ci
Ġ\" =
Ġe cd
Ġre pair
Ġre gex
co ales
si lenceSuppression
Ġa m
ur al
AS CRIPT
Ġint o
ff f
it ect
tr le
tr igger
Ġd pi
Ġd sc
Ġd ri
Ġd ynamic
Ġd ropp
IN DO
Ġg op
Ġg host
Ġg enerate
an ull
Ġv dpau
Ġu val
Ġu loc
Ġh a
Ġh i
lo sed
te leg
Ġn secs
Ġn msrs
id er
ĠB L
ĠB EST
Ġret ain
Ġ2 40
int rad
Ġr ing
Ġr type
Ġr ang
Ġr lvls
ut er
mp u
Ġl u
Ġl ag
Ġl code
Ġl av
Ġl dout
Ġde leted
Ġde corr
to k
ch g
Ġx s
rea ched
Ġst c
Ġst anull
th rottle
ex c
ex pi
ex tobj
ss s
arg est
Ġel ts
Ġin x
Ġin et
Ġin ctx
Ġin compatible
ab ly
Ġstr casecmp
Ġstr cspn
32 11
32 98
32 41
Ġw i
Ġw char
RE QU
RE SERVED
24 3
OP ER
ve lo
Ġk ctx
Ġhf lags
ĠF Z
ĠF p
ĠF ound
str lcpy
PE D
ĠU ser
ĠU NUM
ĠU ID
ĠU Locale
Ġmb y
Ġmb len
Ġmb tab
Ġun um
16 58
ĠC har
ĠC ertificate
ĠC BP
ĠC YC
ĠH F
ĠH ave
00 5
if est
Ġy s
Ġfor k
Ġq ueue
Ġq cc
Ġq delta
lock out
Ġ3 00
sig s
ack ed
Ġ8 5
Ġ8 7
Ġ8 50
CS ort
Ġex piration
Ġex ceeded
en g
en ame
In sert
get config
ĠAV T
Ġer asure
con struct
ĠM SK
ĠM PA
Ġout file
Ġout side
ms mpeg
ment For
ĠS Y
ĠS uggest
ĠS LX
Ġ' \"'
Ġ' ='
Ġ' >'
Ġch allenge
ĠP Y
ĠP re
ĠP CI
ĠP rint
ĠP ITCH
sh aper
Co mplete
Ġis Empty
Ġis Null
no S
Con flict
ĠG Hash
ĠG SB
DI V
DI AMETER
un escape
Ġfi fo
Ġmi me
Ġgo ld
loc bund
mv data
bit Capability
Ġkey length
Ġkey nr
fi er
ert ain
Ġ16 384
mb v
Ġerr buf
UT ES
Ġnum ly
Ġnum gbits
22 33
Ġmy hash
Ġmy http
Ġmy dl
ĠI AD
ay num
ID L
Ġse id
Ġse ss
ĠL ST
ĠL IBU
ĠD H
ĠD is
Ġle ast
Ġlength s
Ġid r
Re place
Re pet
Ġtarget Length
EX EC
string l
LOG CAT
Ġtmp header
Ġtmp dir
Ġsub font
Ġsrc s
ĠDEC LIN
sub type
sub classes
sub tract
Ġ7 20
ml ink
DAT ETIME
Ġcol umn
cmp t
cmp gt
Ch oice
Ġz tmp
Ġinter le
Ġinter active
Ġinter lace
Ġinter mediate
br anch
10 56
Byte String
Ġtemp in
cl one
Ġpre c
sy ntax
sy mbolic
Ġfile Count
LI CATION
arch itect
55 7
Ġdat len
ĠUConverter Reset
state m
04 08
ĠN ow
ĠN IL
ĠN SV
ĠGet PrintPreviewDataForIndex
56 606
TH ING
TH IS
Ġcomp uter
Pro to
Pro cessed
Pro vider
11 88
11 138
80 5
34 7
34 377
34 1148
Ex hausted
Capability Descriptor
max BitRate
Ġtime spec
ĠX Set
ĠX VMC
13 38
50 1
50 554
dup licate
Bu ild
request MultiplexEntry
Ġprint format
84 98
84 6527
QU ICK
14 9
eg rity
sit y
big gest
mult ilink
Ġpa int
Ġread fds
SP atch
ign ed
AG ENT
ĠQ nil
Ġindex pr
Ġindex Start
Ġindex End
ts ClockRecovery
ĠMB SPatch
ĠYY FILL
ĠYY LIMIT
ĠYY MARKER
context s
ĠW EP
ĠW ITH
uth key
17 18
17 49
diff erent
SU P
Ġcomm a
66 84
Ġtrue speech
29 730
BIG ENDIAN
Ġtx fm
Ġtest ip
MV C
MV D
FA CH
back end
87 217
87 2490
append l
=% \"
40 3298
Ġrfb File
Ġrfb Client
Ġrfb Process
Ġrfb TextChat
ake Debug
30 2
Ġbo okmark
59 267
dis patch
Ġpriv key
req body
Ġold cur
Ġold act
Ġsum common
order s
28 1
28 3
OL UTE
PRE V
PRE SENT
Cont inuous
SH UTDOWN
Ġattr s
Ġattr Value
cost ing
27 6
Ġactive queues
ĠEx it
Se lection
video Indicate
\\\" ,
for med
Ġtotal size
Ġtotal rate
Ġti leno
Ġ64 5
Ġnb E
67 112
cur sive
Ġrequest ed
act ivation
18 596
Ġext Neg
Ġcolor ant
Ġber val
PRO CESS
Ġmatch ing
Ġstat istics
Ġsi mple
pa uthkey
Ġbe e
Ġarray size
ĠSet Client
CL ING
Ġwrite bytecount
From UTF
Ġ19 816
Ġ19 1188
IM AL
Ġformat Bundle
ĠPy String
reference s
25 284
service Priority
Ġpalette s
Ġsig status
Extension s
Cl assi
Ġauth entication
Ġauth orizing
ie ving
SY NC
ToUnicode WithOffsets
Ġdec err
Ġpw buflen
last gob
Di stribution
Ġim mediate
44 8
update s
Ġne arest
temp erature
message Content
Bo okmark
auth orization
auth readkeys
PAR T
PAR TY
Ġglob names
Ġlayer ing
ĠCO MPLE
Not Available
Picture Header
ĠIs A
Ġchunk have
Ġsend Mutex
100 1
100 3134
ĠLOG FILE
ITION ING
52 372
Video Context
Ġmd aynum
Al low
sr tsClockRecovery
CN T
ĠCPU X
ĠPR V
ĠPR IV
uple s
fail cnt
Ġzbin s
Ter ms
Ġdesc riptions
Ġcblk s
unpack hi
rec length
Comp ute
MC G
Ġdev name
Ġdev addr
ĠTest Scheme
BE FORE
ĠRe lease
ĠRe peated
RECORD DATATYPE
Ġclose st
local izedtext
198 131
Ġone alt
ateg y
Ġmult icast
Ġ44 238
rr sig
Map s
chr on
DR OP
Ġsec num
Memory Exhausted
multiplex edStream
Send ThisSource
Event Proto
so lete
Ġsad perbit
ĠND X
flow Control
ĠLog cat
ĠEC err
Ġmis c
Ġglyph s
MI XED
Ġpush ed
mvs witch
Ġsplit buf
SUB FRAME
he ur
he ightexpn
90 8498
Ġce il
Ġregion Maps
dn skey
78 570
extra ct
ĠCo unt
Local izedText
41 56606
Ack Parameters
dat um
Ġan y
Ġan gle
ĠPRE D
TRUN C
maximum AL
Ġent ries
Sc ript
pm u
Ġbound ing
lsp f
Ġrand key
Ġge o
ĠHtml Copy
ĠUN IT
SYS ENTER
ĠDestroy String
Ġbc d
ĠSUB FRAME
Ġalign ed
enter H
Ġfour mvbp
Ġfour mvswitch
exec utable
Ġdump er
Ġdoes n
hel lo
Ġus age
Ġcomple ting
Make TerminalBroadcaster
Ġimp licit
resi dual
REP AIR
294 11138
NON KEY
NON REF
Ġ10000 00
REMO TE
prim ary
Fax Udp
Item String
tile s
could n
APP LICATION
GOLD EN
Ġfl ash
Ġreassemb led
ĠAr ray
Register ProtocolHandler
728 32
POS ITIONING
slow Cif
Region Params
668 3211
Broadcast MyLogicalChannel
HARD ERROR
nic ely
Ġnrd a
abc def
ĠFrame Data
Ġmon num
Ġunc onsumed
Ġunc ertain
0434 278
Po inter
multiple PayloadStream
ATTRIB UTES
Ġbus num
Comb os
counter s
8080 8080
ĠbcpKey Len
Ġgue ssed
ĠGCRY MPI
ssi m
chk pts
Ġrece iving
Ġrlc inf
Ġwckey id
props pec
ĠPrintPreview UI
ĠVp x
ĠNum Range
Diag nosticInfo
ACH A
Sample Rate
WE IGHT
Ġpol arity
riter ia
577 846527
Session ID
Ġblen d
ĠSer ver
3456 789
ĠxmlGenericError Context
DefaultValue ThrDef
799 099
CY CLING
Ġ%. *
download s
Expectations On
ĠtmpTargetBuffer Length
Hint ExpectationsOn
Ġsect cnt
ĠOmnibox EventProto
srv conf
Layout Tag
hor z
Ġdend l
DECL ASS
177 469
Gra vity
cle ared
Ġour set
Ġanal yze
286 0280
Ġsymcode lengths
ASSEMBLE D
2870 872490
bot tom
2413 9371
ĠFrom WebContents
Depen dency
Ġaccum ulator
ĠAttribute ListEntry
TRANS ITION
ĠMSG LEVEL
BEG IN
Date Time
SPR ITE
Ġ135 3431
ackMessage Only
Ġnumh cblks
rtpPayload Type
atibility Level
SYMLINK S
ĠPasswordStore Change
529414 76
714 25284
NEG ATIVE
ĠInfo Bar
Ġmce lem
Ġult i
enforce ment
ĠMem ory
feed back
3528 29411138
ĠVARI ANCE
Ġsct pauthkey
dep Fec
Ġhis hash
REDU CE
ĠFmgr Info
ationLayer Type
Ġ666 71425284
0450 3
6333 6683211
8128 341148
CAL C
JAV ASCRIPT
UWrite Bytes
WRA PPER
Xml Element
ĠLO CO
aris on
Ġmsp ack
Ġecd h
coales ce
Ġdri r
Ġdropp able
INDO OR
Ġghost view
teleg ram
intrad c
Ġrang eline
Ġlav c
Ġstanull frac
ĠULocale Bundle
1658 50554
ĠCBP Y
ĠCYC LIC
ĠisEmpty Segment
ĠGHash Table
ĠGSB PP
Ġnumly rs
2233 554
ĠLIBU SB
Repet ition
ĠDECLIN ED
architect ural
ĠUConverterReset Choice
0408 2870872490
34377 6
29730 975
87217 577846527
403298 2860280
67112 908498
18596 29730975
ĠSetClient HintExpectationsOn
Ġ19816 04082870872490
Ġ191188 1859629730975
Classi fier
Distribution Capability
PictureHeader Repetition
1003134 04503
ĠTestScheme Classifier
ĠRepeated NotificationObserver
Ġ44238 67112908498
78570 59267
0434278 61
799099 177469
Ġ1353431 100313404503
352829411138 2233554
Ġ66671425284 52941476
63336683211 24139371
8128341148 043427861
165850554 7857059267
87217577846527 52372
4032982860280 343776
Ġ4423867112908498 696
799099177469 4156606
% +
) )\"
* '
- \\
/ >\"
0 24
0 50
0 1010
2 000
4 15
4 136
5 12
6 57
8 12
8 60
9 660
= \\\"
= @@
> <
? \"
A ss
A pp
B ound
B inding
B ADI
C AD
C ases
C riteria
D ime
D atum
E st
E CB
F ont
F inished
F akeDebug
G I
H OR
H old
H FG
I con
K ind
M alic
N K
N eed
N Compare
O CI
O VERR
P ush
Q ueue
S CS
S CM
S upport
T B
T D
U ES
U LOCALE
V F
W as
W riter
Y K
Z Z
] %
_ '
a er
a int
a mv
a arch
a unch
b c
b d
b si
b print
c si
c sc
c atch
c content
d ot
d con
d tp
d CB
d he
d amaged
e printf
f w
f rp
g tl
h w
h id
h Cursor
i op
i ment
i xel
i ir
j is
m tr
m ass
m ace
n Y
n en
n ics
o e
o x
o uble
p key
p error
p ake
q t
q idx
q pel
q changed
r sc
r gb
s ce
s Error
s upervised
s anitize
s Server
s urface
s asl
u add
u ge
v able
v eto
w atch
w are
x im
x dc
x vmc
y offset
Ġ LOW
Ġ $(
Ġ CTR
Ġ STREAM
Ġ DELTA
Ġ rollup
Ġ RequestId
Ġi b
Ġi ic
Ġs sc
Ġs low
re cur
re vision
Ġc user
Ġc irrus
st h
st o
st ing
st roke
Ġt n
Ġt fi
Ġt ight
Ġt ly
Ġt itle
Ġt unnel
in ference
in memory
in verse
in stall
in herit
Ġp v
Ġp type
Ġp data
Ġp ow
Ġp Type
Ġp Key
Ġp ower
Ġp ndn
Ġp chg
Ġ0 755
Ġb mode
Ġif lags
ct ext
Ġ1 24
Ġ1 14
Ġ1 54
ro gate
Ġf print
Ġf cs
Ġf ramerate
Ġf dbname
Ġm ss
Ġm Bytes
Ġm Channels
Ġm vbp
Ġ\" $
Ġ\" `
Ġ\" {\
Ġ\" \\\"\"
Ġe ol
Ġre g
Ġre ver
al ternate
co ver
co up
co eng
Ġa mode
Ġa wait
Ġint no
Ġint part
tr anspose
Ġd on
Ġd pass
Ġd gst
Ġd attablespace
IN STALL
IN NER
Ġg re
Ġg ap
Ġg dev
Ġg FakeDebug
an al
Ġv size
Ġv fc
Ġv dst
Ġu block
Ġu dst
Ġu sr
Ġh val
Ġh ap
Ġh pf
Ġh uge
lo ctext
te l
te x
Ġn dev
Ġn ick
Ġn avigate
Ġn colors
Ġn mean
set halftone
set props
ĠB yte
ĠB ORDER
EN OT
Ġconst ra
Ġ2 57
int eger
int frp
Ġr name
Ġr datacl
mp idump
as sign
as signed
ine Type
har mon
Ġl un
Ġl atch
Ġl ayout
Ġl sf
CT able
ce ll
DE V
DE TECT
ing bits
ed ges
STR AINED
ex init
Ġav c
Ġav format
Ġel t
ĠA CM
ĠA PP
Ġin ject
Ġin cipher
Ġstr ip
Ġstr make
Ġstr pool
Ġstr lcat
32 80
Ġw off
RE LA
RE CE
Ġoffset x
Ġoffset of
24 7
vb d
Ġcase Value
Ġk eep
\\ '\"
\\ '%
ĠE CB
ĠF OP
ĠF ION
ĠF IE
str cmp
str ained
AL TR
PE ED
ĠU ndef
ĠU LOC
Ġmb mode
ĠC ALL
ĠC BC
ĠH DR
ĠH ASH
Ġlen s
OR IG
OPEN PGP
00 1
00 30
Ġpro vider
Ġy offset
bu cket
ter min
Ġq c
Ġq trle
is Null
lock ed
ĠT AR
ĠT IP
ĠT he
ĠT AK
Ġdata s
Ġdata cl
64 4
64 67
frame size
Ġ8 07
IG ATION
AT H
en ough
In dependent
ĠAV COL
ĠAV Stream
il np
il ineType
ip Delay
ĠM SS
ĠM PI
ub lic
12 5
Ġout key
ms mp
UN DECODE
ĠS k
ĠS IX
ĠS OCK
ĠS PEED
ra ce
Ġ' '
Ġ' *'
Ġ' _'
Ġch ost
ĠP S
ĠP ack
ĠP DFA
pr ct
pr tc
sh uffle
ca ched
CI D
ERROR S
Ġis dn
Ġis upper
Ġis Done
AR T
ob ic
ob solete
mem align
Con version
ĠG SW
mv r
Ġstep sizes
sk b
red u
Ġvp m
Ġkey type
Ġkey ring
us ub
num erator
num eric
ref erral
Ġget Next
Ġget Dynamic
Ġmy error
ĠI LACE
Ġyy l
Ġyy len
Ġyy alloc
CH AT
CH DR
NO W
Ġcurrent MaskToUnicode
Ġmv y
Ġmv masks
Ġnext cp
po ll
index mapped
mode info
ĠL ONG
ĠD F
ĠD Y
AD VAN
AD ouble
Ġid memory
buffer ing
ul ar
ul ative
CON F
CON STRAINED
CE DES
Ġ6 50
Ġ6 25
EX PI
BIT STREAM
Ġtmp Job
Ġtmp Append
und ant
UE TO
bt av
Ġdi a
Ġdi ag
Ġdi ctionary
rd u
rd sp
Ġcl ause
Ġsub routine
Ġsh aredData
Ġsh utdown
alloc ation
Ġcb cr
Ġcb lkt
cale NCompare
comp s
comp arison
Ġsc v
Ġsc fi
Ġsc anner
err nop
St mt
Ġnew best
sc anner
ĠR and
ĠR FC
Ġatt ic
load h
Ġms v
Ġbit names
ns ap
Ġz mbv
Ġad min
38 7
38 24
atch es
10 799
31 4
Ġfile length
Ġmax cnt
55 36
io c
Ġstream id
HE LL
per iment
26 8
04 79
ĠV AP
ĠV SB
Ġ12 80
ĠN INSTANCES
ĠGet Mult
ĠGet Pixel
ĠGet Origin
ĠGet Domain
ĠGet Web
56 250
Ġ10 8
time code
Ġcomp no
FRAME SIZE
Ġrd cost
Pro cedure
Ġ\"% +
11 3
80 54
li rp
20 1718
34 2
Ex ceeded
Ex ists
Ġal g
Ġpo sp
max len
Ġtime base
Ġset w
Bu cket
To List
Ġlist en
Ġtable s
word v
mult ip
mult ichannelType
Ġsl ash
AC PRED
IV ED
ĠQ INDEX
ĠQ MFB
ĠYY P
char s
89 9
Ġwork area
17 82
RT PP
Ġpd n
diff port
15 7
Ġprev cp
CAT EGORY
tag s
tag tree
ler ation
29 04
Ġvar nos
Ġtx frm
rol name
ported Bound
IP V
35 7
35 42
40 9
40 101
Ġrfb Set
Ġrfb Command
UNI MP
30 9
TO MULT
37 3206
Tr ipDelay
54 9
54 67
54 201718
Ġac cess
part s
Ġold count
Ġold Target
Ġsum sq
28 26
server name
VERS YM
ĠAS F
result mask
result Mask
ĠK ERN
PRE CEDES
Ġattr First
27 81
ayload Type
OPT S
WO ULD
user Input
ĠIn herit
video Capability
\\\" .\"
CP UID
mo ment
bl ank
zero es
Ġpart name
Ġhttp version
Ġhand led
Ġcontent Param
trans formed
INTER EST
Trans late
Get I
Get Rows
job info
cipher s
ĠAR DP
IB UTE
18 1
ASS OCI
Ġext Buf
Ġpg p
Ġdouble dl
And Size
su rogate
Ġstat buf
rap s
from Unicode
from UWriteBytes
Ġpc net
String AndSize
PL TE
Ġdoc List
ĠSet Download
Ġsb rdsp
READ ING
From StringAndSize
mac length
om ic
ĠPy Err
Ġrec v
ĠIN PLACE
ĠSE CURITY
Ob j
Request MultiplexEntryRejectionDescriptions
pg rs
Cl ause
Ġauth neg
SY N
Image Header
Ġstats dir
ĠPI MV
With Downloads
Ġlow surogate
Di ff
Ġtl x
Ġtl prct
Ġpe vt
44 65
For Testing
cnt l
PC F
with in
Capacity Exceeded
send er
send ThisSource
auth id
Ġcall ing
PAR ATE
ĠCO AP
ĠCO EFF
MIN OR
Picture Number
ĠIs Registered
Ġthresh es
Ġword c
Ġtrans lated
Sh ift
Sh utdown
mc v
Ġ'% '
ĠNO DECLASS
ĠPro duct
Res ource
Header FEC
ud p
Ap prtc
ĠTH ROW
ĠTH IRT
ĠPOS ITION
ĠPOS IX
Client Hints
Ġbp ad
This String
68 5467
Ġqemu d
ĠRD H
ĠRD W
Of ThisString
ĠMagick Boolean
ĠCheck P
Ġform ant
ALLOW ED
384 59
BE LOW
pf n
ĠRe tr
ĠRe portedBound
crc Length
cast ps
GB L
fast start
Ġvect able
Ġbitmap s
MO VE
Read Buffer
ah oo
Ġwindow s
cum ulative
Ġreal m
VAR I
ĠFA IL
05 38459
ĠNE W
Hist orian
wh en
ĠCreate Vi
BACK UP
DP CM
RGB A
pad ded
Function s
Function Info
Ġnd sa
Ġpost data
Ġpost fix
RUN NING
Ġab stime
Ġlimit s
vp x
Ġopen ed
make TerminalBroadcaster
make MeChair
ined Gravity
ĠEV BUFFER
ĠSBHUFF DT
184 979
ĠFILE GEN
Ġsaved config
Ġsaved Password
media Packetization
Ġla zy
Ġla uncher
custom Picture
custom PCF
Ġfragment s
Ġcc info
Ġpop sp
nn mod
CALL ING
ĠCo mm
Ack nowledge
Ġwe ighted
ĠTr ue
ĠAppend Matches
Exp anded
EC PRIVATEKEY
Red undancy
frag s
LIB C
Annex ADouble
JOB ID
53 77
53 0479
Dis position
Dis play
ĠDI AM
ĠLo op
ĠLo caleNCompare
Cipher Error
ĠExpect Bucket
MTRR phys
IR Q
Ġge tenv
ĠUN LOCK
ĠUN INTEREST
ĠThrow Exception
RC V
acce leration
doc root
deno minator
Ġreplace ment
ĠCUR S
quantizer s
ĠTime Delta
Field OrderCnt
BitRate s
Ġfour mv
ACT ER
enum erate
hel p
Transport Mask
network Address
ENCODING BYTE
Back Channel
Rem ove
same port
DEN OI
NON BLOCK
846 246
ĠINIT IAL
crow setprops
Parse Pos
gt ly
exist ent
RAND OM
inst ant
extended PAR
ĠSetPixel Red
ĠSetPixel Green
CBPC Y
allo on
ĠUn known
Enhancement Options
Ġmaj or
Sy mbol
Ġtry ing
RI ER
YS ADDR
ĠappendPQExpBuffer Str
ĠOF B
Ġgra nted
ĠSe arch
Ġunicode Mode
ĠparseArray Complex
Ġmerge able
Empty ExtensionService
LZ MA
std out
ĠHint New
ĠPH YSADDR
ĠbcpKey Buf
separate Stream
GLOBAL S
cope s
Ġkw aj
ĠLIBF DATETIME
rfbSet Scale
ĠVirt IO
mount ing
Temp Dir
Ġ100000000 0
Ġrece ived
fraction al
BL UETO
Ġsuccess ful
gst n
159 66
ĠquoteP airOne
ĠbcpType Buf
DL ERROR
Den o
Part ition
other len
inner statuscode
ĠCAF Channel
ĠDownload Core
associ ated
Inc rease
WA J
WA IT
ĠOP F
additional info
ĠTransport Security
ĠInitialize EmptyExtensionService
CRowSeek At
gue ss
Ġter m
Ġwait ing
Ġ846 1782
Ġexist ing
ĠJob ID
SignIn Delegate
ĠStartHttp sServer
ĠTransfer FunctionInfo
:* /\"
SplFile Info
ĠisLegal Sequence
ĠNon Malic
Ġdime nsion
ĠEnd GetI
synth esis
period ic
040 685467
ĠxmlDict Lookup
DSC F
WS GI
bid ir
pul se
Ġtcp info
syn chron
ĠxsltDocument Ptr
ĠIsFullscreen ForTabOrPending
ĠATTR IBUTE
datat mp
ĠBookmarkBubble SignInDelegate
broadcast MyLogicalChannel
ccolumn group
Ġ237 530479
AnnexC Capability
Skew Indication
EB X
Ġpas sed
utof ill
ALIAS ING
ĠUS AGE
ĠCol or
ĠSame H
NAV IGATION
DOC UMENT
Ġhyper v
ĠProtocolHandlerRegistry Test
ĠArchive Handle
caggregs pec
ĠCoder Error
APT itle
Bin ary
BAR RIER
PAY LOAD
pv fs
Ġsmatch er
OPER ATION
velo pe
ĠMSK WAJ
ĠrfbProcess FileTransfer
PRESENT ATION
ĠExit Function
4136 373206
Ass oci
BADI P
CAD ENCE
Dime nsions
HOR Z
HFG en
aer obic
ccontent restrict
dcon ly
dCB W
gtl x
iop ort
iir atio
jis x
sce nes
xim ity
inherit ance
ĠmBytes PerPacket
ĠmChannels PerFrame
Ġrever sed
ĠgFakeDebug Log
Ġusr Ident
Ġhuge buf
harmon ic
CTable Column
cell aneous
ĠACM atches
RECE IVED
ĠFION BIO
ĠUndef inedGravity
ĠTIP C
6467 0538459
ilineType Metrics
UNDECODE D
ĠSIX TY
ĠgetNext DynamicWindow
ĠgetDynamic Offset
ADVAN CED
ĠtmpJob ID
btav dtp
10799 2781
ĠGetMult ilineTypeMetrics
ĠGetDomain State
ĠGetWeb UI
RTPP ayloadType
TOMULT POW
54201718 64670538459
ĠInherit Exception
ĠNODECLASS MASK
ĠTHIRT Y
ĠMagickBoolean Type
ĠReportedBound sError
ĠCreateVi sitInfoVector
184979 846246
Expanded NodeId
AnnexADouble Flag
ĠExpectBucket Count
ĠUNINTEREST ING
BLUETO OTH
ĠDownloadCore Service
Ġ8461782 184979846246
ĠNonMalic ious
Ġ237530479 040685467
4136373206 107992781
# %
& '
' :
' ))
) .
- $(
/ *!
2 11
2 80
2 58
3 55
4 67
4 779
4 501
5 14
6 01
8 69
8 25
8 398
8 283
8 56250
< '
= (
A utocomplete
B e
B RE
B idi
B RACE
C x
C CS
C NAME
C ancel
D er
D ist
D PTR
E sc
E FLAG
E ESCAPE
E LEMENT
F ET
F ail
H o
H eight
H tmp
H ALANT
I t
I CS
I SE
J OIN
L CK
L ower
M IF
N LA
O IS
O ther
O pts
P B
P F
P SH
P rintf
P UBKEY
R F
R S
S L
S n
S ax
S ION
S CHE
S IST
S MC
S MI
S CSU
T ree
T ONE
T iming
U CHAR
U nder
V D
W IFI
X STRING
Y LE
Y NC
Z E
Z LIB
] '
a f
a rent
b ry
b modes
c n
c ion
c vm
c stat
d ing
d ated
e ing
e ven
f ht
f wd
f requency
f atal
f ramerate
g p
h it
h ip
h dt
i sed
k id
l q
l ig
m ss
m key
m fb
n it
n ed
o S
p frame
p cm
p np
s size
s In
s age
s ched
t z
u um
u lename
v ic
v rc
v ga
w char
x E
x l
x ind
x fer
y ind
z o
z t
z u
z ag
Ġ $
Ġ ITEM
Ġ LOCALE
Ġ VERSYM
Ġi buf
Ġi lb
Ġi adst
Ġs ot
Ġs ra
Ġs ft
Ġs os
Ġs vbr
Ġs lirp
re hash
re init
re nder
re wind
Ġc rd
nt uples
st t
st os
de sired
at ype
at Language
se ed
se ckey
le x
Ġt name
Ġt procs
on Job
on etype
in body
in coming
Ġp item
Ġp lease
Ġp BcpKey
Ġb ias
Ġb anner
Ġb zz
Ġb idi
Ġb imin
ar ameter
Ġ1 16
Ġ1 17
Ġf ptr
Ġf ra
Ġf buffer
Ġf qs
Ġf imin
Ġm g
Ġm Format
Ġm stp
Ġm ingbits
Ġ\" *
Ġ\" )\"
Ġ\" '\"
Ġ\" (%
Ġe ar
Ġe flags
Ġe CipherError
Ġre covery
al iases
Ġo len
Ġo sa
Ġo dict
Ġa len
Ġa ux
Ġa ia
Ġa mr
AS F
AS YNC
Ġint pel
tr c
tr ack
Ġd m
Ġd buf
IN CI
IN CRE
or g
or ten
Ġg sb
an si
ST OP
ST ERE
ST YLE
Ġv m
Ġv dk
Ġv mvmask
Ġu pi
Ġu value
Ġh c
Ġh data
Ġh mvmask
Ġh angul
ad opt
lo p
lo ts
te reo
et ter
Ġn active
Ġn items
Ġn serv
Ġcon f
Ġ# %
set Memory
ĠB it
EN G
int o
int fr
Ġr field
Ġr mail
as f
as sth
Ġl size
Ġl vl
Ġl arger
Ġco ut
code s
ce ed
ce lp
th e
STR IPS
ex change
ex citation
Ġav s
ate s
ĠA E
ĠA l
ĠA MP
ĠA pp
ĠA CL
CK E
Ġstr cat
32 35
32 54
um ped
Ġbu nit
Ġw ild
RE FACT
24 82
Ġk ssl
Ġk Ex
Ġk ill
Ġk Deno
ĠE LF
ĠF alse
OF BOUNDS
IT ORING
PE M
PE ER
ĠU DATA
ĠU Set
ĠU UID
Ġmb ox
Ġun ary
Ġsk ew
STA ND
Ġdef n
Ġtype s
Ġtype flag
and le
ĠC Restriction
ĠC WD
ĠH ints
data less
OR AL
tx n
able Flag
pro d
pro f
pro duct
INT ENS
LE GAC
00 95
Ġsize Htmp
Ġpro v
Ġpro be
Ġy our
Ġy op
Ġy start
Ġfor ms
Ġq name
Ġq rounding
Ġq mf
is m
is null
up dated
ap l
ap ic
ĠT B
Ġarg Size
Ġbuf ptr
Ġdata p
Ġdata file
Ġj name
Ġj pake
frame Sequence
Ġ8 1
Ġ8 3
Ġ8 6
Ġ8 9
Ġex tobj
AN S
In line
In correct
get NumberFormat
SE L
SE CURITY
ĠAV IO
il s
il tered
ip seckey
ĠM O
ĠM at
ĠM IME
ĠM ark
ĠM AGIC
12 6
Ġout len
ĠS y
ĠS IZE
DEC IMAL
TYPE S
Ġ' <'
Ġ' ]'
ĠP o
ĠP ort
ĠP seudo
ĠP ixel
Ġop us
Co m
Ġis copes
Ġframe type
LA B
ĠG I
ĠG uid
ĠG SH
ĠG enerate
Ġref image
file mode
file perms
un parse
un expected
un defined
un protect
Ġfi leno
mv cost
bit depth
fi rm
ation al
Ġres body
ow el
Ġnum vc
col on
col id
col lap
22 127
Ġget pw
Ġget pid
RO LE
ĠI BO
ĠI MC
ĠI BM
all id
ft onetype
CH ROM
NO THING
NO ISE
MP arameter
che ightexpn
Ġnext Attr
key frame
po se
ĠL ine
ĠL IM
ĠL IST
ĠD PRINT
Ġle ss
ac count
ac uum
Ġid s
Re use
Re verse
ul pdu
CON S
CON FLICT
Ġ6 29
Ġ6 5535
EX CE
ol ute
Ġtmp Region
Ġwh ite
BU SY
Ġdi am
rd bx
out body
Ġpr cheightexpn
GS M
Ġsh roff
sub Message
sub domain
sub tiles
Ġextra Bytes
tt mb
new file
NA PSH
Ġdo nt
Data Mode
Data Value
Ġsc allid
err context
SR V
Ġnew len
Ġnew url
sc al
sc arf
Error Message
end l
list s
list info
Ġrc vrc
Ġz context
38 71
br x
ĠO ID
ĠO wner
10 24
10 45
10 169
Ġtemp names
cl amp
ace lp
Ġpre gex
TT MB
sy sid
Ġtr ack
Ġtr im
Ġtr usted
CM YK
Ġmax code
Ġmax offset
55 19
min iv
ENT I
ENT ITY
TE CTION
ere sp
ere sting
Ġdat collate
Ġdat dba
Ġdat connlimit
Ġdat atype
26 08
04 30
ĠV dp
PR INCI
Ġ12 1
ĠN EXT
Ġthis rva
ĠGet Magick
56 66
cp art
Ġcomp ute
ph ysi
ly r
Ġrd ns
Ġrd bx
ffff fff
20 23
ial Cases
Ex periment
Ġal ternate
Ġal jump
max items
Ġtime val
Ġset s
Ġset fill
vc diff
Ġxml Doc
13 54
19 4
request s
Ġ9 9
84 692
QU IT
14 14
14 15
Ġtable res
dir perms
word c
Mode l
IL D
SP Context
Ġsl ap
ick ed
AC ITY
Ġindex key
ĠW B
BLOCK SIZE
89 6
NAME LEN
Ġsp ot
Ġlo bound
Ġlo aded
17 5
RT JPEG
map x
db e
db l
Ġrate y
15 86
bs ock
39 7
Set Up
Set Binding
Ġmsg count
DU P
AND A
dent ial
87 6
87 57
35 7729
69 183
40 1
40 55
40 3456
Ġrfb Xvp
Par sing
59 55
dis connect
be low
be vt
uv offset
Ġold Insert
28 176
Test Observer
Ġmx mag
Ġreq s
Ġreq intercept
OL Y
DO S
opt im
ĠIn str
Ġfmt Id
iz ing
Se eing
video Bad
Ġuse Or
Ġuse sysid
cond ition
:// *
bl inding
02 00
ĠTX T
MON ITORING
store h
ib m
Ġpkt type
fc lose
CAP ACITY
Ġhttp Bl
67 0
Ġ14 1586
Get Name
Get Datum
Get ErrorMessage
MS DOS
Ġpg port
Ġpg host
man agement
PRO TONE
PRO TECTION
Count All
Ġaddr buf
Ġlocale ID
Window s
NE IGH
NE EDED
97 239
Ġover write
Parameter Identifier
OFFSET S
CL ASSE
READ ABLE
mac roblock
Ġsql errcontext
ĠPy Unicode
Ġrec reate
25 138
ĠCON NECTION
ĠSE LECT
ĠSE MIF
segment ableFlag
Add er
Ġ\"\\ \\
Request ed
Request Mode
Request ChannelClose
Extension Enabled
Cl ip
Cl icked
Ġ128 677
Ġlocal Client
CB P
Image s
Ġmod ify
Ġmod ulename
exp anded
du ce
Ġhave answer
Ġdec rypt
led Modes
With SequenceNumbers
With Timing
ALLO CATE
Path ForProfile
Ġro om
Is NotSupported
Is Ok
Ġne ar
Ġne lem
Ġne lts
Ġxslt Register
send BufferSize
OUT OFBOUNDS
fs w
ĠEN GINE
88 55
ĠSB DS
auth orizing
extension Address
PAR AMS
ansp arent
ĠCO M
AB C
AB ORT
Not Framed
ĠIs ExtensionEnabled
Ġclient str
49 40
fp f
Sh ow
Sh ape
Ġchunk s
Ġchunk ed
Ġmp ss
Ġprc widthexpn
UST ED
ĠNO ID
iser On
encode d
ADD RESS
Al igned
Ġdecomp ress
Ġsto a
Ġtt lp
Ġdict p
60 695
Ġhist frac
LogicalChannel Rate
Ġinitial ization
Ġ\"- \"
68 10
Ġcblk widthexpn
Ġcblk heightexpn
ĠRD X
ĠRD Y
CLIENT NOTICE
Ġdiff src
ified Name
MC V
Ġurl len
Ġslurm db
ĠRe cursive
RECORD S
138 8054
Ġep id
ĠAd vance
Multiplex TableEntryNumber
ĠPQ ntuples
MO DI
SC US
ces sive
VAR S
PER IO
PER MISSIONS
VC DIFF
call ing
ĠPRO CESS
foo ter
Ġhash es
implement ed
Audio Tone
Audio TelephonyEvent
Ġie ee
Ġtc cp
Ġby pass
Ġhel per
Ġsec ure
ĠGET STRUCT
ĠGET PREV
multiplex TableEntryNumber
dt ch
ĠFile Function
647 41
.. .\\
BAD LEN
Var iable
ĠLog Magick
AUTH ENTI
Attr Ptr
terminal List
ALT REF
Ġdiv ider
return ed
ĠAdd PermissionRequestCreator
ample Host
Ġfull name
Ġhal ftonetype
blk s
ĠEV HTTP
ĠSBHUFF DS
RD WR
Sub samp
Sub resources
vd pau
LIST GROUP
184 78
gn oring
diag nostic
42 3144
On Mux
ORE D
All TerminalID
ĠCo uld
ĠTh read
Reference Picture
Reference PicSelect
dat er
dat etime
dat istemplate
Ġan count
Ġpage size
Ġrt scarf
255 1388054
rs vp
DT MF
STE P
sn apshots
Ġgr face
ĠSEG MENT
TEMP ORAL
side ways
Ġlabel buffer
840 97239
Ġsynth esis
Dis abled
Download Manager
Download CountAll
cre ating
va api
interface s
Layer Info
NEXT PROTONE
ĠSt atus
ĠExpect Unique
Server Input
Auth orizer
AA AA
Ġcookie v
Ġcounter s
Ġalias no
pw r
Ġcorr upt
ĠREF CORNER
Quantum Memory
IRE D
Link Clicked
ĠDestroy DrawInfo
HT ML
SIGN ED
SIGN ATURE
Ġvo ip
Ġlink Compare
Conference ID
app id
attribute s
Document s
Ġstrto ul
219 423144
End ian
Word Stream
forward LogicalChannelNumber
CONNECT ED
AU X
MULT ITH
ĠSC Free
Could n
iss ue
task s
Ġcd xl
Ġfc ic
Permission Increase
gu aranteed
ĠVar iant
same Port
we ak
capability Descriptor
capability TableEntryNumber
ĠProcess SyncData
RedundancyEncoding DT
DEN OIS
icast Address
Property Restriction
CONTIN UOUS
pub lic
agg reg
246 1354
ĠDi ameter
Transmit Capability
789 25138
extended Alphanumeric
ĠSetPixel Bl
ĠOn Accept
ĠOn SignIn
802 89
increment al
Ġbeta Y
ENV VARS
012 3456789
Ġnrd ns
ĠUpdate PermissionsTestExtension
nost ics
Ġscal ar
ĠAcquire String
Pic List
ĠOF Condition
ĠOF endl
Ġdh file
four cc
SEG MENT
Ġoptim al
379 64741
Security Capability
My ISAM
std err
ĠmChunk Type
Ġhad Posix
Ġyymsg buf
CHRO MA
176 281
Compression Type
WR ONLY
Ġident d
Ġident s
Ġaction s
ĠattrBuf Idx
SAMPLE S
Ġtlsext cbp
ĠGCRY CTL
ĠWavpack GetErrorMessage
189 404
INC REF
Qual ifiedName
Ġdeblock ing
ĠPopulate Autocomplete
Ġnodeset val
WITH OUT
bv array
ĠIP MI
Ġbswap buf
Wh ere
Ġfa ctor
validate s
187 2
Den ied
ĠDE SCRIPT
ĠmChannel LayoutTag
ĠBu f
ĠCA file
ĠDownload TestObserver
806 1045
Ġstub data
ĠAutocompleteResult Test
Master SlaveDetermination
gue st
Ġter minal
Ġthiss ad
ĠStartHttp Server
Installed ByCustodian
You Are
cms Read
ĠpValue Length
ERS AND
Ġweb appid
Ġexpi ry
Ġscseq num
Ġscseq met
PRECI SE
PRECI SION
Ġtlcblkt ly
Ġtlcblkt lx
Visual Info
just ify
inject ion
Ġyyerr status
ĠTRANSP ORT
132 10169
JP AKE
cred s
Ġgive n
Coer cion
Lock ed
pixelAspect Code
crash ed
ĠSetFile Size
CallFunction Obj
ĠenableCursor Shape
Remo val
RENEGOTI ATE
ĠMultiBuffer Test
434 189404
536 176281
Arith Cx
EAR LY
Ma intenanceLoop
Man agement
Ne eded
PN G
Ġsem i
Ġsen sor
adapt ationLayerType
Ġrsp der
ĠUt ils
enhanced ReferencePicSelect
Ġcurradv x
Without SequenceNumbers
ĠComp atibilityLevel
ĠSizeOf Tag
Hal f
Igno red
Ġah log
3215 13210169
Ġexslt Sax
rowse te
Colour Map
22797 4779
ĠRES ULT
contained Threads
2757 1872
029 7729
turn off
Ġlu a
3241 8061045
ĠUID Length
ĠChar Range
Ġinterle aved
1338 403456
Build Value
ĠrfbClient Ptr
Ġ645 37964741
heur istic
ĠMemory Context
ĠSetClientHintExpectationsOn Subresources
mtr and
Ġlayout s
Ġinject buf
3280 5955
Ġ807 32418061045
ĠDY NAMIC
Ġ625 0095
ĠSetDownload PathForProfile
pgrs SetUp
4465 219423144
ĠFAIL W
ĠComm onJob
instant aneous
Ġkwaj h
ximity Position
ĠNonMalicious DownloadCountAll
')) ),
8398 69183
856250 60695
BRE AK
Sn apshot
SCHE MA
hdt v
lig ated
ĠVERSYM IDX
Ġsft ag
Ġsvbr anch
Ġcrd a
Ġbzz zt
Ġfra cpart
INCRE ASE
STERE O
Ġnactive queues
setMemory Functions
Ġrmail bx
ĠAMP ERSAND
REFACT ORED
ĠkEx ampleHost
ĠkDeno iserOn
ĠUSet Adder
INTENS ITY
LEGAC Y
ĠAVIO Context
ĠPseudo Class
Ġnumvc blks
collap sing
CHROM I
MParameter s
ĠLIM IT
Ġ629 84097239
subMessage Identifier
subdomain s
ĠextraBytes ToWrite
ĠOwner Password
PRINCI PAL
ĠGetMagick Module
physi cal
84692 324
357729 8283
videoBad MBs
ĠhttpBl key
Ġ141586 227974779
CLASSE S
ĠSEMIF ATAL
Ġ128677 4465219423144
expanded nodeid
ĠSBDS OFFSET
AudioTone Capability
AudioTelephonyEvent Capability
ĠLogMagick Event
OnMux Stream
AllTerminalID s
NEXTPROTONE G
ĠExpectUnique Sample
MULTITH READ
DENOIS ING
2461354 840
78925138 3577298283
ĠSetPixelBl ue
ĠOnAccept RegisterProtocolHandler
ĠOnSignIn LinkClicked
ĠPopulateAutocomplete Matches
YouAre Seeing
Coercion Restriction
CallFunctionObj Args
ĠenableCursorShape Updates
434189404 2551388054
536176281 2461354840
ĠexsltSax on
1338403456 839869183
Ġ64537964741 32805955
Ġ80732418061045 22127
Ġ6250095 321513210169
pgrsSetUp load
ĠNonMaliciousDownloadCountAll Profiles
85625060695 84692324
Ġ62984097239 27571872
Ġ141586227974779 3542
! )
( '
* %
- >
/ .
0 22
0 33
2 31
2 59
2 57
3 569
4 97
4 844
5 10
5 27
6 34
6 000
7 68
8 04
8 59
9 18478
: *\"
: </
A tom
A fter
B AY
C Q
C X
C rc
C MP
C sv
D LE
D es
D estination
E qu
E AX
E very
F U
G u
G ate
G all
G EX
G ray
G lob
H ST
I ED
I FL
I Arq
J MO
L R
L at
L if
L AN
M H
M l
M ed
M il
M ain
M APP
N ative
N OPTS
O LL
O LI
O UGH
O SED
P V
P END
P UB
P olicy
R X
R o
R DE
R ING
R gn
R UPT
S Z
S a
S INT
S ide
S im
S AX
S ol
S ix
S LICE
S chema
T w
T XT
T CF
U y
U DE
V CSt
W M
W W
W ar
W CH
W ILL
W INDOW
W ATER
Z Y
` ,
a pend
a Video
a ux
a intenance
a lent
b ch
b cache
b cd
b mpdm
b uting
b ond
b attery
c ing
c ate
c node
c columns
d ue
d tm
d td
e set
e as
f u
f at
f ns
f addr
g r
g ot
g pos
h val
h og
h cache
h sample
h region
h its
h cidump
h Pel
i si
i ver
i bs
i very
i lenceSuppression
j a
k top
l wsp
l anner
l legal
m dns
m cast
n age
n bits
n am
n ick
n non
n avigations
o Flags
o site
o reach
p le
p in
p to
p name
p ref
p bs
p assth
r untime
s m
s an
s qcif
s REJ
s qcifMPI
t a
t or
t ill
t ached
u er
u it
u tr
u ally
v f
v data
v value
v sample
v ous
w Address
w ins
w AnnexB
x hci
x mov
y mize
z vous
Ġ SS
Ġ IT
Ġ VERSION
Ġ METHOD
Ġ IGNORE
Ġ QUERY
Ġ LAYER
Ġ( .
Ġi cu
Ġi convert
Ġs pr
Ġs ilent
re r
re me
re add
re map
re direct
re jected
Ġc si
Ġc len
Ġc sp
Ġc sl
Ġc wd
nt able
st s
st ar
st anding
de comp
de struct
de Off
de zvous
se mi
se bch
le bin
Ġt size
Ġt data
Ġt un
Ġt secs
on left
in side
in cognito
Ġp ur
Ġp ing
Ġp pi
Ġp cs
Ġp addr
Ġp queue
Ġp quantizer
Ġp Bcp
Ġp filegen
Ġb ry
Ġb rc
Ġb ast
Ġb cache
Ġb Next
Ġb rx
Ġb dsp
Ġb attery
Ġif s
Ġ1 31
Ġ1 55
Ġ1 80
Ġ1 30
Ġf ew
Ġf tp
Ġf amily
Ġf stdout
Ġf oreach
Ġm se
Ġm dev
Ġm Bits
Ġm Edit
Ġm SampleRate
Ġm aintenance
Ġ\" !
Ġ\" )\\
Ġ\" ========
Ġe c
Ġe ax
Ġe malloc
Ġre ass
Ġre bs
Ġre cent
al tered
si Context
si zing
Ġa ck
Ġa size
Ġa off
Ġa fs
Ġa non
Ġa gent
ur st
Ġint ptr
tr uct
tr acks
Ġd k
Ġd ht
Ġd rs
Ġd ither
IN COMPAT
or top
Ġg id
Ġg nu
Ġv f
Ġv sc
Ġv ns
Ġv class
Ġv ble
Ġu bs
Ġh m
Ġh ier
LL Y
lo ut
te ent
te ctor
et we
Ġn bit
Ġn read
Ġn off
Ġn call
Ġn found
Ġn avigation
Ġn stime
ER IC
len coded
ic ename
EN DED
EN OUGH
Ġret array
Ġret algo
Ġ2 66
Ġ2 88
Ġ2 7764
Ġ2 1001
int eresting
ree nd
as ing
Ġl x
Ġl ng
Ġl xc
Ġl bmpdm
Ġde cry
Ġde lete
Ġde term
Ġde tached
urn um
CT IVE
Ġco lour
to lower
ch rom
ch allenge
Ġx l
Ġx x
Ġx out
Ġx cs
Ġx obj
Ġx sw
ce ptions
Ġst mp
DE SC
th red
ing Capability
ed NotificationObserver
fo ropp
ion Answer
pi ed
ex slt
ex ecute
ex ceptions
ss rc
ĠA B
ĠA L
ĠA ctivate
Ġin k
Ġin key
Ġin finite
add Connection
ab out
ab cd
Ġstr date
Ġstr xmov
32 6
Ġbu g
Ġw m
Ġw key
Ġw ere
Ġw dh
RE CODE
RE DIRECT
RE VALID
RE SPON
RE FLEN
24 4
24 26
OP STACK
OP Class
Ġcase Expr
Ġk Re
Ġk ind
Ġk Ch
Ġk Handle
Ġk exinit
ĠE INTR
ĠE WOULD
ĠF OR
ĠF our
ĠF GEN
ĠF ragment
str nc
str cpy
AL G
ĠU NumberFormat
ĠU WSGI
Ġmb intra
ext reme
16 77
16 30
16 27
16 52
16 728
ode s
ĠC ode
ĠC FA
ĠC lear
ĠC AB
ĠC CLASS
ĠC RC
ĠC AFF
ĠC ANCEL
ĠH ash
MB ED
00 6
00 40
if ter
Ġdefine One
Ġy p
Ġy t
ter ns
Ġq step
lock ing
ĠT E
ĠT T
ĠT ext
ĠT RY
Ġ3 50
Ġ3 6684
sig len
Ġdata buf
64 27
64 1760
ME AN
Ġj oint
ry Code
Ġ8 67
Ġ8 95
LO CATION
AT ING
AT OR
en sure
en By
en hancement
en velope
In Order
name d
con version
con cat
con cent
op eration
ĠM D
ĠM ask
ĠM otion
ĠM DC
ĠM AY
12 97
Ġout filename
UN IT
UN SUP
age DSA
att no
ĠS D
ĠS R
ĠS ub
ĠS QU
ĠS DU
ĠS ession
ĠS OPClass
put csv
DEC LARE
Ġ' ;\
Ġch k
ĠP ID
ĠP SNR
ĠP ATH
ĠP OLL
ĠP lanner
sh ared
sh ell
sh ifter
ca ch
ca ntable
Ġop p
Ġop po
Co ding
Ġis Not
AR A
AR I
AR ITH
Ġname d
Ġname space
mem ctx
Ġframe len
ĠG MC
DI FFI
ress Level
un init
un specified
un aligned
Ġend comps
loc ator
Ġkey block
ast One
Ġ16 766
Ġstatic Offsets
Ġerr str
par ate
par ity
par sed
num s
num bps
num distinct
PH P
Ġnum rd
Ġnum cols
Ġnum cblks
22 6810
Ġto len
pl ain
Ġvalue Push
Ġmy data
ĠI I
ĠI map
bo ot
Ġpar v
Ġpar ms
ID GE
NO MAGIC
NO ERRNO
MP atML
MP atLL
Ġnext p
key len
key mat
po sitive
ĠL F
ĠL DOUBLE
ĠD W
ĠD ONT
UR ISTIC
AD DED
Re trans
Re ply
Re sponder
Re sizing
CON D
CON STRUCT
Ġ6 87
Ġ6 75
Ġ6 5536
Ġ5 50
BIT DEPTH
Ġcode s
ol ation
ol iet
Ġtmp buf
Ġlast frag
Ġlast Pref
Ġdi rent
Ġth en
Ġsub offset
Ġsub process
ord Starts
res ume
gs pec
ĠSSL v
ann ing
sub stitute
Ġextra len
picture Number
Ġcb x
Ġcb len
new AT
FL IST
Ġoutput Kind
comp onent
PT S
PT T
Ġinput buf
Ġ7 19
Ġsc b
Ġsc reend
Ġnew size
Ġnew line
Ġnew db
Ġnew user
Ġnew names
Ġnew Delta
BO TH
Ġuni mplemented
Error Correction
ĠR PC
Ġ/ >\"
Ġms zip
iv alent
Ġz lib
38 6
38 69
ĠO bject
10 9
UL PDU
UL ATION
cf ull
Ġbuffer s
Ġbuffer Length
Ġbuffer Size
Ġen ctype
Ġtemp a
Ġtemp l
Ġtemp Buf
Ġpre tran
ĠY pos
sy mlink
Ġlong ts
Cap s
Ġtr i
cs ort
arch y
low RateMode
55 67
min CustomPicture
Ġmode s
Code c
Ġqu ick
io error
io ctl
ALL EN
HE ART
HE URISTIC
Ġ\\ '%
26 0
26 61
26 214
xt nd
04 9
04 6455
init e
PR ole
Ġ12 00
ĠN ame
av ing
mt ime
ĠGet ID
ĠGet Cipher
ĠGet First
ĠGet Current
Ġ10 2
Ġ10 5
Ġ10 7
Ġ10 317
time zone
Ġcomp at
Ġcomp type
ph rase
round TripDelay
Ġdis car
Ġdis pose
Ġdis pname
Ġ\"% \"
11 1
11 5
11 11
11 5377
80 56
80 89
li seconds
IS CI
do cs
do One
do Continuous
20 66
Ġabo ut
Ex c
Ex tended
Ġal c
Ġpo lent
max CustomPicture
Ġrow stride
ĠX HCI
Ġset tings
Ġxml Mem
19 294
19 110
50 870
attr ibs
request AllTerminalIDs
To c
84 400
14 7
14 59
dir s
Ġap phead
Mode Command
Mode Comb
Mode Description
Ġread only
Ġread bytecount
SP atML
AG ING
De pth
De sired
quant s
Ġindex es
77 2426
77 046455
IZED TEXT
dec im
dec rement
pen sive
sco pic
Ġtag list
main State
ĠW eight
ĠW ill
ĠW arning
ĠW RDE
ĠW ordStarts
BLOCK S
fe of
fe fe
89 50
89 77
Ġwork er
Value List
Ġlo ff
17 8
RT PH
Ġfirst pass
Ġfirst Ext
OK ED
CC CH
ĠMAX Q
ĠMAX HOST
ir on
Ġparse UInt
CAT OR
39 4
39 94
39 5204
Frame Tunnel
Set String
Ġvar onleft
Ġvar attno
Ġtest it
find indices
ĠIS ALPHA
VI C
back ward
87 3
87 48
field off
35 8
69 79
69 889
dns name
Ġfd sp
Ġrfb Filename
Ad ded
Ġev fifo
30 94
dis cr
dis position
dis card
Ġmin num
54 28
Ġsegment s
Ġold princ
Ġold DSCF
Str uct
Ġscan val
28 2738
28 11940
Ġ15 1
Test Data
Ġsy sent
server s
ĠK SSL
Ġcopy Ns
Ġcopy Stmt
IE s
Pi coseconds
Ġit self
PRE AMB
Ġhost ID
test search
Ġadd Range
Ġadd itional
user pwd
ĠIn Mil
ĠEx pr
Se enBy
Se parate
video Send
Ġuse Fallback
CHAR ACTER
CP Y
lear Expectations
for same
Ġabs band
zero s
Size Capability
Ġtotal len
Ġtotal dist
File Time
57 4
57 48
START UP
inc rease
Ġalloc ation
Ġencode Direct
Ġhand ling
67 235
67 514
cur red
parse Double
default s
trans coding
07 08
Ġ14 4
old er
cpm findindices
ĠAR RAY
MS DUSize
ĠCH ACHA
State Metric
18 53
Fi x
Fi xed
match ing
08 000
08 373
And Release
su ccess
su ite
Ġ17 6
Ġ17 88
Ġmatch prod
Count ryCode
cr ange
Window Attributes
ary Status
Ġpc re
Ġpc stack
NE AREST
PL T
pa que
Ġbe en
97 0
Ġscale foropp
Ġscale forsame
Ġprofile s
spec ification
Ġencoding Name
Ġcommand s
high RateMode
Ġ20 6
CL SE
host script
next cp
From System
IM ARY
Ġdb password
ĠPy Exc
Ġrec vd
Add Wrap
FILE S
thread s
Extension UpdateRequest
mit ted
mis cellaneous
Ġpix format
clear all
Ġmod b
token ize
audio Header
audio Unit
99 21
generic Request
Ġlow res
seq ent
Di rectory
Ġindic es
Ġpe strndup
Encoding Mask
Ġro q
Ġsr va
Ġne vents
IF DIR
Ġxslt Set
Ġxslt New
Ġxslt Generic
Ġxslt GenericError
Ġxslt Eval
send cmd
LENGTH DELIMIT
ec dsa
temp orary
Key frame
Key Event
COL UM
ADM IN
23 169
23 0430
COR RUPT
Le astOne
PTR CONTENTS
Sync Every
Picture Freeze
Picture Snapshot
Picture Resizing
Object Number
seg features
ized Time
49 0
49 120
Ġsz Field
Ġsz FileTime
Ġword v
encoding mask
close LogicalChannel
Ġfp f
ZERO ES
Ġconfig ure
Ġdq t
Ġdq scale
Ġsend it
Ġsend to
52 15
Ġmac length
VERSION TAG
Ġns ap
Ġns vs
Protocol Dialog
Ġpat ron
Ġgf ex
first MB
first GOB
Ġtt a
ĠCh annel
net num
LogicalChannel Dependency
ĠPAR SING
Per Channel
Per sist
rfb Xvp
Ġdyn buf
Comp ile
Comp ose
Comp ressLevel
Reject ed
ĠRD TRUNC
Ġoctet s
Ġdiff len
MC U
Ġcnt off
ĠTest Get
ĠTest Case
long link
long Interleaver
single Channel
ĠRe served
Ġhint mask
cc ir
cc ateg
Ġremote Dis
ĠAd just
ĠPQ clear
Col umns
null ClockRecovery
null ErrorCorrection
Read File
HEADER S
ĠRT LD
At LeastOne
cpu freq
Ġreal stuff
ĠDT CH
554 16
Ġone rel
CONVERT ERS
Max Size
call Information
Ġexp Buf
Inter face
bound aries
ĠNE LLY
ĠENO ENT
Ġtyp By
Ġtyp Len
Ġtc buf
Ġtlv Value
Ġby pp
non rd
ĠCreate From
ĠCreate ExtensionUpdateRequest
multiplex Capability
case s
dt ap
FromUnicode WithOffsets
Ġpost fields
Ġinst ead
REQUEST S
AUTH OR
Ġ48 3994
Pixel Format
Result s
terminal Number
terminal YouAreSeeing
Ġ35 28176
95 104
slices No
slices InOrder
inf inite
Ġbpp x
Ġhal ted
599 55
ĠSBHUFF FS
RD ONLY
Sub class
ĠSIG TERM
full uri
ĠString Printf
AV DT
42 3254
0000000 1
session ID
Ġpop s
function NotSupported
sid Mode
TRY AGAIN
78 388
Ġsingle ByteMode
Ġ@ @
CALL BACK
ĠCo okie
Ġprocess or
ĠIM AGING
ĠReadBlob Block
724 21
maximum Al
maximum BitRate
maximum HeaderInterval
Ġrt c
rs Code
Ġper sist
receive RTP
889 4940
ĠxmlHash Compute
Non Rect
sn apend
erred Mode
117 1415
Settings Service
EC DH
Ġcap s
==== =
LIB Z
Call ing
pm ns
current Interval
ĠDo mainState
ĠDo ReadFile
ĠExternal ProtocolDialog
HP atML
short Interleaver
Decode UTF
Auth entication
No PermissionsTestExtension
ĠUN EXPECTED
Full Rate
ĠSTR IPT
deno m
SIGN AL
Ġisp acked
Ġauto clear
248 69889
Conference MC
Ġenable Supported
844 5567
Ġfrag type
Ġvirt queue
app header
temporal Reference
two Channel
transport Stream
Ġrbuf p
ĠSUB FRAMES
ĠPDF X
box Metric
ĠDC CH
ĠCOMP ONENTS
seen By
ĠGB L
Color space
NonStandard Identifier
722 72421
cancel SeenBy
Ġside s
Ġprob ably
PS NR
chan ism
ĠTile WorkerData
Ġcomment s
ĠExternalProtocolHandler Test
ĠScoredHistoryMatch Test
ĠBrowser Context
ĠBrowser CloseManager
ĠSC U
iss pace
pk cs
Ġgss api
Ġnet work
Ġnet dissect
120 641760
SPLIT BUFSIZE
ĠTLS v
ĠInstall PermissionsTestExtension
Check ed
Check boxMetric
RedundancyEncoding Capability
RedundancyEncoding Element
Skip ping
wait For
Ġvs alt
643 50870
643 67514
ĠDi ctionary
SYSTE M
Fax Max
ĠXSLT MAX
threshold s
ĠPRI x
inst ance
Ġli bevt
ĠPK CS
Prop Spec
The Record
FEC Data
remove Connection
Bl ank
Del ivery
sw ah
Ġfast Unicode
Ġ58 3824
Usb De
dynamic War
dynamic PictureResizing
ng age
Ġna ive
ĠAr gs
prev cp
prev ious
305 1627
CRow Variant
300 78388
HIGH BITDEPTH
POS N
language s
Ġbeta C
Ġreorder ing
ĠTABLE S
Dialog Controller
nop red
switch Receive
009 08000
MEDI UM
numberOf MBs
ĠAcquire QuantumMemory
Tra deOff
jmp off
Ġswap ped
replace mentFor
Maximum SDUSize
Pr ivate
ĠfIs String
ĠfIs Short
ĠAC CEPT
0004 0004
Ġlookup Initial
ĠSBHUFFRD H
ĠSBHUFFRD W
ĠSBHUFFRD X
ĠSBHUFFRD Y
======== =====
PrintPreview Status
iP Address
Ġ189 67235
ĠDATA VALUE
Ġcollection s
2834 8
separate Stack
Ġactual numbps
ĠFi lter
Ġkeyword Enum
ĠattrBuf Length
ĠSetImage Property
ĠSetImage Progress
ĠRef PicList
remote MC
ĠWavpack AddWrap
189 918478
BR IDGE
wo Address
Ġsn apshots
bitRate Locked
Ġlead Byte
ĠVirt I
High Rate
normal ize
ĠPL US
ĠPrintPreview DialogController
Ġ78 230430
AndC learExpectations
POINTER S
ĠVariable s
Delay Jitter
View Manager
cdb colid
Ġsalt type
ĠIP v
ĠWindow edNotificationObserver
Ġruncode lengths
Initiated Install
centralized ConferenceMC
077 050
Neg otiation
Pref erredMode
SNR atML
SNR atLL
reassemb ly
Ġ\"\\\" \\\\
Ġred undant
advance d
ĠUCM Table
ĠCAT EGORY
member CheckboxMetric
ĠmyMem Free
ĠmyMem Alloc
ĠmyMem Realloc
errorCorrection Only
ĠContent SettingsForOneType
Ġnmvsad cost
Bubble Manager
ĠSupervisedUser Service
ĠSupervisedUser SettingsService
187 415
UD VM
ful ly
suspendResume Capability
inner diag
Ġemail bx
trunc ate
ĠBu ffer
ĠPermission BubbleManager
340 1171415
779 559
696 383
ĠSplinePoint List
150 72272421
Zero Comm
Ġind ata
Ġsect count
reject ionDescriptions
ĠBT AVDT
ĠOmnibox FieldTrial
Second aryStatus
910 388
adaptive ClockRecovery
2490 115377
ĠSG I
CEIL DIVPOW
ĠWORK ER
ĠrfbFileTransfer Access
-------- --------
digPhoto High
digPhoto Med
BIN ARY
SplFile Object
will Transmit
ĠPE M
Ġvol atile
Ġexpi res
CHAN NEL
estimated Received
ĠVerify AndClearExpectations
ĠRA CH
ĠElf W
Ġyyerr lab
ĠTRANSP OSED
program Stream
DialingInformation Network
progressiveRefinement Abort
ufacturer Code
aranteed Delivery
287 1853
xb f
Ġgif getc
Ġxt n
DELIMIT ER
Ġelist sz
MPatH L
HPatH L
Progression s
FLOOR DIVPOW
FLOOR TOMULTPOW
CDb PropSet
ĠfIsLong Long
ĠClientHints BrowserTest
crowseekat ratio
Facs MMR
Facs MH
Spatial atH
Spatial TradeOff
hdlc FrameTunnel
EM ULATION
Es cape
QUE UE
Success fully
ĠSTATUS CODE
Ġresi dual
Ġvms vga
Ġho urnum
Ġrrc inf
Ġkeymatexport len
ĠGetAll Sa
809 302
8487 8445567
CCateg orization
ElementList Size
ĠxmlHashSc an
crestrict array
half pel
Ġconstruct or
ĠSBSYMCODE S
CES U
SM ALL
SAS L
Ġmq diff
ĠAn siContext
REV OKED
ĠHeader ValueList
ĠdefineP airOne
Ġexported keymat
prior ities
ĠbestIdx Diff
698 8757
ĠPIX EL
Ġmapping s
Ġextras rc
MUX PDU
cpmsetscope stat
mobileMultilink Reconfiguration
DefaultSAX Handler
ĠShow Dialog
055 93
Low Rate
Ġcdb len
expi re
ĠSY STICK
ĠSuggest ionAnswer
ĠPrint ViewManager
noS ilenceSuppression
ĠNow FromSystem
ĠNSV f
805 3094
ĠnbE lems
ĠVpx Video
ĠInfoBar Responder
OVERR UN
SCM S
Ġtunnel server
Ġgap Threshold
anal yze
ĠFIE LD
ORIG IN
Ġyyl val
EXPI RE
HELL MAN
ĠYYP OPSTACK
2904 772426
ASSOCI ATE
WithDownloads BrowserTest
VARI ANT
rfbSetScale Msg
ĠTransportSecurity State
periodic ity
ĠrfbProcessFileTransfer ReadBuffer
PRESENTATION CONTEXT
Ġsra Rgn
Ġear ly
3235 910388
2482 873
ĠCWD G
ĠHints Append
ĠPixel Packet
LAB EL
ĠGuid PropertySet
ĠGenerate Keyword
ĠLine ar
Reuse Where
EXCE EDED
NAPSH OT
3871 2482873
5666 80289
ĠxmlDoc Ptr
ĠWB XML
dential s
RedundancyEncodingDT ModeElement
ĠDESCRIPT ION
cmsRead UInt
Ġsemi colon
rowsete vent
ColourMap Entries
ĠRESULT MASK
pgrsSetUpload Size
3569 0708
4844 2490115377
BAY ER
Crc Length
Csv Control
Des ktop
Equ ivalent
FU ZZ
Gu aranteedDelivery
Gall ery
HST S
IFL NK
Lat in
Lif etime
MAPP ING
Sol id
Six teent
VCSt ack
aVideo Packetization
dtm f
dtd f
eas y
fu zz
hog p
pin ned
tor que
utr al
readd ir
Ġpur ple
ĠpBcp Type
Ġbrc blk
Ġbast ate
ĠmBits PerChannel
ĠmEdit Count
Ġ\"======== =============
Ġrebs z
Ġanon ymize
Ġhier archy
etwe en
Ġncall s
Ġ27764 15072272421
Ġ21001 120641760
Ġlng jmpoff
Ġdecry pted
chrom inance
Ġxsw a
ĠkRe memberCheckboxMetric
ĠkCh rome
ĠkHandle StateMetric
ĠEWOULD BLOCK
ĠFour XContext
16728 6427
ĠCAB AC
Ġ36684 566680289
Ġ867 2904772426
concent ration
ĠMAY BE
ageDSA it
ĠPlanner Info
Ġoppo site
ĠisNot EOF
DIFFI E
Ġ16766 5428
Ġnumrd ns
Ġ675 282738
ĠlastPref erredEncoding
Ġ719 189918478
Ġscreend ta
Ġmszip d
cfull propspec
ĠbufferSize Needed
2661 809302
ĠGetFirst ImageInList
ĠGetCurrent PrintPreviewStatus
Ġ10317 8053094
Ġdiscar ded
19110 226810
84400 65
ModeComb oFlags
77046455 077050
ĠMAXHOST NAMELEN
395204 2
8748 22
ĠrfbFilename Translate
2811940 874822
Ġsysent er
PREAMB LE
ĠInMil liseconds
videoSend SyncEvery
Ġabsband no
ĠencodeDirect ly
08373 3952042
Ġ1788 30078388
Ġmatchprod freq
ĠxsltGeneric Debug
LENGTHDELIMIT ED
23169 16
ĠszField Name
rfbXvp Msg
ĠremoteDis patch
ĠAdjust ment
AtLeastOne Other
ĠtypBy Val
Ġ483994 3401171415
Ġ3528176 083733952042
95104 28348
slicesNo Order
423254 2871853
8894940 649
ĠExternalProtocolDialog BrowserTest
24869889 2
ĠBrowserCloseManager WithDownloadsBrowserTest
64350870 38712482873
64367514 490
ĠDictionary Value
Ġ583824 4232542871853
dynamicWar ping
3051627 6988757
switchReceive Media
ĠlookupInitial Data
Ġ18967235 64367514490
ĠWavpackAddWrap per
bitRateLocked To
Ġ78230430 19110226810
Negotiation SubItem
779559 2811940874822
ĠBTAVDT P
estimatedReceived Jitter
DialingInformationNetwork Type
ĠGetAllSa mples
ĠNowFromSystem Time
35690708 84878445567
48442490115377 05593
Sixteent hPel
Ġ2776415072272421 122
Ġ21001120641760 19294
167286427 3235910388
Ġ36684566680289 59955
Ġ8672904772426 696383
Ġ167665428 8894940649
Ġ675282738 9510428348
Ġ719189918478 8440065
2661809302 248698892
Ġ103178053094 187415
77046455077050 2023
videoSendSyncEvery GOB
Ġ178830078388 2316916
Ġ4839943401171415 484
30516276988757 9921
# '
( \\\"%
+ %
- &
/ ;\
/ ..
0 20
1 0000000
2 12
3 32
3 000
4 36
5 24
5 31
5 34
6 38
6 25
6 384
6 55416
7 62
8 64
8 58
8 57
8 61
9 23
9 09
: ;\
= [%
@ '
B T
B ig
B old
B Bo
B Enhancement
C ateg
C ANCE
C PropertyRestriction
C CoercionRestriction
D N
D up
D ummy
D rop
D estroy
D LV
D ONT
D PRINTF
D ANDA
E LE
E AGAIN
E OI
F low
F mt
F inal
G Y
G RA
G ROUND
G UEST
G NUTLS
G RESS
G WIN
H CACHE
H ALF
H eap
I AN
J BIG
J ava
K V
K r
K ernel
L P
L ER
L ed
L IGHT
M ER
M UT
M otion
M IP
M MCO
M IPS
M SetBinding
N OF
N ow
N avigate
N Put
O G
O w
O SSL
O pt
O ld
O LLOW
O paque
P ING
P op
P kt
P DF
P eer
R M
R OP
R AT
R en
R CH
R SIZE
R tc
R ASTER
S o
S in
S IN
S ame
S rc
S pl
S Mask
S ys
S MVD
S FRAMESIZE
S tereo
U A
U SR
U rl
U sage
V ID
V END
W F
W ait
X p
X ITY
X VID
Z ONE
Z WJ
[ '
a ut
a ead
a io
b nd
b ind
b yn
b node
b ble
b wd
b ank
b etter
c rypt
c error
c io
c rows
c seq
d re
d id
d ots
d roid
d attablespace
e et
e el
e os
f ely
f illed
g row
g res
g state
g pp
g cd
g rad
h x
h save
h aystack
i lout
j itter
k i
k r
k x
k it
l igh
l ish
l arger
m tree
m ary
m Max
n orm
n foo
n grade
n libtree
n dezvous
o sed
o seconds
o sity
p si
p am
p alloc
r usted
s bits
s mi
s rp
s os
t f
t ion
t res
t cmpts
t cmpt
u N
u ted
v oke
w a
w al
w sl
w expand
w ckey
w Compression
x be
z ma
| '
Ġ RO
Ġ LOCK
Ġ ary
Ġi on
Ġi step
Ġi txm
Ġi gnoring
Ġs add
Ġs il
Ġs ip
Ġs idx
Ġs bs
Ġs addr
Ġs sz
Ġs lots
re con
re start
re late
re throw
Ġc ps
Ġc flag
Ġc State
Ġc enter
nt i
er ial
er nal
st i
st ill
de tect
de rer
at omic
se le
se nce
se tenv
le ep
Ġt top
Ġt qi
in dir
in eto
in osity
Ġp tree
Ġp en
Ġp free
Ġp error
Ġp alloc
Ġp order
Ġp Length
Ġp mont
Ġp struct
Ġp Transform
Ġp Kwd
Ġ0 77
Ġb d
Ġb ss
Ġb type
Ġb ms
Ġb min
Ġb utton
Ġb eresp
Ġ1 245
Ġ1 34
Ġ1 13
Ġ1 39
ro per
ro sync
ro uting
Ġf st
Ġf ed
Ġf convert
Ġf rm
Ġf abs
Ġf cntl
Ġf lex
Ġm vb
Ġm ay
Ġm sti
Ġ\" __
Ġ\" :\"
Ġ\" =\"
Ġ\" \\\"%
Ġe ASN
Ġe th
Ġe log
Ġe ight
Ġe Type
Ġre ff
Ġre qu
Ġre index
Ġre ported
Ġre cur
Ġre build
Ġre ma
Ġre connect
Ġre play
Ġre ndezvous
al o
al Type
co mple
Ġa index
Ġa dr
Ġa uid
ur lencoded
Ġint mode
ff ine
Ġd ue
Ġd bt
Ġd ign
Ġd bl
Ġd my
Ġd mx
IN COMPLETE
or a
Ġg Context
Ġg iving
an y
an Context
an ony
an oseconds
ST YPE
pe ns
pe ls
Ġv nc
Ġv out
Ġv Data
Ġv samp
Ġv mport
Ġv owel
Ġu e
Ġu nt
Ġu res
Ġu blen
Ġh size
Ġh ow
Ġh ints
Ġh samp
Ġh dre
lo ok
et her
Ġn ss
Ġn ormal
Ġn Encodings
Ġn libtree
Ġn qps
Ġn anoseconds
id l
id get
ER MIN
ĠB ad
ĠB ER
ĠB IL
ic it
EN ERIC
Ġ2 12
Ġ2 29
int l
int fi
Ġr m
Ġr size
Ġr printf
Ġr div
Ġr ho
ut Text
mp v
ck er
har dir
Ġl s
Ġl val
Ġl ly
Ġl flags
Ġl du
Ġl acks
Ġl dbl
CT E
Ġco ffset
Ġco ver
ch size
ch State
Ġx ss
Ġx step
Ġx td
ce Keyframe
Ġst ctx
Ġst age
ON CE
DE O
DE AD
th dr
nd x
ed Bytes
pi o
ex e
ex tr
ex hausted
Ġav atar
ĠA i
ĠA CK
ĠA TR
ĠA udio
ĠA ND
ĠA CTIVE
Ġin cr
Ġin rand
Ġin cluded
Ġin struction
add set
add ch
add Extension
ab ound
Ġstr val
Ġstr ft
Ġstr sep
Ġstr ln
32 0
32 90
32 234
um inosity
Ġw source
ile Header
RE SIZ
RE PL
RE MAIN
RE CREATE
RE ASSEMBLE
RE ADI
nc all
24 1
24 30
Ġk A
Ġk Test
Ġk princ
ĠE G
ĠE CI
ĠE TH
ĠE SC
ĠE AGAIN
ig ib
ĠF D
ĠF G
ĠF REE
ver ifier
IT S
ĠU HP
ĠU PS
Ġun compress
Ġun expected
Ġun setenv
ext ile
ext ernal
STA GE
16 225
Ġdef Delta
Ġdef MaskToUnicode
val hi
type check
ode Restriction
Ġ4 50
ĠC F
ĠC IP
ĠC allback
ĠC MD
ĠH ist
ĠH NUM
ĠH PATS
ĠH PM
pro mpt
pro ved
LE S
00 2
00 8
00 20
00 49
el g
el se
Ġpro ble
Ġy cs
Ġy uv
Ġy step
Ġy ield
bu bble
Ġq i
Ġq pi
Ġq mul
is or
is alpha
ĠT able
ĠT GA
ĠT race
ĠT ERMIN
sig term
ist ype
64 189
Ġj ust
Ġj lim
frame To
ser ve
ser ialize
Ġex pl
Ġex am
ult ype
AN NER
AN NEL
In Tab
In struction
get NextUChar
SE SS
hash es
il ler
sp are
sp ki
con s
con strained
ip ping
ĠM an
ĠM ode
ĠM issing
ĠM mMax
12 32
12 66
ide d
Ġout maclength
ms pel
ment o
ĠS LA
ĠS AX
ĠS pectrum
put data
DEC IS
DEC AY
mm o
mm co
mm ing
di stribution
Ġ' &'
Ġ' #'
Ġ' @'
Ġ' ['
Ġch dir
ĠP C
ĠP ar
ĠP age
ĠP ath
ĠP REF
ĠP BS
ĠP ATTERN
ĠP OLY
pr c
sh orten
sh eet
ca file
Ġop info
Ġval mask
unt o
row Data
im ic
im mediate
Ġis State
Ġis Comb
AR F
Ġsource Offset
mem casecmp
LA ZY
ĠG st
ĠG eneric
Ġref c
Ġref erral
file type
DI CTION
red o
Ġvp ass
ED S
Ġkey str
Ġpi pe
ity Table
Ġ16 0
log in
us ing
ice InTab
Ġnum stepsizes
Ġnum tcmpts
22 16
pl ies
Ġmy cxt
ĠI HT
ĠI Es
Ġyy type
Ġyy result
Ġyy exhausted
INE AR
VAL UES
cm ax
ID CT
NO CLOSE
MP ORT
MP RESS
Ġmv type
Ġnext Kwd
ten ment
po lent
index es
ssl con
mode m
ĠL en
ĠL ock
ĠL ib
ĠL argest
ĠL aunch
ĠD V
ĠD ATE
ĠD PRINTF
ĠD estination
ĠD ROP
Ġle xdigit
ĠENC ODE
UR LS
ac c
AD C
AD OPT
AD HA
buffer UpdateRequest
Re port
Re order
Re strict
ang ero
ul numerator
ul denominator
Ġtarget str
Ġ6 58
Ġ5 000
Ġ5 285
Ġ__ _
read er
ant ic
ol atile
Ġtmp param
Ġlast Ptr
Ġwh o
ind er
Ġth unk
Ġth istype
Ġcl ib
table space
table Entry
Ġsub block
Ġsub missions
Ġsub Item
Ġsub subsize
Ġpr on
Ġpr val
Ġsrc Exp
res ync
gs abound
sub address
sub ElementList
alloc ated
tt f
tt l
Ġsa len
Ġsa fety
roup sort
Ġmem chr
comp r
comp ose
Ġ7 68
Ġsc p
St alled
VER SE
Ġnew node
Ġcol lation
Context During
ĠR I
ĠR EN
ĠR UN
ĠR ALF
sa pi
sa fely
Ġ/ *!
end or
LS PS
Ġbit order
Ar chState
Ch roma
Ġz path
Ġz flags
Ġz resource
ange Categ
element List
ĠO S
ĠO ver
ĠO WN
ĠO LC
10 7
10 57
const s
const time
Byte One
cf gs
Ġtemp ip
cl r
Ġpre ct
Ġpre sence
TT F
one cker
31 728
31 1749
Ġtr unk
Ġtr ansi
Ġtr unto
Ġfile spec
LI CATE
Ġmax size
Ġmax bands
Ġlinesize s
Args Size
ENT O
Ġbest mv
Ġcont ained
pkt Mode
ĠUConverter UnicodeSet
26 6
26 11
KEY RING
header Format
ĠV B
ĠV CL
init ed
PR INC
PR IMARY
Ġ12 0
Ġ12 3
ĠN i
ĠN r
ĠN et
ĠN ew
ĠN ntp
av atar
dev ices
ĠGet Number
ĠGet String
ĠGet Image
ĠGet Handler
ĠGet By
ĠGet Controller
ĠGet Fullscreen
ĠGet BlockState
ĠGet DownloadManager
56 74
pos al
cp up
Ġ10 3
Ġ10 23
ri bly
Ġstart s
TH READI
Ġcomp ile
Ġdis connect
Ġsbr at
Ġrd s
rst ObjectNumber
0000 00
Ġ\"% .
11 30
path s
ffff LL
filter bank
20 67
20 198131
34 9
34 324
Ex pected
Ġal iases
Capability TableEntry
ĠX q
ĠX Get
ĠX ML
ĠX PATH
ĠX Create
ĠX CF
ĠX anContext
vc pu
Ġxml Get
Ġxml Parser
Ġxml Realloc
Ġxml AttrPtr
are ncy
13 08
19 95
PI CK
50 106
50 2611
OW NER
request Type
Ġenc s
Ġenc ryption
To Default
To Native
Ġ32 46
ĠRE FS
14 22
14 10
14 88
14 810
14 289
14 658
Type s
Ġul Type
Ġap proved
src adr
Mode Change
Ġread y
ick ness
AC C
AC L
AG IDX
De coded
ĠQ IDX
77 7764
version s
Ġdir ty
ĠYY SIZE
ĠYY EMPTY
ĠYY DPRINTF
ĠYY STYPE
pen ded
89 76
BUFFER S
Ġsp b
Ġsp cname
pack s
17 9
Ġfirst Attr
SU ID
SU InitiatedInstall
Ġps df
OK AY
66 6
CC u
ĠMAX PATH
Ġparse SubItem
Ġparse Dummy
lat in
lat itude
39 420
Ġtrue motion
Frame Buffer
Frame Mapping
Frame bufferUpdateRequest
29 72832
Ġvar First
Ġtx cfg
AND LE
FA KE
ĠIS ERR
VI A
back up
back ground
87 56
87 33
87 410
35 9
35 000
Channel Capability
40 95
40 93
response Code
30 1
30 50
30 97
30 198
TO U
37 4
37 112
37 188
Ġbo ot
59 0
dis abled
Ġmin or
Ġmin ArgsSize
cont ain
coeff icient
Tr usted
cry pto
uv rd
Ġac pred
Offset Type
Ġold size
Str ategy
Test er
ĠK F
IE C
PRE DICTION
SH AR
ĠTR I
hdr len
Ġhost str
ĠCur r
Ġtile hdrlen
27 238
Ġactive q
REF S
Int egrity
Ġadd cookies
ĠIn voke
ĠEx ec
video BackChannel
Ġuse name
Ġuse counts
CHAR MASK
58 16
58 38
\\\" )
\\\" ->
CP ROLE
CR angeCateg
Ġ11 00
Ġquant ized
MON O
Ġvi a
Ġvi olation
57 9
57 95
inc r
inc ltree
Ġpp a
Ġpp f
Ġnode list
67 96
trans mission
07 05
ĠCH ANNEL
18 67
18 396
Ġlog it
STAT IST
08 5
SERVICE LEVEL
IC U
PRO BS
Count edBytes
ĠAVP ix
fl g
feature val
CA CH
97 6
high bitdepth
ĠSet Pre
ĠSet PrintPreviewDataForIndex
SA FET
CL R
CL UST
Ġwrite Value
handle s
From Long
Ġ19 00
Ġdb num
Ġdb stmt
25 87410
service level
ĠCON CAT
ĠIN FIN
ĠIN DIC
ĠSE PARATE
Ġsig addset
() ,
Ġdc allno
Request Context
cap ath
cap abilities
page s
tab leno
mis c
color name
Http s
aw are
Image Tag
Image Properties
PP C
Ġmod princ
buff ered
MA KE
ĠtoU State
ĠtoU Qu
ĠtoU DynamicWindow
ĠtoU IsSingleByteMode
ĠtoU ByteOne
ĠInt erp
Ġpw in
led Dig
With PermissionIncrease
generic Parameter
last frame
Di ms
Di rection
Ġindic ator
Ġim dct
thresh es
01 80
44 595
PC RE
Ġthe ora
Ġxslt Free
Ġxslt XPath
Ġxslt Style
Ġxslt AttrVT
step size
Key board
ĠMY ISAM
ARG B
auth entication
LAY ED
COM MIT
OVER WRITE
sequence Number
Ġport s
Ġport str
Le ft
PAR AMETER
Rate Management
Ġglob file
ansp arency
Load f
Ġframes Sin
Ġpartition ed
Not Allowed
Not Under
ĠIs Incognito
ĠIs Show
reen ligh
ĠCHAR SET
Ġtrans mitted
fp du
Message s
ĠCP SR
36 00
Video Redundancy
Ġprc lyr
45 2587410
Ġns Map
Ġ29 1760
profile s
Ġscr no
ĠPro res
Al pha
Res Avatar
tmp memctx
98 237
CN odeRestriction
Ġdecomp osed
signal led
mpi hex
Ġdelta set
client base
Ġtt frm
ĠCPU ArchState
Ġmc v
Table Capability
cmd arg
cmd data
Comp Expr
payload Type
payload Descriptor
Ġbl ack
Process ing
Of File
ĠMagick OffsetType
Ġdev icename
ALLOW S
ogram Tester
48 6
Ġraw img
STATUS CODE
BE nd
New NodeSet
long itude
ĠRe gister
Service Level
Service Ticket
ote Window
ĠGLOB ERROR
Ġfunction s
Ġremote version
Multiplex Capability
Multiplex Element
Multiplex Reconfiguration
Multiplex AckParameters
Multiplex TableCapability
ĠPQ status
ĠSync AuthenticPixels
Generic Parameter
Generic Message
Generic New
MO RE
ĠRT JPEG
ĠRT Coer
82 130
SC REEN
reg ular
ĠFA CH
05 31728
PER SIST
Pos Updates
VC D
VC Capability
Inter stit
wh ite
wh eel
Ġtc g
Ġtlv Type
Ġtlv Start
Ġtlv Block
Ġpk len
ĠDe tect
non ce
ĠCreate ExtensionInstall
ĠCreate Stalled
BACK GROUND
Ca ption
dt c
Ġblob s
Ġmid hash
rix Loadf
rand key
Ġpattern p
PROC NUM
Attr Template
ĠEC DSA
ĠFI XED
Terminal Information
cor relate
Ġrgb Buffer
127 15
ĠAdd Tab
Ġbot arg
Ġbot cmdarg
Ġwant ed
SUB MISSIONS
he ap
Ġfull path
ffffffff ffffffff
ĠEV LIST
ĠSBHUFF RSIZE
Sub missions
ĠSIG INT
media Type
media Mode
0000000 2
Ġsame Chars
Ġsame stepsizes
Ġcc Label
hist orian
ĠLIBC NOTIFY
NT SEL
DEX T
ĠNavigate Tw
ĠCo mmand
ĠReadBlob Byte
ĠPRE P
364 2608
CRE AT
Ġcre ation
Ġcre dentials
STE M
STE AL
Ġscaled Screen
pat terns
sn apshot
70 20198131
ABS OLUTE
FB Size
389 2
PK CS
Ref erer
840 32234
cre ated
va q
Ġprinc str
MAN AG
Ġ\"-- \\
Ġ\"-- -\\
PATH S
PATH NAME
delay ed
ĠHtml NPut
Ġ36 16225
Auth orize
ĠBU FFER
Ġll x
Ġsym val
Ġsym name
LET ED
Ġcalc ulated
Ġload addr
acce pted
warning s
deblock ing
Ġreset ToDefault
74 15
rt mpt
war f
Ġlink name
ĠCUR T
Ġvalid ityTable
Ġman ifest
Ġman ageDSAit
Ġvirt addr
ĠxmlXPath Free
ĠxmlXPath NodeSet
ĠxmlXPath NewNodeSet
Ġbig endian
post encode
ĠfromU DynamicWindow
ĠfromU IsSingleByteMode
MultiplexEntry Descriptor
Magick Caption
Ġfour cc
Ġact ually
DELT ADATA
anner Full
End OfFile
Ext Module
chan ptr
Stat s
forward MultiplexAckParameters
SORT ED
MULT IP
Ġ\"( \"
transfer Mode
iss uer
pk thdr
Ġcd ots
Ġnet num
der ive
Ġlt cmp
ĠURL Fetcher
Ġsubpel mv
Back end
MAL FORMAT
REP LACE
ĠProcess ing
ĠRET VAL
ĠDi ag
153 045
Fax RateManagement
exist ing
ENCRYPT ED
Chunk Header
Media DistributionCapability
Media ChannelCapability
Ġspe ex
Ġli bs
serv ices
Secure Src
imp licit
ĠUn able
Ġmba fi
ĠMax imum
Ġ58 2972832
Ġkwd First
Register Handler
prec ated
156 638
ĠTABLE SPACE
brid ge
ĠProfile BrowserTest
tlsext status
tlsext debug
CF G
numberOf Retrans
295 849
Seek Description
VideoMode Combos
nonStandard Data
EV NTSEL
Ġcy cles
REL ATIVE
FILEN O
ĠGS MMR
xffffffffffff ffffffffffffffff
vision ing
PERF CTR
orig inal
Ġextract ed
ĠRMD LOAD
Ġrx i
ĠFi rstObjectNumber
ĠPG result
660 295849
ĠSetImage Extent
rfbSet PixelFormat
ĠRef Buffer
ĠRef CountedBytes
CustomPicture Format
CustomPicture ClockFrequency
ĠWavpack Big
TIMER S
ĠBlock State
ĠDSA err
ĠVirt Queue
Setup Procedure
SPECIFI C
ĠSBNUM INSTANCES
OfProfile s
High ResAvatar
ĠForm Info
ĠCon st
ĠLP F
ĠOpen Window
ĠOpen PGP
xffffffffffffffff I
xffffffffffffffff L
WE B
Ġdsa err
Ġsav nlibtree
Ġsav incltree
ĠOid IsValid
Ġtlsc red
Ġruncode s
Ġruncode params
Session Command
sensit ive
Ġfb min
Ġdr ive
Ġinc ltree
ĠSA FE
ĠSHA PE
Thread Mapping
INITIAL IZE
CY GWIN
Part ial
Ġgeneric Format
ĠAuth Authorizer
ĠFormat MagickCaption
ĠCAF ChunkHeader
Ġerase d
ĠPermission Set
associ ate
Testing Profile
Ġcseqmet id
766 58
MIC RO
QOS Capability
Ġthird pel
\\\": \\\"%
910 9
IMPLEMENT S
hor ribly
Ġbin ary
Ġgob ack
Ġlanguage Tag
Ġ846 1266
ĠMe mento
Ġcontents length
ĠLoad ImageTag
Ġhton l
Ġur x
Ġur y
Ġba ilout
Ġrev oke
pet ite
ĠisLegal IMAP
ModeElement Type
need s
need le
ĠNavigateIn Foreground
ĠNavigateIn Ren
Ġsymcode params
Ġtick s
Ġdime nsions
ĠHas DisableReason
ĠxmlNew Ns
ĠxmlDict Ow
Ġ174 30198
ĠSetMax Writer
Ġtlvblock End
TERMIN AL
TERMIN ATE
DialingInformation Number
FRA C
FRA G
Ġgive s
isdn Options
Style Document
595 3290
pixelAspect Information
ĠescSeq CompoundText
ĠenableCursor PosUpdates
Remo ved
CommunicationMode TableEntry
RENEGOTI ATION
ĠCephX ServiceTicket
ĠCephX Authorize
ĠMultiBuffer Reader
CInGroupSortAggregSet s
GU ARD
Navigation Observer
Ġbind to
Ġmk i
Ġmk dir
Ġvms ave
Ġho ok
ilent ly
Ġkeymatexport label
ĠGetAll SyncData
circ uit
ĠInter play
ĠPQconninfo Free
AttrVT segment
revolution s
ĠDefault Screen
Edit Command
ĠImaging BBo
ĠSBSYMCODE LEN
General String
General izedTime
fin i
Ġcg fs
Ġturbo QualityLevel
Ġturbo Subsamp
ĠUData Offset
ĠUData Memory
Reassemb led
ĠWeb Rtc
ĠWINDOW S
PLAN AR
MultiplePayloadStreamElement Mode
Operation Level
An y
Imp roper
paged results
ĠMEM ENTO
ĠBL WF
REQU IRED
ĠIAD T
ĠDis play
THIS PROCNUM
ĠMBSPatch Header
276 1308
Selection Criteria
ĠCOMPLE XITY
ĠPRIV SEP
Ġdevname len
ĠRelease Variable
FaxUdp EC
ĠArray Dimensions
Ġuncertain frac
657 98237
Est Context
Icon Index
Support Indication
ĠLOW ER
recur se
sto od
coup ling
ENOT CONNECTED
ĠAPP S
Ġstrip petite
termin ate
ublic Key
ĠSk ipping
ĠPack CRX
Conversion Strategy
redu ce
ĠVAP IC
ĠGetPixel Channels
Ġrdcost y
113 128
ĠrfbCommand Return
userInput SupportIndication
ĠextBuf Capacity
sendThisSource Response
Resource s
ĠRetr ies
makeTerminalBroadcaster Response
makeMeChair Response
ĠTrue Color
DENOI SER
gstn Options
broadcastMyLogicalChannel Response
ĠColor ConversionStrategy
OPERATION LEVEL
Be fore
Esc rowData
Fail ure
Ho ok
It alic
SL ASH
ĠmFormat Flags
ĠBit Set
the query
CKE Y
Ġprov ided
ĠMO VE
ĠMat rixLoadf
ĠPo inter
Ġgetpw nam
scal ar
DUP LICATE
4055 7020198131
ĠxsltRegister ExtModule
fsw ab
ĠRecursive DirectoryIterator
SCUS CPROLE
PERIO D
Endian ToNative
ĠVariant ListEntry
BREAK OUT
PUB LIC
Ro ute
cing roupsort
passth rough
Ġ\"! $(
Ġdeterm ine
ĠAB ORT
RESPON D
ĠCAFF ileHeader
operation level
ĠMotion EstContext
ĠPOLL IN
ĠObject Id
Ġtri value
decim ator
PLT REL
ĠxsltSet AttrVTsegment
COLUM N
49120 37188
VERSIONTAG NUM
ĠTestGet BlockState
Ġrealstuff sz
ĠCreateFrom SyncData
ĠxmlHashCompute Key
655416 0531728
BEnhancement Parameters
ELE MS
Fmt Descriptor
KV NO
Led State
NOF OLLOW
Opt Info
RAT IO
Same Origin
VEND OR
Xp q
bnd cfgs
byn id
kr onecker
wal k
Ġion odes
Ġpen alty
ĠpKwd s
Ġbutton Mask
Ġ1245 82130
Ġmvb its
Ġrema inder
Ġdbt ablespace
Ġdign ext
anony mize
pens ation
Ġhdre xt
ĠBIL INEAR
hardir q
Ġldu w
addExtension ToList
Ġstrft ime
RESIZ ING
REPL Y
ncall s
ĠkTest Domain
ĠECI DT
igib le
ĠUHP A
ĠdefDelta ToUnicode
ĠHist ogramTester
ĠHNUM PATS
ĠTrace Event
frameTo ThreadMapping
Ġexpl icit
Ġexam ine
ĠMissing SecureSrc
ĠSLA P
ĠSAX ON
ĠSpectrum Parameters
DECIS ION
sheet Ptr
ĠisState DBCS
iceInTab AndClose
Ġyyexhausted lab
MPRESS ION
ĠLargest Position
Ġlexdigit s
ADHA K
Restrict ed
angero us
Ġ658 153045
tableEntry CapacityExceeded
ĠsrcExp Buf
311749 44595
Ġtransi ent
ĠGetNumber OfProfiles
ĠGetBy ID
ĠGetFullscreen Controller
THREADI D
34324 37112
Ġ3246 3432437112
14289 113128
14658 3
777764 4912037188
ĠMAXPATH LEN
39420 5
4093 394205
3097 6796
coefficient s
27238 30976796
ĠInvoke Event
ĠExec Eval
videoBackChannel Send
\\\"-> \\\"%
CRangeCateg Spec
18396 14810
STATIST ICS
ĠAVPix FmtDescriptor
ĠSetPre load
SAFET Y
tableno ise
Ġmodprinc str
ĠtoUQu oteWindow
ĠInterp Kernel
ledDig its
ĠxsltStyle sheetPtr
ĠframesSin ceKeyframe
NotUnder stood
ĠIsIncognito Enabled
ĠIsShow ing
reenligh tenment
VideoRedundancy FrameMapping
452587410 4093394205
Ġ291760 2761308
ĠRTCoer ce
Interstit ial
ĠCreateExtensionInstall Request
ĠCreateStalled Download
ĠNavigateTw iceInTabAndClose
3642608 175
84032234 46
Ġ3616225 660295849
ĠresetToDefault ToUnicode
ĠURLFetcher Using
Ġ582972832 8403223446
numberOfRetrans missions
xffffffffffffffffffffffffffff ffffLL
rfbSetPixelFormat Msg
ĠWavpackBig EndianToNative
Ġ8461266 5953290
ĠNavigateInForeground AndClose
ĠNavigateInRen derer
ĠxmlDictOw ns
Ġ17430198 14289113128
ĠSetMaxWriter s
ĠImagingBBo x
ĠturboSubsamp Level
Improper ImageHeader
ĠReleaseVariable Stats
65798237 31174944595
40557020198131 76658
cingroupsort aggreg
6554160531728 146583
Ġ124582130 1839614810
ĠMissingSecureSrc Warning
Ġ658153045 3642608175
Ġ32463432437112 64189
7777644912037188 223
2723830976796 502611
Ġ2917602761308 156638
Ġ3616225660295849 566
Ġ84612665953290 35000
% .
& #%
' &#%
) '
* (%
+ -
, \\
. )
. *.
. ]%
. /..
0 340
0 140
0 201
2 54
3 12
3 50
3 66
4 11
4 000
4 23
4 8855
5 00
5 26
5 15
6 32
6 19
6 35
7 137
7 5748
8 24
8 0000
8 66
8 39
8 62
8 198
8 544
9 12
9 13
9 14
< /%
= -
= &\"
A HEAD
A sync
A gg
A EP
A gent
B r
B SS
B us
B AC
B CD
B utton
C AN
C ASE
C ast
C LOCK
C ENT
C RYPT
C END
C leanup
C RAM
C ell
C ANCEL
C PRole
C utText
D J
D em
D ual
D umped
E SS
E PH
E IP
E OL
E MBED
F GS
F ill
F raps
G OP
G UINT
G lyph
G IF
G ENCODE
G UID
H SA
I te
I FF
I LS
I CM
I MS
I mmediate
K nown
K ERN
L VAL
L ang
L DOUBLE
L PW
L DM
L ATER
L VideoContext
M i
M et
M ID
M CE
M ust
M AG
M ore
M ix
M mr
N V
N SOR
N atLanguage
N VIC
O U
O X
O ME
O GRAM
O AEP
P ack
P ID
P UL
P rint
P reserve
P ins
R G
R N
R ing
R LE
R ARY
R ich
R VT
R LIFE
R ational
S MB
S AN
S MP
S HE
S QU
S CC
S OL
S CP
S CA
S ending
S CONTROL
S urface
S uggest
T C
T M
T ask
T cp
T BL
T ADATA
T JOBID
U UN
U MI
V ENT
W e
W char
W CC
W OFF
W BE
W ho
W idget
X SS
X TRA
X Address
X Encode
Y ahoo
Y OU
Z H
Z ED
] .
a a
b urn
b im
b mi
b atch
b Picture
b cast
b eta
b roken
b utton
c w
c in
c dir
c depth
c LC
c Rows
c losure
c losing
c pio
d le
d ro
d ur
d ht
d count
d sc
d Error
d qt
e lems
e DLE
e RM
f size
f info
f sc
f top
f loor
f wht
g ss
g enc
g ram
h J
h c
h g
h u
h info
h op
h am
h av
h blocks
h ds
h sts
i ob
i seqno
j as
j cost
k ind
k vm
k Mode
k rb
l ight
l fe
m n
m CT
m ath
m PI
m ore
m iter
n sp
n search
n samples
n Content
n values
n ger
o in
o ssl
o score
o seqno
o onState
p set
p sk
p read
p addr
p itch
q status
q OS
q adjust
q mfb
r ive
r rd
r printf
r lc
r ud
r puts
r ating
s har
s list
s vm
s List
s nr
s If
s pectrum
s Seek
s uffix
s ufficient
s chema
s linear
s After
t ate
u c
u k
u pe
v ptr
v ation
v Type
v flag
v apic
w ave
w eb
w Attr
x ch
x tension
x FC
y ph
y scale
y ou
y ahoo
z cl
~ '
~ \"
Ġ \
Ġ ME
Ġ ONE
Ġ rom
Ġ DIR
Ġ RAW
Ġ rolname
Ġ CTableColumn
Ġ ENTITY
Ġ( @
Ġ( ..
Ġi i
Ġi de
Ġi ub
Ġi sh
Ġi gs
Ġi low
Ġi stride
Ġi opt
Ġi high
Ġi mplemented
Ġi llegal
Ġs frame
Ġs ol
Ġs od
Ġs orted
Ġs anit
Ġs ome
Ġs procs
Ġs ortop
Ġs cantable
re nd
re fo
re valid
re write
re sent
re connect
re striction
re sponder
re lop
re transmission
Ġc lock
Ġc sc
Ġc state
Ġc Count
Ġc Range
Ġc Elements
Ġc Dims
Ġ* \"
er s
er ies
er minal
st y
de ref
de alloc
de segment
de compression
de leted
at ient
se m
se des
se ngage
le af
Ġt re
Ġt type
Ġt ip
Ġt def
Ġt cap
on line
in ert
Ġp an
Ġp str
Ġp am
Ġp pc
Ġp Next
Ġp qindex
Ġp uc
Ġ[ -
Ġb offset
Ġb og
Ġb rate
Ġb Len
ar row
Ġif else
me mp
me dp
me mpcpy
me chanism
Ġ1 38
Ġ1 04
Ġ1 19
Ġ1 84
Ġ1 40
Ġ1 37
Ġ1 0000000
ro le
ro seconds
Ġf x
Ġf y
Ġf on
Ġf it
Ġf min
Ġf limit
Ġf modes
Ġf putc
Ġf requency
Ġf mgr
Ġf illed
Ġf older
Ġm h
Ġm u
Ġm ail
Ġm hdr
Ġm tab
Ġm apt
Ġm ha
Ġm kvno
Ġ\" )
Ġ\" ?
Ġ\" @
Ġ\" :%
Ġ\" **
Ġe ip
Ġe mit
Ġe cmd
Ġe mr
Ġre nd
Ġre init
Ġre cmd
Ġre member
Ġre cover
Ġre duce
Ġre serve
Ġre plies
al ter
al Dialog
co mb
co mba
co pied
si m
si mult
si cc
si ren
si bly
Ġo idx
Ġa f
Ġa mp
Ġa name
Ġa num
Ġa cl
Ġa family
Ġa utofill
Ġa wa
AS L
AS ON
Ġint rud
it ization
Ġd a
Ġd ar
Ġd info
Ġd ry
Ġd mem
Ġd path
Ġd high
Ġd cmd
Ġd rep
Ġd upe
Ġd wAttr
IN F
IN CL
or dex
or test
or bis
Ġg c
Ġg const
Ġg Block
Ġg mtime
Ġg sicc
an alog
an ks
an aerobic
Ġv Value
Ġv fl
Ġv iter
Ġv digest
Ġv acuum
Ġu c
Ġu bi
Ġu cm
Ġu mt
Ġu my
Ġu mx
Ġu enum
Ġu agent
Ġu fvalue
ame tric
Ġh id
Ġh ack
Ġh offset
Ġh mac
Ġh otplug
Ġh cidump
Ġh extile
ad line
ad pcm
te mpt
Ġn ch
Ġn op
Ġn am
Ġn entry
Ġn scope
Ġn chr
Ġn la
Ġn inst
Ġn zbin
Ġn avigations
Ġn vic
Ġn servers
NU L
Ġcon sec
set ree
set string
ER MO
ER ATOR
ER GY
ĠB er
ĠB ind
ĠB ACK
ĠB ink
ĠB ROWSER
ĠB egin
EN MENT
EN GINE
EN ESS
Ġ2 24
Ġ2 34
Ġ2 54
Ġ2 048
Ġr h
Ġr n
Ġr len
Ġr as
Ġr py
Ġr low
Ġr high
Ġr last
mp l
as Message
Ġl m
Ġl at
Ġl ch
Ġl if
Ġl fl
Ġl first
Ġl rintf
Ġl zma
Ġl uminosity
Ġde buting
Ġde correlate
Ġde precated
Ġde adline
to s
to byte
to ol
to upper
ag ate
ag ain
ch airToken
Ġx try
Ġx calloc
Ġx realloc
ce nd
Ġst amp
DE INIT
DE SCRIPT
DE MUX
th ickness
ing Interstitial
ue id
ed inger
fo data
pi v
pi coseconds
ex cessive
ss board
ĠA uto
ĠA BS
ĠA bort
Ġin f
Ġin v
Ġin len
Ġin verse
Ġin correct
ab t
Ġstr ange
Ġstr start
Ġstr dur
32 9
32 69
32 44
um Copy
Ġbu gs
Ġw b
Ġw nv
Ġw mask
Ġw day
Ġw ma
Ġw interface
Ġw ks
Ġw ordex
RE LO
RE SOURCE
RE ORDER
RE LOAD
RE COVER
RE DEL
RE DIRECTION
RE ASON
nc etype
24 00
24 19
24 087
24 8976
lt as
STRING Z
vb v
OP ED
ve ct
ve ctable
Ġk First
Ġk Bund
Ġk Second
Ġk Web
Ġk IconIndex
Ġk Yahoo
ĠE A
ĠE AC
ĠE qual
ig est
ig zag
Ġhf n
Ġhf info
ĠF IL
ĠF ILL
str to
str ate
str casecmp
str tok
str aint
AL A
AL TH
AL INFO
AL AM
AL TS
AL OG
ĠU PR
ĠU sed
ĠU QU
ĠU rs
Ġmb graph
Ġun ref
Ġun link
Ġun matched
Ġun parsing
ext s
STA NT
16 14
16 76
16 812
16 181
pt c
val used
type d
type code
245 214
245 305
Ġ4 80
Ġ4 37
Ġ4 15966
ĠC an
ĠC Base
ĠC DX
ĠH eight
ĠH IST
ĠH OST
ĠH ALANT
ĠH ANDLE
data format
MB MODE
LE xtension
00 4
00 80
if ace
el f
el ap
el igible
Ġpro d
Ġpro t
Ġpro ximityPosition
Ġpro posal
Ġpro pset
Ġy x
Ġy bias
ter se
Ġq ry
Ġq io
Ġq database
Ġq cms
Ġq celp
Ġq dcount
Ġq memp
is ation
is am
up ledModes
ap tered
ĠT o
ĠT ry
ĠT TS
ĠT RES
ĠT gq
ĠT yph
Ġ3 08
Ġ3 99
Ġ3 192
Ġarg j
Ġbuf Size
64 5
64 77
64 17
64 255
64 1057
ME TER
ME TADATA
Ġj j
Ġj mp
ser seed
Ġ8 32
Ġ8 58
Ġ8 47
Ġ8 192
CS I
CS V
CS tring
Ġcur lx
Ġcur tile
em ulation
Ġex ts
Ġex ceed
IG A
AT C
AN K
AN TE
In dent
In Sub
In flate
In sufficient
SE CKEY
ĠAV Rational
il ing
sp h
sp ort
con sent
op erator
ĠM C
ĠM on
ĠM in
ĠM IM
ĠM SC
ĠM OT
12 557
Ġout er
UN T
UN CH
UN SET
UN AVAILABLE
UN SPEC
UN LCK
ERR AL
ĠS c
ĠS OF
ĠS ID
ĠS IP
ĠS tem
ĠS cor
ĠS VM
ĠS ilently
ĠS ASL
put ms
DEC ORDER
di al
di ms
Ġ' )'
Ġ' ~'
Ġch n
Ġch id
ĠP CM
ĠP ayload
ĠP IC
ĠP PP
ĠP UB
ĠP OST
ES pec
sh ock
ca ption
ca vs
CI ENT
CI ndic
unt il
row Set
art ic
ENC Y
Co upledModes
rc v
Ġis First
Ġis unique
Ġis PN
Ġis blank
Ġis Escape
Ġis CESU
no k
no fail
AR C
AR ANTE
Ġsource Initial
ONE LEVEL
ob e
LA UNCH
Con firm
ĠG ra
ĠG UINT
ĠG FP
Ġref mv
Ġref dist
DI CT
DI ALOG
un set
un compressed
un its
un assigned
Ġmi xed
Ġend semi
bi ent
CO bject
CO ENG
sk ed
unc ated
DEF LATE
ED X
Ġkey box
Ġkey segs
ation RejectReason
mb fl
Ġres name
Ġres olution
par setree
UT C
UT IL
num rows
num cols
Ġnum cmpts
22 7
22 870
22 1056
Ġto lower
pl ite
ref ere
Ġblock ed
Ġvalue size
Ġvalue AVT
RO UTE
ĠI V
ĠI d
ĠI nc
ĠI dentifier
ĠI FS
ĠI ARI
Ġyy new
Ġyy overflow
Ġyy destruct
Ġline width
Ġline join
ft mp
CH OS
RA MA
NO MEM
Ġcurrent Mask
MP LATE
che ssboard
Ġmv n
Ġmv x
Ġmv thresh
Ġmv jcost
Ġse ac
key iv
IME TER
qu are
po ch
po late
mode Combos
ĠD L
ĠD FS
ĠD OWN
ĠD rawInfo
Ġle ftop
ĠENC AP
UR S
ac ross
Ġlength offset
CON DS
Ġtarget p
Ġ6 00
error Message
EX IST
Ġ5 65
read only
Ġcode book
LOG IN
Ġtmp file
Ġlast id
Ġlast av
Ġlast sz
Info Bit
Info Cache
print Mapping
count ered
BU S
BU ILD
FF ound
Ġdi ction
am r
Ġth rough
out standing
Ġcl amped
Ġbs z
table spaces
Ġsub str
Ġsub dissector
Ġsub root
ass ure
Ġpr ior
Ġsrc Len
res v
GS V
GS MA
Ġsh ortest
sub packet
sub frames
sub sample
sub Picture
sub entries
LOCK ED
Ġcb g
Ġcb gtly
Ġcb gtlx
Ġsa pi
NA K
vice State
kt s
Ġdo min
Un signed
Un reg
Data Transfer
Data Dir
Ġ7 54
Ġ7 1630
Ġsc n
err x
chro edinger
VER BAT
SET FL
Ġnew ptr
Ġnew pw
BO rder
BO URS
ail s
pu serseed
Ġuni q
sc si
ĠR ERR
ĠR est
ĠR MAX
ĠR oq
Ġms re
OB alloon
Ġpic k
Ġz color
Ġz token
Ġz igzag
Ġinter l
Ġinter sect
Ġad ded
Ġad opt
Ġad obe
br len
br acket
br ush
ĠO ffset
10 3
10 8
10 77
10 23
cf iltered
Ġtemp file
Ġtemp filt
Ġtemp orary
ain er
cl a
cl ause
Ġuser pwd
Ġuser style
Ġpre pare
31 84
Ġtr x
Ġfile copy
Ġfile system
Ġfile Max
TR L
TR USTED
cs cor
LI SH
DATA BASE
Ġmax count
FO LLOW
arch val
MAX CL
MAX IMUM
55 11
55 6384
min or
packet ization
ENT IAL
Ġbest sad
ok ed
HE ALTH
pkt s
Ġ\\ \\
Ġser vptr
per call
Ġdat umCopy
26 01
26 03
26 544
KEY WORD
KEY TAB
04 80
04 40
04 37
header FEC
ĠV A
ĠV FP
ĠV MPORT
PR IO
Ġ12 5
Ġ12 08
ĠN LOG
ĠN one
ĠN SIG
ĠN TP
ĠN BLOCKS
Ġas cend
start up
Ġthis rate
Ġthis distortion
Ġthis mvcost
ĠGet Profile
ĠGet Quantum
ĠGet Installed
ĠGet Gra
ĠGet Wrap
ĠGet RequestContext
56 816
56 978
56 860
Ġ10 6
Ġstart code
TH ERMO
Ġcomp osite
ph ase
Ġrd b
Pro tected
Pro tection
pend ir
11 76
80 7
80 777
Ġ-- >%
20 184
20 93
20 398
34 94
34 74
34 047
34 899
ator y
Ġal ways
Capability Identifier
Ġks ba
Ġrow nr
ĠX Int
ĠX Match
vc Capability
Ġxml DefaultSAX
Ġxml SAX
UND F
19 20
19 44
19 200
19 677
19 184
PI CT
ĠINT L
50 896
array vector
request Terminal
Ġ9 3
Ġ9 4
Ġ9 8
Ġ9 00
Ġ9 11
Ġ9 17
To DB
To Map
To RGB
pre tran
84 16
84 79
84 367
QU ENESS
Ġ32 768
ĠRE TRY
ĠRE SERVED
14 486
Ġlist ener
eff ort
dir ty
ĠBLOCK DEV
Type Error
Type Controller
mod erate
Ġap ic
Ġap pear
INFO BIT
Source Route
rtp RedundancyEncoding
Ġoffsets Limit
SP ARC
EXT ENDED
cb a
cb pc
Ġsl printf
entry Numbers
entry DataType
De coding
De fragment
ĠQ emu
ĠQ ual
ĠQ CEL
Ġindex file
ts n
ĠYY ERROR
ĠYY EOF
Ġph i
Ġtop level
ĠW AR
ĠW mv
ĠW idth
ĠW MV
ĠW HO
Ġcontext Node
89 8
89 37
89 255
89 96
Ġsp are
write b
Ġwork ing
Ġwork done
Value Error
Value Process
Value Exception
17 00
17 87
Ġfirst Value
SU PER
pc alloc
pc net
OK ENS
Ġparam count
66 95
66 2624
ĠMAX PG
Ġparse DiagnosticInfo
15 94
15 766
Ġopt code
Ġbuff ered
000 3
Buffer Create
39 24
39 264
39 0400
Frame H
Frame Capability
Frame Size
base name
29 6
29 16
29 2870
Ġvar no
Ġvar Len
Ġhas LISTGROUP
ls b
MV DATA
MV SEARCH
MV CIndic
FA M
lc n
ont Block
ĠIS HEX
VI RAMA
87 135
35 3
Ġfd s
Ġrfb Text
Ġrfb Write
Ġrfb Dir
CODE D
US G
Ġintra penalty
UNI CORE
UNI QUENESS
30 66
ĠJ P
ĠJ ava
Ġsave config
CUR SE
37 0
37 60
37 8977
37 14486
Ġbo th
59 27
59 72
59 012
59 1297
Ġup dater
Tr iple
Ġsession s
54 829
ge fx
ĠZ WJ
udio Capability
udio Mode
Ġsegment ed
pic num
invalid ate
Ġold off
Ġold back
Ġold pic
Ġold cxt
Ġsum med
Ġsum medp
28 129
MT U
ĠAS CII
Ġmx peg
ĠK EX
ĠK MVC
Ġreq ok
PRE SS
PRE VIEW
COMP ONENTS
DO TS
SH APE
Ġhost key
Ġtile len
27 1
27 35
27 44
27 68
test s
OPT IM
REF ERRAL
ĠMV c
ĠMV r
ĠMV REF
Ġadd size
user tag
ĠIn put
ĠIn formation
ĠIn ner
Ġfmt int
ĠEx ecute
Log in
Log ins
vi a
vi able
video Not
CHAR S
ard own
:// %
:// *\"
Ġ24 47
mo ree
UP CAST
MEM CPY
CR IS
02 11
Ġabs stepsize
zero motion
Size Type
ib lk
File Stream
Ġdist inct
Ġpkt mp
Ġpkt count
Ġvi ram
57 12557
OFF S
ll x
Ġnode Nr
67 14
67 08
67 0001
Ġcbp b
Ġcf n
body flag
Number Of
07 6695
DER EF
Ġ14 00
Ġ14 60
Trans mission
Get Transform
Get UnicodeSet
job id
job cookie
cpm restart
go v
go ing
ĠAR ITH
18 627
UChar Ptr
dist ance
Ġtoken ize
vert CMYK
Ġzero mv
dc ch
08 00
Ġat o
And Integrity
Ġseg len
PRO M
PRO GRESS
Ġ17 3
Ġ17 9
ret ained
Ġaddr Count
Ġno cert
ĠAVP icture
Window Map
Window Fullscreen
Ġpos sible
Th rottle
WN J
CA BAC
CA udioMode
String Literal
Ġ(% %
ĠHB PP
NE ARG
NE ARE
NE ARA
PL ITE
PL US
Ġcompare Mapping
Ġbe strate
97 98
Ġpass no
alt itude
ĠAVCode c
Ġ20 1
ĠSet up
ĠSet URL
ĠSet Was
65 19
65 40
65 280
65 39264
next proto
env iron
READ FILE
READ ONLY
Ġ19 5
Ġ19 8
IM MEDI
Ġdb owner
Ġformat str
Entry Name
Ġio buf
Ġio vec
Ġcheck ed
ĠPy Bytes
ĠPy Caps
ĠPy CObject
25 15966
25 2430
Id Pending
ĠIN CRE
ĠIN FORMATION
Ġsig set
Ġsig buf
Ġsig empty
Add Connection
() )\\
Ġcurr Table
Ġcurr User
Ġcurr kvno
Ġcurr Schema
Content Restriction
FILE INFO
AM IGA
Mult ichannelType
xml Hash
Extension Instruction
Ġut ftmp
Ġpix map
Ġauth opts
SY STICK
create flag
lect ivity
my anmar
ne ver
Ġsock dir
Ġpw buf
range Of
led Experiment
99 9
99 22870
With Disposition
generic Information
last Tag
seq num
Di ameter
Di sengage
xff c
Name space
44 3
44 5816
For CustodianApproval
Is VALUE
Next ImageInList
Ġxslt Get
Ġxslt Locale
Ġxslt Apply
Ġxslt ExtensionInstruction
gen re
LENGTH OF
ec dh
ec dhe
Ġpt sid
abel Type
Key s
over lay
ĠEN ERGY
23 566
88 80
88 244
ĠSB STRIPS
auth request
auth entic
Ġcall s
PAR SER
group s
REQ BODY
MIN US
Ġar m
Ġar r
Picture Selection
Object Ptr
ĠIs SameOrigin
ĠIs WindowFullscreen
ĠIs IdPending
09 1
ZERO MV
ENCODE D
SK B
ITION ALINFO
52 398
mc Capability
Ġmp v
ĠCP MSetBinding
36 57
36 167
Video RedundancyEncoding
Video CoupledModes
Ġprc s
45 34
Ġns Nr
ADD ITIONALINFO
lim bs
reser vation
Al ive
98 512
CN TRL
ud plite
ucture dError
signal Update
Ap pended
Ġdelta Changed
ĠTH READ
ĠMODE L
LINE JOIN
Ġtab s
ĠCPU ID
ĠPR IsVALUE
net ic
LogicalChannel AckParameters
This Event
fail ThisEvent
68 2
Table ref
Ġ\". ./..
Ġcblk bry
Ġcblk xind
Ġcblk yind
Ġcblk brx
Match ToMap
rfb Bool
rfb Block
rfb FileTransfer
Pre diction
Of Wchar
ĠMagick SizeType
Ġupdate s
Ġimg type
SKIP PED
ĠCheck Disabled
Ġdev ices
384 744
ĠQueue AuthenticPixels
48 3869
Ġdummy buf
ĠTest Data
ĠTest NavigationObserver
62 16181
New FBSize
by bookmark
ĠRe ference
ern Atom
Ġtext len
ĠCURL code
ĠCURL PROTO
crc Desired
delta set
gain s
structure d
Ġneed quotes
FIELD NAME
Ġchan rec
ĠPQ connection
ĠPQ connect
ĠPQ ExpBuffer
ĠPQ errorMessage
Generic Data
Generic Information
Generic RegionParams
tl sa
tl vblock
SC U
TER S
td s
Ġdl sym
Array Size
Ġtrail IsOk
PER M
Pos sible
call no
Ġother distinct
Ġ44 3
Ġexp Len
COUN TS
COUN TERS
ĠNE EDS
ĠNE VENT
Ġhash size
ĠENO T
weight s
Ġtlv Ext
Ġpn rate
ĠDe coder
ĠDe viceState
Ġsec name
Ġsec buf
ĠCreate Browser
ĠCreate Unique
DC FGS
ĠGET NEXT
75 221056
PACK ING
Update Event
Conn Error
Ġloop Addr
coded FrameSize
Function NotSupported
Ġhigh Type
Ġrule s
ĠRead All
ĠRead Helper
COUNT ING
Event s
Ġpost filter
Ġinst alled
process ing
Ġappend StringLiteral
Open Disposition
Ġpid file
ĠFI X
Pixel Info
Result Register
ner Handle
rece iver
terminal Information
terminal IDResponse
terminal Certificate
95 149
Ġmis align
127 2515966
Block ed
Block sAfter
Ġchange pw
Ġdiv ide
ĠAdd MatchToMap
Ġdup s
Ġsplit s
By Type
Ġhal ftone
Ġce ph
ĠEV ENT
47 98
Sub tag
ĠSIG QUIT
184 337
media DistributionCapability
IGNORE D
BG RA
available BitRates
ĠFIRST S
42 55
ML U
ĠFLA C
On Local
WebContents Mod
Ġed it
asse nger
variant info
Ġcmpt imer
NT I
lem idi
CALL ED
Ġreply addr
pix map
Reference FrameH
Ġquote One
dat collate
Ġan si
ĠPRE FLEN
CRE DS
hex tobyte
password Response
Ġper missions
Ġcertificate s
889 65280
STE PS
ĠxmlStr ucturedError
Ġround ing
met a
70 1414
Sign ESpec
Ġgr font
TRAIL ER
AY ALAM
mag netic
LIB JPEG
LIB RARY
Eng ine
Variant Col
72 15
Annex CMode
Annex CAudioMode
Call Information
compress or
Ġulong long
JOB DATA
SB CS
Ġsd k
Ġwrit eth
Ġfixed Threshold
Ġyyss a
ĠLo cal
ĠData TypeController
LOCAL IZEDTEXT
Cipher Init
ĠSt ate
ĠDo Background
NET WORK
NET WARE
Ġir va
EXTRA NUM
Server Identity
No PT
ĠDTLS v
timestamp s
ĠxmlList Link
FP S
Full PropSpec
Ġmic roseconds
Ġnmv cost
\\' )\"
database s
ĠSTR PREFIX
ĠOld UChar
symbol s
mx m
deno ised
ĠID S
ĠImage base
encryption Algorithm
569 596
YU Y
war ped
Ġauto sendcmd
248 1459
Ġmpi fmt
ĠMS BOrder
ĠxmlXPath Set
ĠxmlXPath Pop
ĠxmlXPath ObjectPtr
Field s
Document Ptr
Ġbig dia
ĠSUB PICTURE
post fix
MultiplexEntry Send
super blocks
super sedes
ĠGB TEMPLATE
Release Complete
Color Br
Magick String
exec stack
Extra ct
ĠBUF SIZ
dl handle
drop ped
flush pkt
Ġsearch val
Ġtimeout p
forward LogicalChannelParameters
Ġrecon s
ĠSC OPED
ĠNavigateToURL WithDisposition
Ġcd brlen
ĠParse Result
Transport Parameters
RANGE BOUND
auto update
Ġcomple tion
1651 50896
unn est
Ġ66 006
Ġpredict ed
network Type
Custom Gallery
FULL TEXT
Ġimp atient
Check So
capability Table
capability Descriptors
capability OnMuxStream
ĠProcess Map
ĠSTD ERR
Vector s
sof ar
ĠUD X
DECO MPRESSION
1010 1010
ĠINIT RD
crow variantinfo
la zy
la uncher
region s
REMO UNT
Encryption Mode
Encryption Algorithm
Encryption Receive
Fax Profile
Fax Tcp
dw index
dw outstanding
tcp dump
signature s
spatial Enhancement
CHUNK ING
789 20184
789 98512
877 78920184
Media EncryptionAlgorithm
nted Permissions
Ġli ke
Ġli kely
ĠAc cept
specific Request
Ġhex val
ĠUn install
ĠUn retained
Ġmba ff
Unit Test
ĠQu ery
graph ite
Ġsuper blocks
Ġfl ip
Ġforce d
Ġtoc EntryName
Render Transform
CRow sSeek
Handle RegisterHandler
AQ UE
Ġrp x
Ġseek err
certificate s
BET AG
Feature s
INDI CATOR
009 3892
ĠRel abelType
777 56816
Rows Buffer
ĠappendPQExpBuffer Char
Ident ification
rev cp
Ġunc ached
Ġcursor Was
conference IDResponse
ĠSe quence
ĠSe ek
ĠSe lectivity
ĠGS M
redundancyEncoding Capability
Ġoptim izer
Security Prefs
ĠSBR TEMPLATE
Maximum BitRate
Maximum HeaderInterval
Maximum SkewIndication
83 1272515966
Po ints
mobile Operation
Ġvir Stream
Ġ56 11940
Ġarf gf
BS D
HIST OGRAM
hs ds
iP XAddress
iP SourceRoute
ĠrfbSend Xvp
Doc Info
WR IT
Ġmove Flag
ĠMK BETAG
aneous Capabilities
660 69
Ġtlcb gtly
Ġtlcb gtlx
Ġtlsext nextproto
Ġcalled APTitle
Ġhybrid mv
217 3474
BC CH
rule set
Ġsn apshot
routine s
ĠBlock Host
Ġ69 806
Ġoc curred
ĠEnt ries
106 085
KEYS ALTS
ĠNum OfWchar
ĠxmlMalloc Func
ĠTemplateURL Data
ĠTemplateURL Ref
ACH ED
BL ANK
Leg acy
Ġtd ots
true seq
Ġ47 159
COLL ATE
ĠList Cell
ĠWindow OpenDisposition
3579 022
SCAL ES
magnitude s
SupervisedUser Id
centralized Data
077 304
577 077304
Ent ities
HI BIT
Wh ether
Ġtsc c
ĠALLO CATE
167 3714486
Ġnbd fd
Ġsignal s
conflict s
crowseek bybookmark
Ġchatnet rec
ĠSupervisedUser Navigation
Off Command
Off TheRecord
Te ardown
aver age
ĠDE LAYED
Ġgeneric ParsePos
ĠBu ild
ĠAuth Ticket
ĠCA path
appear s
ĠPassword Form
associ ation
pret ImageProperties
CRC CHECK
SYMB OLI
DBG LOG
Fac ility
ĠOP AQUE
Ġind igest
additional PictureMemory
ĠClose Blob
Ġstereo scopic
ĠgetTrail Unicode
ĠgetTrail Single
ĠIARD H
ĠIARD W
ĠIARD X
ĠIARD Y
5517 6539264
Ġposix Variant
Param Ref
\\\": \\\"
multiplexEntry Descriptors
ĠInitialize ExtensionService
ĠExtensionServiceSync CustomGallery
CRowSeek Next
CRowSeek By
10000 00
BP B
LARGE STALL
Ġbin dir
tran sition
Ġga ia
Ġwait set
CEIL DIV
Ġthiss se
Ġthiss me
1969 99
Filename Value
mediaChannel Capabilities
Background AndClose
627 6110
:* /
CRestriction Array
IMP LODE
Via Gate
fed cba
xslt DocumentPtr
Ġpci bus
Ġanal gain
Ġuq vq
lost Picture
lost Partial
mbolic Id
CHAN S
acl default
CONNECTION S
Ġplain len
045 15766
ĠNon Standard
Ġ90 695
Loc ator
ĠNavigateIn BackgroundAndClose
ĠbcpValue Len
Remote MC
Avatar Menu
Opacity Mask
Ġxc fodata
ĠEnd OfThisString
ĠIA IT
ĠIA ID
ĠIA FS
ĠDNS CACHE
Unexpected ValueException
Ġscientific Format
Ġscientific ParsePos
requested Modes
Ġ91 556384
Depen dent
375 198131
Ġaccum ulate
://*. *.
ĠSetMax Buffer
ĠSetMax BlocksAfter
communicationMode Table
secondaryEncoding Mode
progressiveRefinement Start
distributed Data
087 96
HO OK
JP XEncode
Last Rect
ĠDIS ALLOW
demux er
Ġlut uv
Ġsubsystem s
288 301
datat ype
ĠScoped Allow
ĠScoped TempDir
FieldTrial Name
CDb Prop
OrderCnt List
ĠClientHints Lifetime
Ġfollow s
ĠBookmarkBubble Delegate
658 04515766
Arith State
GU ARANTE
Ma intenance
Owner Response
PAGES IZE
Run nerHandle
hy percall
pare n
recovery ReferencePicture
Ġclosing bracket
Ġtap info
Ġgen re
Ġgray data
ĠUt terance
ĠCopy MagickString
Incognito Teardown
indic ator
constant s
CCateg Spec
308 1488
Ġcurradv y
ĠInter pretImageProperties
ĠPQconninfo Option
encryptionUpdate Command
encryptionUpdate Ack
installed Extension
ĠSizeOf Header
scratch pad
videoFastUpdate MB
videoFastUpdate GOB
BN DCFGS
BLA CK
BLA ZE
HALT ED
Pa lette
vo ices
win sr
wid get
nto a
Ġmq enc
Ġretr ieving
Ġnump kts
REEN LIGHT
ĠdefineP airTwo
CSt ate
prior itization
315 1614
Ġpointer Client
Delete Array
ĠWeb UsbDe
SUGGEST ION
698 6708
escrow entry
Ġextras pec
cpmsetscope prioritization
PropSet s
ĠWaitFor Finished
ĠAcquireImage Colormap
mobileMultilink FrameCapability
ĠField OrderCntList
gateway Address
Location Indication
ĠShow ingInterstitial
232 3494
GSS API
Imp l
PM NS
VB D
WH AT
gv Context
general ized
Ġam bient
Ġhi bound
Ġqueue d
ĠPre fix
shaper s
ĠIAD S
EXEC UTE
symbolic id
CapabilityDescriptor Number
ĠMBSPatch Triple
different ial
different Port
MVC Command
ĠextNeg List
448 55176539264
ĠCOMPLE TE
Ġbcd ADC
FaxUdp Options
72832 248976
Pointer Event
024 0
024 278
01010 101
01010 10101010
SCS US
Ġtn ref
Ġ154 858
INNER STATUSCODE
Ġgre ater
Ġgre yscale
ĠByte s
Ġconstra in
Ġconstra ined
Ġdia ledDigits
Ġcblkt ly
Ġcblkt lx
multip ly
549 3081488
2826 2768
videoCapability Extension
Ġtlprct ly
Ġtlprct lx
Ġcalling APTitle
Apprtc Instance
ĠCheckP references
ĠCheckP ublicKey
ĠNEW KEYS
customPicture Format
customPicture ClockFrequency
RCV RL
Remove Connection
ĠVirtIO Device
ĠCAFChannel Description
ĠCAFChannel Layout
CRowSeekAt Ratio
ĠBookmarkBubbleSignInDelegate Test
Associ ate
Dist iller
ELEMENT S
stos d
STAND ARD
Ġdefn Dumped
ĠMark Trusted
Com ment
5519 24087
miniv id
ĠVdp ReferenceFrameH
bsock et
876 292870
NEIGH BOURS
Images ToRGB
extensionAddress Response
ĠAdvance All
MODI FI
ĠFileFunction Call
terminalList Response
returned Function
ĠCould n
ĠThread Task
ConferenceID Command
capabilityDescriptor Numbers
capabilityTableEntryNumber s
SEGMENT S
Removal Parameters
Ġrspder len
ĠkDenoiserOn YUV
CHROMI UMI
859 84367
PEND SV
WINDOW S
sm ooth
ĠSS IZE
ĠIT ERATOR
Ġicu DataDir
Ġ131 56860
Ġvns len
tector Test
ĠAL GO
ĠActivate Parameters
REVALID ATING
ĠFOR MAT
1652 34047
Ġyp err
Ġ895 390400
cach ing
ĠLF WorkerData
CONSTRUCT ED
ALLEN GE
26214 3
2066 19677
ĠWeight s
ĠWill CheckSo
970 8479
AUTHOR IZED
ĠCookie Settings
Ġpersist er
Authentication AndIntegrity
Private use
ĠVirtI OBalloon
innerdiag nostics
CCategorization Spec
ĠxmlHashScan Full
EXPIRE D
PRESENTATIONCONTEXT ITEM
ĠLinear ise
rowsetevent data
Solid ColorBr
ĠremoteDispatch ConnError
020 8
CANCE LS
Java Script
MER GE
Spl it
Sys Cache
Ġrequ ser
Ġrecur sion
comple ted
Ġvowel SignESpec
ĠCMD ERR
Ġproble m
1232 2173474
ĠPath Exists
ĠisComb ining
2216 88965280
ĠGetHandler For
2067 1673714486
ĠXCF PixelInfo
1410 184337
Decoded MBs
FrameBuffer List
ĠCurr FieldOrderCnt
0705 3760
CACH ING
976 12715
CLUST ER
WithPermissionIncrease Approval
ĠxsltXPath GetTransform
ĠxsltAttrVT Ptr
Keyboard LedState
PARAMETER S
ansparency Parameters
Ġprclyr no
ĠProres Context
AttrTemplate ValueProcess
MANAG ED
7415 19184
ĠxmlXPathNodeSet Add
Ġactually read
Ġlibs chroedinger
WEB SOCKET
Ġtlscred sid
MICRO BLAZE
FRAC BITS
ĠUDataOffset TOC
ĠMatrixLoadf CHROMIUMI
ĠPointer TOC
ĠxsltRegisterExtModule Function
ĠExecEval Expr
ĠIsShowing WebContentsMod
48855 288301
7137 85984367
75748 54829
8198 6
Glyph s
GENCODE TBL
HSA VE
Ite ms
KERN EL
LPW STR
LDM LExtension
Met adata
Mmr Ctx
NSOR DER
OX IMETER
PUL SE
Rich Cursor
SMB ASE
SCA PE
UUN PORT
bPicture Enhancement
dro ps
eDLE rror
fsc reate
genc mn
hav ior
mCT erminal
nsearch Terms
qOS Capabilities
snr Enhancement
Ġ(.. )
Ġish dr
Ġsanit ized
refo x
revalid ating
Ġcsc f
Ġtip c
ĠpNext BcpKey
Ġbog us
Ġmapt ype
Ġemit Keyword
Ġremember ing
simult aneousCapabilities
Ġawa ken
Ġintrud er
ĠdwAttr s
INCL UDE
Ġgconst pointer
ĠgBlock Count
Ġvfl ip
Ġubi k
Ġumt s
Ġnop revcp
Ġnam len
Ġnchr s
Ġnzbin s
ĠBegin OfThisString
Ġras message
Ġlch Id
Ġlif e
chairToken OwnerResponse
excessive Error
ĠABS OLUTE
Ġwday num
Ġwordex p
RELO CATE
RECOVER Y
ĠkFirst RequestId
ĠkBund ledExperiment
ĠkSecond RequestId
ĠkWeb RT
ĠkYahoo Domain
ĠEqual s
ĠFIL TER
ĠUPR V
1676 34899
16812 577077304
245214 1
Ġ437 28129
Ġ415966 375198131
ĠCBase StorageVariant
ĠCDX LVideoContext
ĠHIST ORY
elap sed
Ġqmemp ing
ĠTry Read
ĠTgq Context
ĠTyph oonState
Ġ3192 165150896
6417 252430
64255 95149
641057 106085
Ġ858 87135
InSub PictureNumber
ĠMIM IC
ĠMOT ION
ĠScor ing
ĠSilently HandleRegisterHandler
ĠPUB LISH
shock wave
ĠisFirst Buffer
ĠisPN J
ĠisEscape Appended
Ġmixed mv
refere ncetype
Ġyynew state
CHOS EN
ĠcurrentMask FromUnicode
keyiv gen
Ġlastav t
FFound ry
Ġdiction aries
GSMA udioCapability
subPicture RemovalParameters
Ġdomin ant
Ġ71630 831272515966
VERBAT IM
Ġintersect Base
Ġadopt Cmd
cfiltered docs
cscor t
MAXCL TJOBID
26544 75221056
Ġ1208 165234047
ĠGetInstalled Extension
ĠGetGra ntedPermissions
ĠGetWrap ped
56978 5712557
THERMO METER
Protection Method
80777 091
20398 6417252430
ĠXInt ernAtom
ĠXMatch VisualInfo
ĠxmlDefaultSAX Locator
requestTerminal Certificate
Defragment ation
ĠQemu Opts
ĠQCEL P
ĠWHO HAS
89255 52398
8996 2916
662624 4
ĠMAXPG PATH
1594 9708479
BufferCreate FilenameValue
MVCIndic ation
ĠrfbText MaxSize
ĠrfbWrite Exact
ĠJava ParamRef
Ġsaveconfig dir
378977 59012
OPTIM IZED
videoNot DecodedMBs
Ġ2447 07053760
Ġdistinct Clause
Ġviram a
670001 2452141
Ġ1460 203986417252430
cpmrestart position
vertCMYK ImagesToRGB
NEARE STA
ĠcompareMapping s
ĠSetWas InstalledByCustodian
ĠPyCaps ule
ĠINCRE MENT
Ġsigempty set
ĠcurrTable space
rangeOf BitRates
ĠxsltExtensionInstruction ResultRegister
23566 076695
ĠIsWindowFullscreen ForTabOrPending
ĠCPMSetBinding sIn
Ġ\"../.. /
rfbBlock Size
rfbFileTransfer Msg
ĠCheckDisabled ForCustodianApproval
384744 7574854829
483869 641057106085
6216181 551924087
ĠPQconnect db
ĠtlvExt Type
ĠCreateUnique TempDir
UpdateEvent Count
ĠappendStringLiteral Conn
terminalCertificate Response
701414 6700012452141
Ġwriteth rough
encryptionAlgorithm ID
569596 2093
2481459 81986
RANGEBOUND ARY
Ġ66006 20671673714486
EncryptionReceive Capability
FaxTcp Options
78998512 167634899
87778920184 6276110
ĠUninstall Extension
mobileOperation TransmitCapability
Ġ5611940 1410184337
hsds ch
iPSourceRoute Address
Ġtlsextnextproto ctx
Ġ69806 37897759012
Ġ47159 221688965280
3579022 86
ĠSupervisedUserNavigation Throttle
SYMBOLI CID
ĠExtensionServiceSyncCustomGallery Test
ViaGate way
lostPartial Picture
Ġ90695 16812577077304
Ġ91556384 97612715
ĠSetMaxBlocksAfter Defer
ĠClientHintsLifetime Not
65804515766 89962916
GUARANTE ED
REENLIGHT ENMENT
3151614 2323494
ĠWebUsbDe tectorTest
6986708 248145981986
ĠShowingInterstitial Page
44855176539264 66069
72832248976 80777091
0101010101010 101
Ġ154858 63
5493081488 206619677
ĠCheckPublicKey Pins
Distiller Params
ĠMarkTrusted Job
876292870 6
ĠThreadTask RunnerHandle
Ġ13156860 8762928706
Ġ895390400 5695962093
ĠWillCheckSo on
SolidColorBr ush
ĠvowelSignESpec ialCases
ĠxsltXPathGetTransform Context
AttrTemplateValueProcess Node
741519184 6425595149
ĠMatrixLoadfCHROMIUMI mmediate
ĠIsShowingWebContentsMod alDialog
48855288301 77756816
713785984367 9922870
mCTerminal IDResponse
ĠkBundledExperiment FieldTrialName
Ġ43728129 23566076695
Ġ415966375198131 126
Ġ3192165150896 245305
Ġ85887135 12322173474
ĠSilentlyHandleRegisterHandler Request
Ġ71630831272515966 81
2654475221056 024278
Ġ1208165234047 591297
569785712557 0093892
8925552398 357902286
15949708479 28262768
Ġ244707053760 6626244
3847447574854829 409
6216181551924087 864
78998512167634899 56
Ġ56119401410184337 28
Ġ6980637897759012 306
Ġ47159221688965280 64
Ġ9155638497612715 289
31516142323494 88244
! '
# \"
' )\"
( )\"
* =
* /;\
+ \"
0 56
0 13
0 15
0 647
1 324
1 00000
3 34
3 35
3 127
3 559
4 26
4 0000
4 77
4 40
4 27
4 315
5 16
5 64
5 22
6 56
6 80
6 50
6 17
6 119
6 6455
7 02
7 67
7 389
7 131
8 50
8 15
8 65
8 127
8 192
8 00000
9 64
9 04
9 54
9 48
9 164
= {\
= '\"
A x
A rea
A pi
A vb
A li
A IO
A bs
A ttempt
B w
B LO
B RO
B io
B PC
B Picture
B egin
B RUN
B asic
B ANG
B ORING
B etween
B ANNER
C V
C k
C at
C PE
C el
C ert
C FF
C PT
C Buffer
C lc
C File
C pf
C apt
C losing
C STAR
C wsl
C ContentRestriction
C FullPropSpec
D V
D r
D VAL
D iv
D yn
D ri
D MV
D ash
D TS
D uple
D uration
D ump
D ANG
D WBE
E O
E quality
E BC
E AK
E AMS
F u
F ER
F our
F AC
F ir
F MASK
F ROUND
F ound
F lush
F loor
F illed
F REQU
F iltered
G C
G P
G R
G W
G row
G UT
G CH
G ROW
G hostscript
H D
H Y
H OP
H dr
H ITE
H oriz
I H
I q
I ET
I EXT
I IArq
I DEO
J n
J peg
J son
K A
K b
K v
K NOWN
K ILL
K FACTOR
L f
L z
L OP
L CH
L CP
L ASS
L FE
L bound
L BC
L STAR
L aunch
M G
M M
M c
M o
M CT
M CH
M ant
M SIZE
M ost
M bs
M US
M iter
M onitor
M la
M erge
M STP
M MX
N G
N I
N Z
N est
N CE
N av
N TH
N RD
N SEC
N ak
N ATIVE
N ackMessage
N ackMessageOnly
N INF
O O
O ffer
O CATION
O VF
P t
P y
P id
P SS
P FI
P SE
P ass
P CR
P lay
P olic
P seudo
P BS
P DFA
P ublic
Q Z
Q ed
Q RANGE
Q cifMPI
Q oS
Q CX
R Q
R a
R u
R et
R and
R IS
R ule
R ROUND
R ound
R ename
R Kr
R asMessage
S AR
S ent
S chro
S IE
S wap
S VR
S ALIGN
S MBD
S REJ
S qcifMPI
S NAPSHOT
T X
T ON
T IT
T ED
T AM
T IX
T VB
T Jn
U V
U f
U r
U AL
U ri
U IV
U zy
U CBuffer
V O
V X
V ert
V array
V irt
V INTR
V CNT
V endor
W L
W i
W s
W ALL
W AVPACK
X I
X N
X CH
X debug
X FER
Y k
Y s
Y v
Y ES
Y EAR
Z m
[ ::
] ,
] :
a q
a z
a le
a che
a mode
a Context
a ep
a ud
a Spec
a utilus
a columns
a fdpart
a Columns
a DV
b m
b ip
b ility
b idi
b race
b alloon
b urst
c co
c id
c cl
c skip
c Len
c props
c bookmark
c dims
d v
d ch
d pi
d ry
d CS
d op
d quant
e ver
e per
e Number
e vbuffer
e lev
e poch
f ort
f index
f ld
f lu
f lat
f ma
f ingerprint
f putcsv
g E
g c
g id
g if
g Index
g FN
g hostscript
g QZ
h n
h nd
h rd
h Capability
h lc
i A
i ct
i ode
i ms
i count
i res
i ally
i Sp
i mmo
j unk
j oliet
j Yv
k ill
k pa
k ids
k bps
k PSK
l ch
l ass
l list
l stat
l adr
l hw
m al
m nc
m tp
m us
m cu
m oo
m ock
m utt
m REJ
m ware
m SREJ
n ect
n is
n mv
n error
n av
n ib
n blah
n gsniffer
n ackMessageOnly
n intl
o unt
o xt
o pendir
p d
p x
p ch
p str
p val
p ow
p ull
p Value
p ness
p unct
q Type
q coeff
q target
q cow
q oS
q Ck
q Ys
q Zm
r sp
r list
r ans
r state
r ink
r anges
r pipe
r txn
r gsabound
s I
s len
s URL
s Test
s ome
s obj
s vq
s Password
s chedule
s Are
s TestingProfile
s Rand
t k
t v
t on
t type
t ld
t ak
t MSTI
t VBR
t Uf
u ad
u ation
u kt
u NER
u IH
v string
v ind
v uff
v atar
v acuum
v olatile
v TJn
w mem
w uN
w Bw
w RKr
w SAR
x x
x ss
x ab
x port
x malloc
x Lz
y Uy
z s
z ig
z Uzy
Ġ IG
Ġ NA
Ġ Reject
Ġ LOOP
Ġ artic
Ġ( -
Ġ- %
Ġi st
Ġi rc
Ġi alloc
Ġi list
Ġi lim
Ġi mplement
Ġi ptc
Ġs v
Ġs har
Ġs im
Ġs yn
Ġs udo
Ġs quare
Ġs qcoeff
re and
re load
re nce
re open
re build
re play
re quire
re configuration
re negoti
re direction
Ġc or
Ġc ine
Ġc ptr
Ġc ip
Ġc index
Ġc table
Ġc sco
Ġc test
Ġc ustom
Ġc Node
Ġc vec
Ġc losure
Ġc losed
Ġ* /\"
nt ype
nt op
er ce
er vice
er ci
er BitRate
er Valid
er Search
st age
st ere
st arter
de int
de nce
de quantizer
de Activate
de centralizedConferenceMC
at ol
le File
le Multiplex
Ġt entries
Ġt gt
Ġt gv
on ed
in ity
in complete
in dependent
in ates
in sensitive
Ġp or
Ġp nd
Ġp im
Ġp ul
Ġp sc
Ġp ns
Ġp src
Ġp entry
Ġp ep
Ġp cr
Ġp Header
Ġp pix
Ġp fn
Ġp Bidi
Ġb ey
Ġb urst
Ġb etween
ar ri
ar abic
ar qType
Ġif ile
Ġif ace
me tric
me Up
Ġ1 64
Ġ1 77
Ġ1 87
ro bin
ro ved
Ġf len
Ġf size
Ġf ref
Ġf buf
Ġf low
Ġf stat
Ġf resh
Ġf File
Ġf Fi
Ġf Spec
Ġf adst
Ġf putcsv
Ġf Features
Ġf UCBuffer
Ġf mtp
Ġf sobj
Ġm ang
Ġm aybe
Ġm OSSL
Ġm findex
Ġ\" >
Ġ\" .\"
Ġ\" >\"
Ġ\" ),
Ġ\" [%
Ġ\" ?\"
Ġe b
Ġe f
Ġe fo
Ġe data
Ġe depth
Ġe calloc
Ġe ven
Ġe ither
Ġre new
Ġre load
Ġre neg
Ġre ach
Ġre jected
Ġre roll
Ġre cla
al m
al one
al Mode
al Header
al pdu
al sdu
al phanumeric
co ve
co pts
si z
si nt
si mpl
si bility
Ġ. \\
Ġo bt
Ġo scope
Ġo ui
Ġo nto
Ġa pt
Ġa fi
Ġa stream
Ġa buf
Ġa bits
Ġa ns
Ġa mt
Ġa cb
Ġa refs
Ġa ggreg
Ġa mount
Ġa columns
Ġa ffine
Ġint rap
ff Info
ff eature
it able
tr im
tr ansparent
tr ansparencyParameters
Ġd d
Ġd rc
Ġd ts
Ġd addr
Ġd warf
IN ER
IN COM
IN PIXELS
IN HIBIT
or tp
or ies
or ient
Ġg str
Ġg ener
Ġg ids
Ġg Null
ST OR
ST UN
pe p
pe ex
pe ak
Ġv err
Ġv server
Ġv apic
Ġv orbis
Ġu port
Ġu Len
Ġu bidi
Ġh sc
Ġh ard
Ġh old
Ġh nodes
ad ic
lo ca
lo ose
lo ssless
te v
te leph
et NextUChar
Ġn ic
Ġn el
Ġn index
Ġn match
Ġn pop
Ġn arr
Ġn entries
Ġn Raw
Ġn priorities
Ġn limbs
Ġn Items
Ġn Ret
Ġn kids
Ġn ukt
NU ME
id le
Ġcon current
Ġcon flict
set key
set present
set Events
ĠB H
ĠB and
ĠB ack
ĠB us
ĠB ts
ĠB MS
ĠB PER
ĠB its
ĠB MSIZE
len d
len offset
len used
ic on
ic Exception
ic Coding
EN SIZE
EN SA
EN IED
Ġret Val
Ġconst isnull
Ġ2 16
Ġ2 13
Ġ2 14
Ġ2 59
Ġ2 02
Ġ2 07
Ġ2 047
int egrity
Ġr y
Ġr ab
Ġr state
Ġr find
as m
as InstalledByCustodian
har k
har s
har dw
Ġl and
Ġl ms
Ġl step
Ġl pf
Ġl Lbound
Ġde li
Ġde ll
Ġde tail
Ġde allocator
CT CH
Ġreturn dist
Ġco s
Ġco mb
Ġco okies
Ġco located
to u
to disk
to Lower
ag vuff
ch ind
ch Flag
ch air
ch osen
ch pw
Ġx start
rea ded
Ġst ab
DE ST
DE LAY
DE ALLOCATE
th an
th res
th readed
ing Message
ing ForTesting
ing Depth
ing wSAR
nd z
ue s
ed it
ed undancy
ed Sl
ed Motion
fo ld
ion s
ion Parser
ex sl
ex act
ss PreferredMode
SS P
SS V
Ġav l
Ġav m
arg c
ate Call
ate gspec
ĠA PR
ĠA ll
ĠA IA
ĠA vs
ĠA LTER
ĠA UD
ĠA sTestingProfile
ĠA vatar
Ġin a
Ġin maclength
Ġin LayerInfo
Ġin DocInfo
ab b
ab lish
Ġstr value
Ġstr mov
32 24
32 97
32 308
um s
Ġbu iltin
Ġw st
Ġw ent
Ġw bio
Ġw Version
Ġw ops
Ġw ioc
Ġw tz
Ġw clause
RE LE
RE PH
RE ALLOC
24 2
24 84
24 09
24 94
OP M
Ġk e
Ġk free
Ġk nown
Ġk Cont
Ġk Extension
Ġk Name
Ġk event
Ġk Browser
Ġk Download
Ġk vno
Ġk ee
Ġk Child
Ġk bnode
Ġk lass
ĠE lement
ĠE ntry
ĠE MS
ĠE EXIST
ĠF ERROR
ĠF lags
ĠF ATAL
ĠF HT
ĠF etch
ĠF LC
ver ity
ver State
ver station
str ain
str lcat
str ategy
AL ED
AL TER
AL Comb
IT ED
IT IVITY
ĠU SING
ĠU BI
ĠU PPER
Ġmb Limit
Ġun up
Ġun safe
16 6
16 09
pt ime
pt agvuff
Ġdef pol
val size
type id
type IArq
type IIArq
Ġ4 11
Ġ4 87
Ġ4 99
Ġ4 48
Ġ4 62
Ġ4 76
Ġ4 03
Ġ4 51
Ġ4 96
Ġ4 1077
Ġ4 445816
and ler
and roid
and atory
and alone
ĠC W
ĠC mv
ĠC all
ĠC FRAME
ĠC rypto
ĠC Row
ĠC SI
ĠC Column
ĠC EPH
ĠH ENABLE
ĠH andle
ĠH OME
ĠH GW
data Mode
data Partition
MB S
MB ITS
OR IAN
tx frm
pro cm
OPEN RIS
LE VE
LE ToUnicodeWithOffsets
00 3
00 32
00 12
00 69
00 28
00 97
00 78
00 1677
if ies
Ġsize s
Ġy ss
Ġy dpi
bu sy
bu ndle
info NotAvailable
Ġq e
Ġq bits
Ġq zbin
Ġq mfb
is set
is Privateuse
up s
VP XY
VP XI
ap free
ap ping
ap parent
ĠT K
ĠT ab
ĠT Count
ĠT AB
ĠT PG
ĠT Base
Ġ3 84
Ġ3 000
Ġ3 07
Ġ3 01
Ġ3 52
Ġ3 47
Ġ3 93
ot tom
Ġbuf siz
ist ream
Ġdata Offset
ack And
ack Or
ack Pt
64 00
64 02
64 68
64 05
64 75
Ġj oin
ser View
Ġ8 04
Ġ8 08
Ġ8 0400
CS ET
CS RC
Ġcur loc
em on
em ap
Ġex tend
Ġex cessive
Ġ% -
LO SED
AT M
AT EL
AT OM
en ni
In active
In ner
In Background
In Progress
get n
get ref
SE CRE
SE PARATE
name server
ĠAV INDEX
il bc
Ġer roff
sp lay
con verstation
Ġproto cols
op us
op DecContext
op reand
ip r
ip acket
ip mi
ip ly
ĠM A
ĠM ON
ĠM OD
ĠM AIN
ĠM MR
ĠM imic
ĠM Jpeg
12 37
12 6540
Ġout c
Ġout Result
Ġout compression
ms b
UN ION
UN LOCK
UN ABLE
UN MAP
UN COMPRESSED
ffer s
ment Failed
ĠS pl
ĠS CM
ĠS PR
ĠS OS
ĠS ORT
ĠS RTP
ĠS afe
ĠS ERVER
ĠS uccess
ĠS NAPSHOT
ĠS CSI
ĠS ipr
DEC LS
mm hg
TYPE EXT
ra mb
ra Coding
Ġ' \"
Ġ' !'
Ġch idx
ĠP F
ĠP ol
ĠP ass
ĠP INFO
ĠP ORT
ĠP AM
ĠP run
ĠP SK
ĠP ush
ĠP reserve
ĠP ALETTE
pr un
pr cs
ES P
sh ip
ca ught
Ġop idx
row sto
Co der
Co rosync
Co meUp
rc s
rc pc
Ġis n
Ġis gt
Ġis Bcp
Ġis Equality
no op
no Multiplex
no Restriction
no Arq
no isi
item state
mem usage
Ġframe size
LA G
LA UT
est Entry
Con s
Con sonant
Con strained
Con straint
ĠG X
ĠG INT
ĠG Error
ĠG ray
ĠG lob
ĠG ROUP
ĠG STE
ĠG POINTER
ĠG dk
ĠG ENERIC
ĠG tk
Char Create
Ġref ill
Ġref erer
file a
file b
file c
file size
un limit
un su
un encrypted
un compress
un icast
un framed
un restricted
un icastAddress
Ġfi b
Ġmi uri
Ġgo al
Ġgo ogle
Ġend ptr
Ġend bands
CO X
CO MB
CO AP
128 467
mv p
mv pred
mv cs
mv rs
Ġstep size
sk ew
unc ert
red TCF
DEF PIXEL
bit offset
bit exact
Ġpi rlvls
ort SetPresent
ation Number
ert ing
Ġ16 2
Ġ16 5
Ġ16 383
Ġ16 670
mb graph
log level
us oid
Ġerr key
par r
def Type
num Of
num cmpts
num rpipe
PH ONE
Ġnum str
Ġnum ref
col li
col map
col lection
22 0
Ġto upper
pl ans
ref count
ref counts
ref PictureSelection
Ġblock count
Ġblock pos
Ġget c
Ġget bit
Ġget bits
Ġget time
Ġget CsvControl
Ġvalue offset
Ġvalue used
nv ic
RO C
RO BE
Ġmy challenge
Ġmy isam
ĠI O
ĠI t
ĠI gno
Ġyy p
Ġyy r
Ġyy in
Ġyy table
Ġyy check
Ġyy parse
Ġyy default
Ġyy return
Ġyy stos
Ġyy reduce
Ġyy bm
all ingMessage
Ġline length
CH ACHA
CH ALLENGE
VAL NUM
Ġpar m
RA CH
RA ILS
IZ ATION
NO ERROR
NO ENTRY
NO DOT
Ġcurrent pic
MP DUSize
Ġmv X
Ġmv Y
Ġmv dir
Ġnext BcpKey
Ġnext tok
Ġse tenv
key ing
key buffer
key words
key ProtectionMethod
qu eries
po ld
po les
index end
index start
mode Un
mode Change
ĠL Z
ĠL ENSIZE
ĠD X
ĠD yn
ĠD MA
ĠD ump
ĠD SPContext
ĠD ENIED
Ġgb c
ac p
ac ility
AD A
AD PCM
AD CAST
Ġlength used
Ġid len
Ġid cin
Re cor
Re enable
Re gex
ul clientbase
CON SO
CON STANT
Ġtarget List
CE ntry
Ġ6 57
Ġ6 8056
error Com
EX TR
Ġ5 80
Ġ5 49
Ġ5 76
Ġ5 704
read ing
read buffer
BIT EM
stream Descriptors
ant ics
ant ization
ant iSp
string z
ol ss
Ġtmp Source
Ġtmp sct
Ġlast mv
Ġlast conn
print Toc
Ġwh ose
UE ID
UE xt
ind ication
count SUID
Ġdi re
Ġdi ffers
am Algorithm
am ount
Ġth em
Ġth eta
rd te
out going
Ġsub ns
Ġpr g
Ġpr chind
Ġsrc path
GS BASE
GS IZE
Ġsh m
Ġsh rink
sub Channel
sub band
sub pel
sub Address
sub packets
sub rs
sub family
sub PictureNumber
picture s
picture Rate
picture Reference
tt y
Ġcb Elements
Ġoutput len
Ġmem dup
Ġmem cntl
comp at
comp uted
Un chunked
Un restricted
Un coup
Data Capability
Data Ptr
Data Partition
Data gram
Ġinput ing
Ġ7 0100
Ġ7 2757
Ġ7 0300
Ġ7 320
Ġsc cp
err s
ift file
Ġnew mv
Ġnew entry
Ġnew Length
Ġnew locale
sc allno
sc ramb
Ġcol field
Context Size
Context FromUnicode
Context Menu
ĠR ange
ĠR aw
Ġ/ .
Ġms wsp
Ġms video
Ġbytes FromUTF
end er
end SessionCommand
iv i
Ġbit shift
Ġbit mask
Ar chive
ns rp
Ch oo
Ch aptered
Ġz c
Ġz index
Ġz object
Ġz apfree
form Loop
Ġinter count
Ġinter leave
Ġresult Locale
Ġad apt
38 56
ĠO SSL
ĠO bj
10 13
10 53
Ġbuffer length
Ġbuffer Len
Ġen countered
msg count
Ġtemp Target
Ġtemp ContextFromUnicode
TIME CODE
Ġass oci
Ġpre p
Ġpre gs
one Of
one Event
vm zo
copy ing
copy right
31 9
31 35
31 40
31 58
31 48
31 889
31 132
spi ll
ĠY opDecContext
Ġtr sz
Ġtr va
Ġfile fd
Ġfile Size
Ġiv i
cs name
cs ortp
LI MB
Uni Cast
Ġmax Size
FO C
FO REG
FO XX
Ġxd pi
MAX DEPTH
low addr
low Frequency
55 39
55 98
55 544
55 08796
min Char
min Polic
min ipacket
Code Rate
Code words
packet ize
io thread
ok s
Ġme Limit
BOO ST
Ġimage Opts
per c
26 9
26 122
26 375
04 04
04 196999
ĠV BLE
ĠV ideo
ĠV IRT
ĠV IDEO
init ion
init sz
PR I
PR edundancy
fb wd
ĠN I
ĠN Count
ĠN avigation
ĠN autilus
AP IC
AP PRO
AP PARENT
ĠGet File
ĠGet Or
ĠGet Default
ĠGet DisableReason
ĠGet HighResAvatar
56 702
cp Video
cp sr
Ġstart LDMLExtension
Ġcomp Bu
round robin
Ġdis w
Ġdis patch
xy z
Pro ps
Pro ceed
Pro ximityPosition
stat offset
stat used
0000 1
0000 3
0000 02
inter pol
11 000
11 40
11 59
11 100
11 13819
11 3888
80 3
80 34
IS truct
20 6
20 9
20 10
20 577
20 529414
20 2409
34 6
34 17
34 65
34 44
34 82
IO BUFSIZE
ial ized
Ex pensive
Ġal loca
Ġswitch es
max H
max ret
max Window
max Al
max NT
max Pending
max MUXPDU
max Pkt
max NumberOf
Ġoff Image
Ġoff Setup
Ġoff ImageHeader
rate y
Ġset buf
Ġset CsvControl
Ġxml ThrDef
UND O
19 00
19 50
19 14
19 07
19 05
19 726
19 056
PI C
PI PE
50 7
50 27
50 79
50 726
ke eper
OW HITE
mask ing
request For
request MultiplexEntryReject
request TerminalID
request ChairToken
request Denied
Ġenc rypt
Ġ9 1609
LIT ERAL
To Long
To Slave
To Zero
To Language
To Master
To Activate
To Tree
To ComeUp
84 231
QU IET
Ġ32 000
ĠRE BASE
14 4
14 69
14 09
14 012
lu de
big ger
big Cpf
Type IsNotSupported
http post
mod ern
mod princ
mult iling
Source s
Source Timestamp
Source Picoseconds
Ġdecode uint
Ġdecode netnum
IL Y
Ġread able
Ġread this
rtp H
rtp Audio
Ġoffsets FromUTF
SP B
SP AC
SP ORT
cb row
cb seek
cb reserved
cb elements
cb readbuffer
Ġpb est
AC D
AC F
Ġstatus code
Ġstatus offset
sect ed
url s
IV F
IV Request
IV Response
NOT NULL
NOT ES
ĠQ IO
ts Controller
77 3
77 36
77 825
version Number
ĠMB A
dec r
ĠYY LAST
ĠYY INIT
ĠYY ABORT
ĠYY MAXDEPTH
ĠW ide
ĠW IF
ĠW NV
ĠW asInstalledByCustodian
Ġcontext Size
89 7
89 97
89 09
Ġsp lines
Ġsp anning
Value Template
Ġlo ss
17 4
17 08
17 135
17 353
RP FT
RT IO
RT AGIDX
Ġpd st
Ġpd if
Ġmask Enum
map ping
Ġfirst c
Ġfirst color
SU CH
SU BITEM
pc i
pc r
pc nt
pc ert
Ġps w
Ġps ource
Ġps wd
system Loop
port s
port Number
66 3
66 07
ir Create
Ġparse String
Ġparse Variant
Ġparse StatusCode
Ġparse ExtensionObject
Ġparse ExpandedNodeId
15 323
15 126540
15 3417
bs wap
Ġprev type
000 2
39 30
39 58
39 125
39 260
Ġtrue Colour
Frame List
Frame Count
base BitRate
Set ItemString
Set ColourMapEntries
29 59
29 08
29 01
29 79
Ġvar type
MV S
FA CI
FA udio
lc se
ĠIS DIG
VI RTIO
back Test
87 4
87 55
87 23
87 60
87 83
35 78
35 237
69 0
69 7
69 63
rect angul
Channel Descriptions
Channel NotAllowed
En queue
En hanced
addr s
Ġfd t
40 3
Ġrfb Extension
Ġrfb Abort
Ġrfb CFile
CODE PAGE
US ize
Ad vance
sb eNumber
UNI DIR
Ġev sig
30 87
30 30
30 98
TO CEntry
37 37
37 49
37 077
parameter Value
parameter Identifier
FOR K
59 05
59 153417
Ġmin qtarget
Tr ack
Tr unk
Tr ansaction
mat erial
54 762
be havior
ge ometry
ĠZ WNJ
Ġac ct
Ġsegment yrate
part ially
invalid SessionID
invalid Dependent
Ġold H
Ġold Is
Ġold Node
Ġold Doc
Ġold ContextSize
Ġold msgcount
Ġold ProximityPosition
Str dup
Str ToLong
28 20
28 28
ĠVAL UES
Ġ15 3
Ġ15 00
Test Capability
Ġsy mlink
List group
ĠAS CEND
Ġcopy ing
Ġreq db
CONT AIN
Pi hlc
COMP ARE
DO OFFS
ĠTR USTED
Ġattr Start
ĠCur rent
27 9
27 407
GET N
test ing
REF INE
REF MISMATCH
END ENT
Int raCoding
Ġadd chr
user Data
user Rejected
ĠIn struction
Log ical
Log icException
vi sibility
video Data
video Mode
video Command
video BitRate
video Segment
video Temp
video Freeze
video Mux
Ġuse NewFBSize
status Determination
58 59
58 364
58 287
:// [::
CP M
Ġhdr token
Ġ24 3
Ġ24 6
Ġ24 7
Ġ24 8
bl ack
Ġ11 8
param S
263 6405
com fort
Ġabs olute
Ġserver dict
scope d
MON OWHITE
zero Delay
EXP N
ĠTS Over
File Object
msr le
57 2
57 3
57 5
57 8
57 810
57 806
57 4798
fc nt
Ġtw om
Ġ13 6
ll is
Ġalloc String
Ġalloc ating
Ġpp har
change pw
Ġhttp string
Ġhttp post
Ġnode Tab
Ġcontent header
67 23
67 1414
67 3482
67 57810
cur acy
cur veto
default CPT
samples Per
samples PerFrame
Number Processed
07 9
07 80
Ġ14 1
Ġ14 2
Ġ14 5
Ġ14 7
Ġ14 9
Ġ14 496
Get File
Get ItemString
job save
ĠAR M
MS MPEG
MS VA
MS ZH
ical Numbers
ical izing
18 5
18 6
18 89
18 8950
Fi fo
ASS IST
ASS IGN
DIR MISMATCH
Ġpg user
STAT ION
Ġgs m
factor y
08 54
08 680
08 58287
Ġat m
Ġat omic
And Update
And Receive
And Reassemb
And Clip
And Removed
And Extract
man y
man ufacturerCode
PRO GRAM
Ġ17 2
Ġ17 50726
cr lf
Ġno space
ĠAVP ROBE
Window Open
Window Use
fl ipped
Ġpos sibly
Th en
IA qCk
bin pad
pass wd
String Length
Ġ(% \"
pa k
Ġbe ing
97 11
Ġpass arg
Ġlf p
Ġlf parr
alt ref
best err
Ġover shoot
ĠmySource Length
spec ial
high erBitRate
high estEntry
ĠSet Short
ĠSet Keyword
ĠSet Checked
ĠSet Must
ĠSet SupervisedUserId
next PictureHeaderRepetition
env vars
Ġtp secs
From Pa
mac d
Ġ19 1
Ġ19 4
Ġ19 6
IM vTJn
Ġdb ref
Ġdb ctype
Ġdb encoding
Ġdb collate
Ġdb acl
Ġdb connlimit
DIS K
ĠPy Long
ĠPy Arg
reference PicSelect
25 0437
ERO US
service Class
service Subclass
Ġmessage Name
33 56
ĠCON N
ĠCON FLICT
ĠIN PUT
ĠIN DEX
ĠSE C
ĠSE Q
ĠSE COND
Ġsig len
Ġsig procm
Ġ\"\\ \\\"
iter ate
Request Message
Request Reason
Request MultiplexEntry
Request Nak
AM R
thread Number
xml Char
Ġ18 1
Ġ18 2
Ġ18 5
Ġ18 8
Extension Address
lf g
pg pcert
264 207
color ant
vari adic
control led
control Field
control OnMuxStream
Ġauth key
channel Tag
frames Per
frames Between
sample d
sample Size
Ġlocal time
SY SC
SY NT
Image Data
Image Size
Image Transmission
Ser ialize
Ġmod ification
token Rate
exp ression
rection alMode
Target List
Bit stream
Bit Removal
Ġts fb
Ġ\"| \"
audio Data
audio Mode
audio Teleph
audio Tone
audio TelephonyEvent
ĠPI CTURE
ne utral
led Protocol
led Sign
99 68
99 306
SW Msg
With I
With No
With Up
With Checked
generic H
generic Command
generic Response
generic Indication
generic VideoCapability
generic AudioCapability
generic VideoMode
generic ModeParameters
generic UserInputCapability
generic AudioMode
generic ControlCapability
generic DataMode
generic MultiplexCapability
generic TransportParameters
generic DataCapability
last filled
Ġindic ates
lib secret
Ġim cb
44 877
44 249
44 56702
For Reference
For SetColourMapEntries
Ġsr puserseed
ination NotSupported
sent ation
Ġne utral
with Header
with prop
with draw
with Option
Ġxslt Check
Ġxslt XSLT
Ġxslt GetName
send TerminalCapabilitySet
FE CMode
late ness
Key words
over read
over shoot
message Identifier
23 55
23 009
88 3
88 59
88 289
88 627
ĠSB ase
ĠSB REFINE
Ġfname cmp
Ġmap s
TS N
Le ssPreferredMode
PAR M
Ġglob index
PTR NAME
PTR BUFFER
ĠCO OK
Config Key
Config uration
Load Document
Sync Points
nr tVBR
AB R
AB ORTED
Not Per
Not Used
Not Compute
Ġar mv
Ġva copts
Picture Index
Picture PTS
cert SelectionCriteria
cert Protected
seg map
ĠIs Ignored
ĠIs Virt
09 00
09 4255
49 5838
Ġword root
close dir
mission RejectReason
ZERO A
ual File
ual hints
loop Back
loop backTest
Sh ared
100 6
cal led
ĠLOG SB
LIMIT ED
mc LocationIndication
div ide
36 26
36 1113819
Video BackChannel
Video Play
Video Uncoup
Ġprc xind
Ġprc yind
Ġprc vind
Ġ26 8733
Ġ26 0069
45 3
Ġput c
ise Delay
Ġrb adr
ADD RTAGIDX
VIS ITED
Ġback end
Ġback ward
Ġ29 2
Ġ29 3
slice context
Address Field
Ġfunc s
Ġfunc variadic
Ġdns cache
Stream Handle
Ġpdf write
CN atLanguage
CN XN
Ġpat len
Ġdecomp ose
Ġdecomp ressed
ud ge
Ġsto ptime
signal Type
signal Address
Ap ps
Ġgf x
VL CMode
Ġcmd s
Ġorig Ns
60 6402
ssh fp
Ġplan emap
ridable ConfigKey
Client CutText
OD D
net Bio
pb Frames
Ġbp du
Ġinitial izing
Ġnull str
ĠPAR AM
68 6
68 268
Ġpal g
rfb Send
rfb KeyEvent
rfb FramebufferUpdateRequest
rfb PointerEvent
rfb ClientCutText
unpack ing
Ġinterp mvp
Do NotCompute
USER NAME
USER AUTH
Ġqemu Report
Ġqemu Monitor
Comp ressed
ĠRD MULT
unknown Function
unknown DataType
Profile Shutdown
select ivity
Command Message
boolean Array
79 6
mark s
Ġdiff s
Ġdiff Idx
Ġupdate Mutex
SKIP DOTS
den sity
UB R
Qu antization
Ġcnt len
ntoh u
Ġbad arg
Ġbad oid
Ġbad op
Ġraw size
ĠTest With
ĠTest Replace
62 31
62 19056
62 15323
:% .
BE OS
BE COME
New Array
by pass
long Term
single BitRate
ĠRe set
ĠRe place
ĠRe build
ĠRe cLen
Text RegionParams
gistr ationRejectReason
cc ategspec
crc NotUsed
Ġfound it
Ġscratch buf
Ġremote Serialize
Ġremote StreamHandle
push ed
ĠPQ db
null Data
Ġsse uv
Response Message
connection Identifier
200 8
Read Who
report f
Ġclose path
Ġclose cb
Ġwindow Open
clu sive
none Processed
local TCF
local Area
local QoS
ĠRT And
ĠRT Content
ĠRT Not
ĠRT Property
ĠRT ReuseWhere
ĠRT NatLanguage
Filter Mode
PASS ENG
cpu id
554 637
Ġdl error
oral SpatialTradeOff
ĠFA KE
ateg orization
Max Redundancy
Max Kb
PER CALL
VC s
call Associ
mul m
chunk ing
Control NotSupported
Ġon ce
Ġexp ression
Ġexp anded
Inter VLCMode
NEW MV
NEW KEYS
Map per
Ġhash algo
Audio Layer
Audio Sampling
Audio Frames
Audio DelayJitter
Ġtlv Length
Ġtlv Count
Ġtlv Cat
Ġpn skip
Ġby rate
ident icalNumbers
ownload sURL
non blocking
MD AY
gsm Half
gsm FullRate
gsm Enhanced
DP X
med ication
multiplex Format
46 122
46 166
Update Direction
lap m
lap ndz
pad r
comm as
00000000 00
Ġloop filter
Ġloop test
Single Window
Single VCStack
Ġ\"/ %
connect ed
Blob Mode
Tag ging
User Name
xF AX
Ġhigh pass
ĠRead Binary
cif AdditionalPictureMemory
fill BitRemoval
Ġparser s
BAD CODEC
Row setEvents
SI MP
sock s
secure Channel
secure DTMF
REQUEST ED
Open SSL
ux xLz
AUTH REQUEST
Attr Marker
Attr ValueTemplate
Pixel Aspect
Ġroot s
FIN AL
FIN DING
terminal ID
terminal Type
terminal On
terminal Label
terminal Jo
terminal Drop
terminal Left
Default Converter
Default Directory
VM error
rx buf
Block ingForTesting
inf inity
fixed Point
ĠAdd itional
Ġprog ress
SUB NET
By Four
ined Conference
master Slave
master Activate
master MCU
master ToSlave
Ġce lt
Ġtm x
Ġtm pep
ĠEV LOOP
ĠEV ENTS
ĠEV UTIL
striction present
47 08
Range Supported
Sub stitute
Sub ElementListSize
link s
vd Control
ĠSIG PIPE
184 47
full name
full PictureFreeze
full PictureSnapshot
ĠFILE XFER
Ġsaved SharedData
script name
media Capability
media Loop
media Transport
media GuaranteedDelivery
custom MPI
encrypted IA
encrypted Sign
encrypted Alphanumeric
encrypted GeneralString
encrypted Basic
session Description
session Dependency
xB F
function NotUnderstood
sid x
sid ue
ormal ized
sys log
78 534
NT LM
ersion URL
Ġ60 202409
/% -
ĠSET UP
real m
ĠTh is
Restriction s
POST PROC
assemb le
Ġrnd m
ĠFRAME SIZE
maximum Payload
maximum Sample
maximum Skew
maximum DelayJitter
maximum ElementListSize
maximum Nest
maximum StringLength
maximum AudioDelayJitter
maximum SubElementListSize
870 89
Dynamic Port
Ġcre ating
Ġpage s
Ġhe aring
Ġrt cp
255 0647
255 1013
Ġper f
Ġent ities
ĠTr ansparent
ĠTr uncated
ARGUMENT S
receive VideoCapability
receive AudioCapability
receive Compression
receive DataApplicationCapability
receive UserInputCapability
receive MultipointCapability
receive MultiplexedStreamCapability
96 26122
DT A
DT Mode
octet String
reset ICU
ĠCS ortSetPresent
Ġ37 47
ĠxmlStr chr
ĠxmlStr ndup
Warning s
categ orization
categ ories
ui hCapability
met icCoding
Exp onent
Indication Message
70 247
Base d
EC X
Sign ed
Sign alled
Ġcap len
Ġgr ps
opcode s
Locale Key
reverse LogicalChannelNumber
reverse LogicalChannelDependency
Ġcs name
RESS ED
LIB PNG
72 122
72 370
Call ToComeUp
NS COMP
ia id
prop id
prop name
389 369
timeout s
ialize Data
Ġbound ary
window s
window Size
Ġsd x
Ġlabel len
Ġlabel Present
Ġlabel yrate
Ġwrit ing
840 68268
XT ENSA
cre strictionpresent
ĠDI V
ĠData base
ĠData Header
current PictureHeaderRepetition
current MaximumBitRate
Ġsu ch
ĠFind Config
[...]
